#version: 0.2
á »
á º
n g
Ġ t
Ġ c
č Ċ
Ġ Ä
ĠÄ ĳ
h Ã
Æ °
Ġ n
Ġ l
Ã ł
Ġ m
h áº
h á»
Ġ k
n h
Ġ v
Æ° á»
Ġ b
Ġ T
Ġ ng
Ã ¡
Ġt r
Ã ³
i á»
áº ¡
Ã ª
Ġ s
áº ¿
´ ng
Ġ g
Æ ¡
á» Ļ
Ġk hÃ
Ãª n
â Ģ
Ġ p
Ġ r
áº §
Ġ d
ĠÄĳ á»
ĠkhÃ ´ng
Æ°á» Ŀ
Ġ h
u y
Æ° Æ¡
h i
Ġt á»
áº £
áº ¥
Ġt há»
Ġl Ãł
Ã ¢
á»Ļ t
Ġc Ã³
Ġc á»
Ġt hÃ
Ġn h
áº¡ i
Ġm á»Ļt
á» ĳ
Ġ q
áº Ń
Ã ¬
Ġt háº
i áº¿
áº ¯
Ġ háº
Ġq u
Ġ x
iá» ĩ
Æ°á»Ŀ i
Ġt h
Ã £
c h
âĢ ľ
Ġv á»
Ġn Ãł
Æ°Æ¡ ng
Ġg i
âĢ Ŀ
o ng
Ġc h
Ġc hÃ
Ġc há»
Æ°á» £
áº§ n
Ġ H
© ng
Ġ L
Ġt a
Ġc Ã
Ľ i
Ġnh Æ°
Ġn hÃ
Ġcá» §
Ġ há»
Ġcá»§ a
Ġng Æ°á»Ŀi
Ġp hÃ
uy á»
Ġv Ãł
ĠnÃł y
Ã ´
¯ n
Ġl á»
Ã º
Ġl áº¡i
Ä ĥ
áº¿ n
á» ĵ
Ġ N
i nh
ĠT r
Æ°á»£ c
Ġ C
Ġháº ¯n
áº ·
Å ©ng
a o
Ġc háº
a ng
Ã Ń
Ġthá» ĥ
Ġr a
Ġc Å©ng
á» Ł
Ġn Ã³
Ġtr ong
áº¥ t
a i
Æ°á» Ľ
Ġb á»
u á»ĳ
Ġp háº
¢ n
iá» ģ
Ġ hÃ
a n
Ã ½
a nh
Ã¬ nh
ĠÄĳ Ã£
ĠÄĳ Æ°á»£c
Ġm á»
Æ°á»Ľ c
Æ°á»Ŀ ng
Ġn háº
ĠnÃ³ i
ĠÄ Ĳ
£ i
iá» ĥ
áº§ u
uyá» ĩ
Ġ V
. âĢĿ
ĠÄĳ áº¿n
Æ°Æ¡ i
a u
Ġn há»
Ġc Ã¡
ĠÄĳ i
Ġs á»
Ã ¹
± c
a y
Ġ M
Ã¢ y
Ġg iá»
Ġ âĢľ
Ġc áº£
Ġtháº ¥
Ġ D
o Ãł
² n
hi Ãªn
á»ĵ i
. .
Ŀ i
áº¯ t
uyá»ĩ n
Ġm Ãł
Ã ´ng
Ġn á»
Ġchá» ī
ł nh
¥ c
iá»ĩ n
ĠvÃł o
¬ n
ĠÄĳ áº§u
Ġ K
Ġv áºŃ
Ń a
i Ãªn
ĠcÃ ²n
Ġtháº¥ y
© c
ĠchÃ º
iáº¿ t
Ãº c
ĠÄĳ Ã³
Ä ©
T r
Ġtá» «
Ġpháº £i
áº¥ y
áº ½
áº «
Ã¢ n
ĠnhÃ ¬n
Ġk hi
Ġ á»Ł
Ġt iáº¿
Ġl Ãªn
Ġch o
Ġng Æ°Æ¡i
Æ¡ n
ĠphÃ ¡
Ġd á»
Ġt u
áº¡ o
ÃŃ ch
iá»ģ u
Ã ²
áº· t
Ã¢ m
Ġr á»ĵi
áº¿ u
Ġng á»
Ġng h
Ġta y
iá»ĥ u
Ġ B
Ġtr Ãªn
Ãª u
áº« n
ĠN g
Ġh ai
ĠnhÆ° ng
¥ t
Ġs au
Äĥ m
Ġbá» ĭ
Ġc o
Ġvá» Ľi
Ġp há»
ĠÄĳ Ã¡
Ä Ĳ
Ã¢ u
Ġtr Æ°á»Ľc
Ġhá» į
áº¿ t
Ã ©
ĠthÃ łnh
Ã¡ t
Ġtr á»
ĠÄĳ á»Ļ
¯ ng
Ġm áº¯t
ĠlÃł m
Ġm áº·t
Ġg Ã¬
Æ° a
Ġs ao
u ng
Æ¡ i
ĠÄĳá» ģ
§ n
ĠthÃ ¬
Ġvá» ģ
ĠváºŃ y
iá»ģ n
ĥ n
Ġm Ã¬nh
e o
Ã µ
Äĥ ng
Ã¡ c
Ġ P
ı i
Ġk h
Æ° ng
ĳ i
Ġs áº½
Ã´ n
? âĢĿ
áº¡ nh
ĠÄĳá» ĥ
Ġco n
¯ a
ĠL Ã½
ķ i
ĠthÃ ¢n
ĠkhÃ ¡
¹ ng
Ġb iáº¿t
ĠT h
Ġ Ã¡
ĠchÃ Ń
« a
Ġth u
Ġb áº£
uá»ĳ ng
ĠT ÃŃch
Ã£ o
Ġgi a
áº ©
Ġk á»
ĠÄĳá»ģ u
« ng
Ãł ng
áº¯ n
áº »
Ġr áº¥t
³ ng
ĠkhÃ Ń
Ãł n
áºŃ t
Ãł y
Ġd Ã¹
ĠD Æ°Æ¡ng
ģ n
ĠT háº
Ġmá» Ľi
Ġ y
Ġqu a
oÃł n
Ġtá» Ń
Ġnhá» ¯ng
áº¡ ch
ĠÄĳ ang
Ġtháº ¿
ĠchÃº t
Ġp h
Ãł i
ĠcÃ ¹ng
uá»ĳ n
Ġh Æ¡n
Ġtháº Ń
uyá» ģn
Ã¡ n
Ġl uyá»ĩn
Ã² ng
ĠnÃł o
áºŃ p
ĠTr áº§n
Ġlá» Ľ
Ġh iá»ĩn
.. .
Ġc hi
ĠÄĳá» ĭ
Ġk há»
áº¯ c
Ã´ i
Ġs Ã¡
á» ¥c
Ã¡ i
¿ t
ĠnhÃ ¢n
ĠnhÃ ł
ĠÄĳ Ã¢y
Ġb Ãªn
Ġcáº£ m
ĠcÃ ´ng
Ġl Ãºc
N g
uy Ãªn
Ġm uá»ĳn
áº ±
Ġtá» Ľi
ĠÄĳ áº¡i
Æ° u
Ġnháº ¥t
Ġsá» ±
á»Ļ i
Ġ S
Äĥ n
Ġn hiÃªn
áº· c
Å ©
Ġl Ã£o
á»Ļ c
áº¡ c
Ġlá»Ľ n
į ng
ĠÄĳá» ĵ
ĠT hÃ
Ġná» ¯a
Ġth eo
Ġn Äĥm
áº§ m
i a
! âĢĿ
Ġx uá»ĳng
ĳ ng
Ġk háº
į n
Ġháº ¡
Ġnh iá»ģu
áºŃ n
Ġlá» ±c
Ġx e
Æ°á»£ ng
Ġvá» «a
iáº¿ m
ĠT hiÃªn
Ġh o
Ġv áº«n
oÃł i
iá»ĩ u
Ġnháº Ń
Ġng Ãły
¯ c
áº¥ n
ĠT á»
Ġs á»ĳ
ĠchÃŃ nh
Æ°á» Ł
ĠcÃ¡ i
Ġgi áº£
Æ°á»Ł ng
uy áº¿t
Ġngh Ä©
Ġb a
ĠkhÃ¡ c
Ġch uyá»ĩn
Ġtiáº¿ ng
ĠT há»
ĠÄĳá»Ļ ng
ĠphÃ Ńa
Ġ G
Ġt hi
ĠphÃ¡ p
e n
Ġn Ãªn
ĠK hÃ
a m
Ġt i
iá» ħ
Tr áº§n
ĠÄĳá» ĳi
ĠcÃ¡ c
ĠÄ ĥn
ĠTh anh
Ġl o
Ġtá» ĳ
Ġr á»
ĠÄĳá»ĭ nh
Ġc Æ°á»Ŀi
Ġng oÃłi
iá»ĥ m
C h
Ġl áº¥y
Ġc áº§n
Ãł o
áº± ng
Ġch Æ°a
Ġhá»į c
Ġtá» ©c
Ġs Æ°
Ã¡ m
Ġl Ã²ng
Ġc Æ¡
iá»ĩ c
Ġtá» ±
Ġl áº§n
Ġgiá» Ŀ
Ġ Q
ĠÄĳ Æ°á»Ŀng
á»ĳ n
áº¡ n
Ġnhá» ı
Ġ Ã½
Ġl inh
iá»ĩ p
ĠtháºŃ t
Ġthá» Ŀi
į i
iáº¿ n
Ġth Æ°á»Ŀng
Ġthá» ©
Ã¬ m
Ġqu an
Ġqu áº£
iá»ĩ t
Ġk ia
Ġcá» Ńa
ÃŃ nh
ĭ ch
Ġhá» ıi
á» ķi
áº¯ ng
Ġcháº ¿t
á»ĵ ng
h Æ°ng
¡ i
ĠG i
Ġv iá»ĩc
ĠkhÃ ³
Ġngh e
ĠchÃº ng
Ġtr á»Ł
Ġtá»« ng
© m
Ġm áº¥y
Ġtiáº¿ p
Ġqu Ã¡
ĠnháºŃ n
Ġt Ã¬m
Ġv Ã¬
Ġs inh
Ġc ao
´ i
ĠH o
ĠdÃ¹ ng
Ġhá» ĵ
áº£ nh
Ãª m
Ġxe m
ĠchÃ ¢n
Ġt oÃłn
Ġkh o
ĠÄĳá» ĩ
Ġvá» ĭ
Ġt Ã¢m
iá»ħ n
H áº¯n
ĠphÃ¡ t
áº© n
ĠÄĳ áº¡o
i m
Ġc Ãłng
į c
Ġnh anh
áº¥ u
Ġg á»
Ġm á»Ł
Ã¡ o
² ng
ĠQ u
L Ã½
Ġk inh
Ġn áº¿u
ĠP hÃ
ĠC h
Ġk iáº¿m
ĠÄĳá» ©ng
i Ãªu
ĠL á»¥c
Ġb áº¯t
áº¥ p
Æ°á» Ľi
Ã ¨
áºŃ u
ĠváºŃ t
Ġm Ã´n
Ãº ng
Ġbáº£ n
Ġphá» ¥
ĠphÃ ²ng
Ġt iÃªn
Ġ á»
ĠhÃ ł
Ä© nh
Ġn Æ°á»Ľc
Ġt iá»ģn
áº¯ m
Ġv Ã´
Ġká» ³
Ġx u
Ġtá»ĳ t
Ġb Ã¬nh
Ġ A
ĠthÃ ª
Ġkhá» ıi
Ġthá» ±c
N hÆ°ng
ĠH áº¡o
± a
ĠcÃ¡ ch
K hÃ
Ġt Ãªn
Ġb á»Ļ
Ġng hi
ĠTháº §n
Ġv áº»
áº ¹
Ġthá» §
Ãº i
Ġch u
Ġb Æ°á»Ľc
uá»ĳ i
¡ y
Ġl iá»ģn
Ĺ i
ĩ nh
Ġt áº¡i
Ġcáº£ nh
áº£ i
ĠV Ã¢n
¡ ng
áºŃ y
ĠÃ¡ nh
há» ī
áº¡ ng
Ġ X
á»ĳ i
Ġl u
ĠÄĳÃ¡ nh
Ġl áºŃp
Ã¹ ng
Ġr Ãµ
Ġgiá» ĳng
ĠthÃª m
ĠN h
Ġlá» Ŀi
Ġph Æ°Æ¡ng
Ġgi an
Ġn ay
Tr ong
T háº
Ġl áº½
Ġh Æ¡i
Ġkhi áº¿n
Ġtháº §n
ĠÃ¡ o
iá»ĩ m
ĠhÃ ¬
Ã¡ ng
Ġcá» ĳ
áº¡ t
uyá»ĩ t
ĠsÃ¡ ng
áº· ng
¥ ng
ĠhÃ łnh
Ġgiá» Ľi
KhÃ ´ng
áº§ y
ĠT iá»ĥu
Ġm Æ°á»Ŀi
© a
Ġt iá»ĥu
ĠTr Æ°Æ¡ng
áº£ ng
Ġphá» §
Ġng á»ĵi
Ġb ao
ĠhÃ¬ nh
Ġ ai
Ġh uy
ÃŃ t
Ġcá» ©
ĠÄĳ áº¥t
ĠhÃ ´
Ġchá» §
ĠÄĳ iá»ĥm
uyá» ĥn
Ġ Ã´ng
Ġd o
Ġtu á»ķi
ĠH á»
áº¥ m
ĠÄĳá»ĵ ng
á»Ļ ng
Ġthá» ©c
ĠnÃł ng
Ġn Æ¡i
ĠHo an
Ã¡ ch
Ġt hiÃªn
ĠÄĳ iá»ģu
ī nh
Ġl Ã¢u
Ġd Æ°á»Ľi
ĠcÃ ´
ĠÄĳ á»Ļt
Ġs Ã¡t
Ġcháº ¯c
º c
Ń u
Ġb áº¥t
ĠvÃł ng
ĠÄĳ en
ĠM inh
Ġ ÃŃt
Ã³ ng
Ġh oÃłn
Ġb iáº¿n
Ch Æ°Æ¡ng
ĠT Ã´
Ġv Ãµ
Ġxu áº¥t
Ġbáº£ o
ĠTr Æ°á»Ŀng
Ġg áº§n
Æ°á»Ľ ng
Ġsá» £
Ġhuy nh
ĠV iá»ħn
Ġcháº ³ng
ĠTá» Ń
ĠC á»
Ġg iáº¿t
Ġx ong
Ġh iá»ĥu
Ġhá» Ļ
ĠC hÃ
Ġlo áº¡i
ĠÄĳ Ã¢u
ĠCh u
Ġsá»ĳ ng
Ġl áº¡nh
Ġb Ãłn
Ġth o
Ġbá» įn
£ n
ĠT áº«n
Ġtrá» Ŀi
ĠV Å©
ĠÄĳ o
Ġgi Ã¡
Ġti n
Ġt Ã¬nh
Ã¡ nh
ĠB áº¡ch
Ġt ÃŃnh
Ġm áº¥t
ĠP h
Ġm ang
ĠL Æ°u
Ġ U
Ġh ay
ĠmÃł u
Ġth anh
iá»ĥ n
Ġx a
Ġchá» Ĺ
Ġb áº±ng
Ġpháº §n
Ġc áºŃu
áº§ ng
Ġm u
ĠÄĳ Æ°a
Ġc Ã¢y
Ġtiáº¿ n
Ġth Æ°Æ¡ng
ĠT áº§n
áº· p
ĠGi ang
ĠN háº
Ġng ay
Ġm áº¡nh
Ġv iÃªn
ĠH á»ĵ
Ġgi Ã¡c
Ġs Ä©
Ġd Ãłi
M á»Ļt
Ġc áº¥p
ĠA n
ĠÄĳá» §
Ã³ c
Ġcháº ¡y
Ġk Ã©
Ġ Y
ĠU y
ĠÄĲ Ã´ng
Ġv á»Ļi
Ġ 1
iá»ĩ ng
Ġqu ay
Ġy Ãªu
Ġm iá»ĩng
Ġná» ¯
Ġm Æ°Æ¡i
Ãº t
á»ĳ c
ĠÄĲ áº¡i
uá»ĳ c
ĠthÃ Ń
ĠthÃ ´i
ĠhÃ ³
Ġc uá»ĳi
Ã£ n
áº¯ p
ĠÄĳ ao
Ġn Ãºi
ĠthÃ ´ng
Ġs áº¯c
Ġtá» ĳi
Ġchi áº¿
© t
Ġcá» ķ
Ġn Äĥng
ĠhÃ³ a
Ġt inh
§ m
Ãº p
Ġt áº§ng
Ġl Æ°á»£ng
Ġs uy
Ġthá» Ł
Ġn iÃªn
Ã© t
Ġtr uyá»ģn
Ġtá» ¥c
Ġháº ¿t
ĠH Ãł
Ġthi áº¿u
ĠÄĲ áº¡o
Ġqu á»
Ġthá» ĭ
£ y
Ġc áº§m
ĠNg uyÃªn
Ã ²n
Ġc u
Ġb u
Ġg áº·p
Ġ (
Ġb Ã©
S au
Ġc Äĥn
Ġt o
Ġm áº·c
oÃł ng
Ġnh au
Ã³ i
Ġqu anh
Ġtrá» įng
Ġtr Äĥm
Ã£ i
ĠhÃ´ m
Ġtr Æ°á»Ŀng
ĠÄĳ áº§y
Ġl á»Ļ
Ġngá» Ŀ
Ġc áº¡nh
ĠKhÃ Ń
ĠvÃł i
ĠT am
Ġbá» ı
Ġtr ung
Ġgá» įi
.. .âĢĿ
ĠT iÃªn
Ġd Ã¡m
Ġr áº±ng
Ġnháº ¹
ĠL Ã¢m
ĠchÃ ¡
Ġng o
Ġpháº ©m
Ġmá» įi
Ġsá» ©c
Ġtr áº¯ng
ĠÄĳÃ¡ m
ĠTr uy
Ġd áº«n
ĠThÃ łnh
ĠthÃŃ ch
ł m
Ġt Æ°
Ġt Äĥng
ĠÄĳ Ãºng
Ġchiáº¿ c
ĠÄĳ Ãªm
Ġt Ãłi
Ġb á»ĳn
ĠL á»
Ġ čĊ
Ġd Æ°á»£c
ĠN hi
L Ãºc
Ġb Ã³ng
ĠK im
Ġch uyá»ĥn
Ã Ķ
Ġchá» ĭ
£ p
áº¿ p
ĠM a
áº¡ p
Ġv iá»ĩn
Ġná» ķi
Ġl Æ°ng
Ġth uá»ĳc
Ġgi Ãºp
Ġcháº ¿
Ġrá» Ŀi
Ġdá» ¥ng
¡ m
Ġv i
ĠsÃ¡ ch
áº£ o
Ġl Ã½
Ġt áºŃp
ĠH uyá»ģn
Ġ Ã¢m
Ġx Ã¡c
ĠTr á»
Ġngá» ±a
Ġb áº¡c
âĢ ¦
Ġm Ã¡
ĠPh ong
£ o
Ġm Ã¹
Ġt áº¥t
ĠÄĳá» ķi
á»ĳ ng
C há»ī
Ġgiá» įng
Ġkh u
Ġl iÃªn
Ġná» Ńa
ĠhÃł ng
ĠNháº ¥t
L á»¥c
Ġp hi
ĠÄĲ á»
Ġnhá» Ľ
ĠmÃł y
ı a
ĠD iá»ĩp
Ġn á»Ļi
Ġtr a
Ġd áºŃy
Ġd áº§n
Ġmá» Ĺi
Ġl áº·ng
Ń m
Ġb Ãł
Ġng uyÃªn
ĠthÃ ¡ng
¥ p
Ġtr Æ°á»Łng
Ġqu Ã¡n
Ng Æ°Æ¡i
Ġtháº ³ng
Ġv ang
¡ ch
Ġc Ã¢u
Ġngá» §
Ġb Ã¡o
ĠT i
Ġcháº ¯n
Ġr Ãłng
ĠL inh
Ġv á»ĳn
ĠC áº£nh
ĠV Æ°Æ¡ng
ĠS Æ¡n
Ġgiáº£ i
ĠkÃ© o
á»ĵ n
Ġt Ä©nh
Ġhá» £p
ĠÄĳá» «ng
ĠÄĲ an
T áº¡
ĠthÃ º
§ y
Ġtháº §m
Ġtr áº»
Ġká» ¹
Ġs o
Ľ m
ĠÄĳá» ı
ĠchÃ¡ u
· t
áº£ n
V á»
Ġquáº£ n
Ġho a
Ġchá»ĭ u
N áº¿u
Ġphá» ¥c
C Ã³
´ n
Æ°á» ¡ng
T h
Ġtr iá»ģu
Ń t
ĠH Ãºc
Ã¢ ng
Ġsá» Ľm
Ġti Ãªu
Ġn hi
Ġnhá» ĭ
áº± m
Ã¨ n
ĠT a
T hÃ
Ġv u
ĠchÃ ³ng
Ġho áº·c
Ġk áº»
ķ ng
ĠÄĳá»ĭ a
Ġph u
ĠB Ã¬nh
Ġx anh
ĠÄĳ áº·t
ã Ģ
Ġt Æ°á»Łng
Ġvá» ¥
Ġco i
ĠÄĳ an
ĠÄĳá» £i
Ġm áº¡ch
Ġk áº¿t
ĠthÃ ¡i
Ġn áº¯m
Ġk ÃŃch
Ġquá» ·
Æ°á»£ t
ĠD á»
uá»ĳ t
Ġthu á»Ļc
ĠM áº¡c
áº© y
Ġr u
Ġth Æ°
ĠThÃ ¡i
ĠsÃ¡ u
ĠmÃ¡ u
Ãł nh
Ġs áº¯p
ĠnháºŃ p
Ġn Æ°Æ¡ng
ĠT inh
Ġc a
Ń n
Ġm a
á»Ł i
Ĺ ng
ĠL Æ°Æ¡ng
ĠTr iá»ĩu
Ġg áºŃt
ĠÄĳÃ¡ ng
Ġthu áºŃt
Ġd anh
Ġq uyáº¿t
ĠV Ãµ
Ġkháº ½
Ġn Ã©
ÄĲ á»
T a
Ġv Æ°Æ¡ng
Ġcá» ±c
Ġcháº ¥t
Ġh iá»ĩu
ĠphÃ º
Ġgiá» ¯a
Ġb ay
Ġv Äĥn
ĠÄĳÃ¡ p
į t
Ġb Ã¢y
Ġr Æ¡i
ĠT áº¡
ĠK iáº¿m
Ġt Ã´i
Ġvá» įng
Ġlá» £i
ĠNh Æ°á»£c
Ġx o
ĠphÃ ¹
Ġdá» ĭ
ĠKhÃ ´ng
Ġl Ã¡t
iáº¿ ng
Ġm áºŃt
¡ t
Ġc áº§u
Ġb iá»ĩt
Ġt ÃŃch
H ai
Ã³ n
Ġl áº¯c
Ġdá» ħ
Ġy áº¿u
Ġhá»Ļ i
Ń p
Ġt Ã¡c
Ã´ m
Tr Æ°Æ¡ng
Ġdá» ±
³ n
ĠL ong
áº© m
Ġmu a
áº£ y
ĠQu an
Ġng áº¡c
Ġt uy
i n
Ġt uyá»ĩt
Ġthá»ĭ t
¯ p
Ġtr ang
Ġdá» ĭch
ĠL uyá»ĩn
Ġs Ã¢n
ĠÄĳ au
Ġng há»
Ġph ong
u Ã¢n
Ġtr áº£
Ġcháº Ńm
Ġpháº £n
Ġn áº±m
Ġs Ã¢u
ĠH á»ĵng
Ġlá» Ńa
Ġhá»ĵ i
Ġgiá» ¯
ķ n
Ġvu i
hÃ ¬n
Ġv áº¿t
ĠK h
Ġx á»
ĠTá» ±
ĠcÃ º
Ġ áº¥y
Ġt á»Ļc
Ġt Æ°á»£ng
iáº¿ p
T Ã´
Ġháº ³n
ĠNg Æ°Æ¡i
Ġy Ãªn
ĠÄĳá» Ŀi
Ġnghi Ãªm
Ġgi ao
Ġb Ã¡n
á»ĳ t
á» ĥn
ĠÄĳ iá»ĩp
Ġm áº¹
Ġmá» ©c
Ġd Æ°á»Ŀng
Ã¨ o
Ġl Æ°u
ĠUy á»ĥn
Ġt Ã¡m
Ġtr ÃŃ
Ġtr áºŃn
Ġth ay
Ġkháº ¯c
Ġv áº¥n
Ġchá» įn
áº© u
ĠTr Æ°
ĠtháºŃ n
Ġchá» ©
Ġchá» Ŀ
Ġ Ãł
ĠV Ã£n
Ġt áº¥m
Ġth uyá»ģn
ĠDá» ĭch
ĠÄĳ u
Ġqu en
ĠváºŃ n
L á»
Ãª ng
Ġtrá» ±c
Ġx ung
há» §
ĠkhÃ¡ ch
ĠTh u
¥ n
e m
Ġdá» «ng
Ġtá» īnh
Ġcháº ·t
Ġd áº¡
Ġchá» ¯
ĠC Ãłn
ĠY áº¿n
L Ã¢m
ĠD uy
ÄĲ Ã¢y
Ng h
ĠÄĳ Ã´i
ĠH áº¯n
ĠphÃ ¢n
Ġchu áº©n
¯ u
ĠN áº¿u
ĠM áº¡nh
Ġ uá»ĳng
ĠK inh
Ġc áº©n
ĠcÃ¡ nh
Ġtháº¥ p
Ġt áº¡o
ĠC Ã¡t
áº¹ p
Ġs ai
Ġcu á»Ļc
Ġháº Ńu
Ġbá» Ĺng
Ng Æ°á»Ŀi
Ġr Ãºt
Ġd Ã¢n
ĠÄĳá» ©a
ĠPhÃ łm
ĠÄĳ Ã´ng
o n
± m
Ġt Æ°Æ¡ng
Ġl áº¯m
ĠThá» ±c
Ġv Ã²ng
Ġtá» ·
C hÃ
Ġgi Ã¡o
ĠH oÃłng
á»Ļ n
Ġtháº¥ t
Ġngá» «ng
ĠCá» «
ĠH Æ°ng
Ġm Æ¡
Ġk Ã½
Ġt Ã´ng
Ġthá» Ń
Ġchi áº¿n
Ġká» ĭ
ĠtháºŃ m
Ġn áº·ng
ĠÄĳ iá»ĩn
Ġb Ãłi
Ġqu Ã¡i
Ġx uyÃªn
Ġháº¡ i
Ġbá» ĩnh
ĠÄĳá»Ļ c
Ġk iáº¿n
Ġtr áº§m
Ġt iá»ĩn
Ġm Ã£
Ġnh iá»ĩm
ĠÄĳ Æ¡n
ĠÄĳ áº·c
ĠT ang
ĠTháº ¿
Ġb ÃŃ
T há»
Ġ an
Ġqu ang
Ġgá» Ĺ
Ġtháº ¡ch
Ġbáº£ y
ĠS Æ°
Ġá» ©ng
D Æ°Æ¡ng
¡ c
© p
Ġcháº ±m
Ġhá» ĩ
Ġvá» ĩ
Ġtrá» ĭ
Tháº ¿
Ġc Æ°á»Ŀng
Ġgi áº¥y
Ġlu Ã´n
Ġq uyá»ģn
T á»
Ġgi áºŃn
Ġdá» ±a
Ġkho áº£ng
Ġl áº¡
ĠNg uyá»ĩt
¡ p
ĠchÃ ³
ĠTr áº¥n
Ġd ung
Ġhá» ģ
Ġpháº Ńn
H á»
Ġng Ãłi
ĠT Ãło
Ġnh a
Ġcá»© u
N Ã³i
Ġtr Ã´ng
Ġs ang
ĠNg hi
Ġc anh
V Ã¢n
Ġt áº¿
ĠnÃ³ ng
£ t
Ġt Ã²
Ġm áº¡ng
Ġtr Ã¡nh
Ġd Ã¡ng
Ġta i
¥ y
Ġg Ã£
ĠM á»Ļc
ĠChÃ ¢n
Ġt áº¡
ĠNg á»
T áº§n
Ġt Æ°á»Ŀng
Ġg Ã¡i
ĠUy Ãªn
N há»
ı ng
Ġqu áº§n
Ġngh iá»ĩm
Ġh iá»ĥm
Ġnháº £y
Ã¹ a
ĠP hi
ĠM á»¥c
ĠchÃŃ n
Ġká»ĭ p
Q u
Ġh uyáº¿t
Ġgi Ãł
ĠC Æ¡
ĠhÃ ¡
Ġt ÃŃ
iáº¿ u
ĳ t
ĠC á»ĳ
¢ m
Ġ Ã
Ġtr Ã¡i
Ã£ ng
ĠhÃ £i
ĠcÆ¡ m
P hÃ
Ġc ung
ĠthÃ ´n
Ġchá» ©ng
ĠÄĲ iá»ĩp
ĠphÃ¡ i
Ġn am
ĠÃ¡ p
T uy
Ġgi ai
ĠN há»
áº· n
Ń nh
Ġm Å©
Ġb Ã¡
Ġgi Ã³
ĠTháº Ńp
ĠHo a
ĠÄĳo áº¡n
ĠC hi
Ġ áº£nh
Ġh Æ°á»Ľng
ĠthÃ ºc
Ġgiáº£ n
K hi
Ġ 2
Ġng Æ°á»£c
âĢĿ ,
ĠhÃ ²
Tr Ãªn
Ġth Æ°á»£ng
Ġ ÃĶ
Ġb an
Ġb Ã¡t
Ġs Ã´ng
iáº¿ c
ĠN hÆ°ng
ĠC Ã´ng
ĠM Ã´n
G i
Ġgi Æ°á»Ŀng
ĠH uyáº¿t
ĠÄĳ áº¡t
Ġngá» ±c
ĠÄĳá»Ļ i
ĠÄĳo Ã¡n
ĠcÃº i
ĠÄĳá» īnh
áº£ m
¢ u
Ġl áº¯ng
Ġtr ai
Ġsá» ©
áº« u
Ġnhi Ãªu
L Æ°u
Ġch Æ°á»Łng
Ġ anh
Ġd a
Ġqu Ã¢n
Ġch e
Ġsá» Ń
Ġb á»Łi
Ġdáº¡ y
L Ã£o
ł o
Ã¡ y
Ġlá» ¥c
Ġngá» įn
Ġl Ä©nh
Ġng uy
Ġch a
ĠÄĳ Ã¬nh
Ġnháº ¯c
Ġt Ãºi
Ġm Ã¡i
Ġtr á»ĳn
Ã³ t
ĠV á»
Ġ áº©n
Ġm ay
Ġh Æ°Æ¡ng
iá»ħ u
ĠmÅ© i
áº ©ng
Ġx áº£y
Ġsá» ķ
ĠThÃ ´ng
Ġtá»ĳ c
Ġtá»± a
Ġl iá»ĩu
M á»
Ġt Ã¹
Ġr Ã£i
Ġd i
Ġlá»Ľ p
Ġháº¡ n
ĠThá» §y
Ġlu á»ĵng
C háº
± ng
ĠC Ã³
Ġmá» «ng
Ġ im
ĠA nh
Ã¹ i
Ġkhá» ķ
ĠHá» ©a
N hÃ¬n
Ġl ao
Ġm inh
Ġtr áº¥n
Ġd iá»ĩn
Ġch Æ¡i
Ġkháº £
C Ã²n
¡ nh
Ġng áº©ng
Ġchu Ã´ng
Ľ t
Ġl Ã¡
Ġgi áºŃt
Ġta n
Ġtu ng
Ġvá» ±c
Ġk iá»ĥm
Ġt Ãł
Ġmá» Ŀi
ĠT Ã´ng
Ġs Æ¡n
Ġr Æ°á»£
ĠchÃ ©m
Ġthá»§ y
Ġr á»Ļng
Ġt iáº¿t
ĠphÃ Ń
ĠÄĳ áº¹p
Ġk Ãªu
Ġchá» «ng
ĠM áº·c
¥ u
Ġm Ã¨o
ĠD iÃªu
ĠÄĳ áº¥y
Ġl áº§u
Ġl iáº¿c
G iá»
ĵ n
Ġm ai
Ġg áº¯ng
ĠrÆ°á»£ u
ĠÄĳá» ķ
Ġh ung
Ġx áº¿p
Ġv áº¡n
Ġng Ãłn
Ġd Ã²ng
áºŃ c
ĠC áº©u
Ġcháº £y
Ġgi áº¥u
ĠX uÃ¢n
Ġb áºŃc
Æ°á»£ n
Ch u
Ġv Æ°á»£t
Ġtr Ã¬nh
Ġq uy
Ġtháº £
Tr Æ°á»Ľc
ĠThá» ĳ
ĠhÃ² a
ĠÄĳ Ãłn
Ġv iáº¿t
Ġtr Ã¡ch
Ng ay
ĠÄĳu á»ķi
ĠÄĳá» ¡
L Æ°Æ¡ng
Ġs áº¡ch
Ġx in
Ġkháº ¯p
ĠnghÄ© a
ĠNg Æ°
Ġng Ã£
ĠM á»
D iÃªu
Ġt uyáº¿t
Ġd Ã²
ĠphÃ łm
ĠTr Ãºc
Ġbá» ¥ng
Ġlo áº¡n
Ġth Æ¡
Ġká» ĥ
Ġcá»ĳ c
Ġt áº¡p
ĠÄĳ Æ°Æ¡ng
Ġtr Ã¬
ĠmÃ¹ i
Ġn u
Ġv ai
Ġs u
Ġlá» ĵ
Ġngá» įc
Æ°á» ¡i
ĠnhÃł ng
Ġngo áº¡i
Ġ âĢ
Ġng Ã³n
Ġtiáº¿ c
ĠTháº ©m
Ġlá» ĩ
D Ã¹
ĠnhÃ ³
ãĢ Ĳ
Nhá» ¯ng
Ġs Æ¡
ĠC há»ī
ĠNg h
Ġchi Ãªu
Ġru n
Ġ uy
háº ¿
ĠH áº£i
Ġbá» ķ
oÃł nh
Ġngá» ¥c
ĠB Æ°u
ãĢ ĳ
Ġ áº¥n
Ġt áº§m
Ġng há»ī
Ġtr anh
Ġm á»Ļ
Ġv áº£i
ĠthÃ ¹
Ġháº ¥p
Ġchi a
Ġqu áºŃn
Ġvá» Ĺ
L Ãł
T iá»ĥu
Ġ Ã´m
ĳ c
ĠÄĳ Ã¢m
Ġb inh
Ġlá» ħ
Ġkháº £o
ĠPhÃ ¡p
Ġá» ķn
Ġb Ãło
Ġhá» ıa
ĠÄĲ á»ĵng
Ġsá» Ŀ
Ġphá» ĳ
ÄĲ áº¡i
Ã© n
ĠT u
áº« y
ĠnÃ© m
Tr iá»ĩu
Ġthi áº¿t
Ġ áº
Ġc Ã¢n
Ġng ang
ĠkhÃ ´
Ch o
Ġt Ãłn
Ġm Ã²
ĠhÃł i
§ u
Ġtr Ãłn
Ġh oÃłng
Ġtho Ã¡t
Ġcháº ¡m
Ġmu á»Ļi
Ngh e
Ġk iáº¿p
Ġg Ã¢y
ĠÄĳá» įc
ĠL áº¡c
ĠnhÃ Ńu
V áºŃy
Ġn Ã¡t
Ġtr áº¡ng
ĠN inh
ĠTr Ã¬
ĠÄĳ áº©y
Ġd áº¥u
ĠV áº¥n
ĠThÃ º
Ġrá» «ng
B á»
ĭ nh
Ġk im
Ġd Ã¢y
Ġqu Ã½
ĠchÃº a
Ġxo ay
Ġxá» Ń
Ġ áº¡
Ġb á»ĳi
Ġtá» ķ
ĠtÃ¹ y
Ġt áºŃn
Ġtr iá»ĥn
Ġchá» £t
Ġtrá» «
ĠNh ai
ĠKh o
ĠÄĳ áºŃp
Ġl Ã´ng
Ġm iáº¿ng
Ġchá» ĳng
Ġta m
Ġchi áº¿u
ĠÄĳ áº¥u
ĠT Ã¢m
Ġd Ãłng
ĠM áºŃt
Ġbáº£ ng
Ľ p
Ġt Ã¡n
Ġth Æ°á»Łng
ĠN hÃ
ĠP há»
M Ãł
¯ m
Ġg háº¿
Ġtá» ¥
Ġthá» į
ĠL Ã¢u
ĠhÃ¡ n
Ġtr áº£i
Ã£ nh
Ġmá» ī
Ġnu Ã´i
Ġm Æ°a
Ġm á»ĳi
Ġv áº½
V Ã¬
Ġtr Äĥng
Ġg Æ°Æ¡ng
Ġthá» ĳng
Ġg hi
áº¥ c
Ġvá» ¡
Ġgi ang
Ġdá» ¯
Ã© p
S Æ°
Ġ '
Ġng áº¯n
C á»ĳ
Ġ Ã¡c
Ġháº §u
Ã£ y
Ġlá» ĩnh
Ġ o
Ġt Ã³c
Ġq uyá»ĥn
Ġthu áºŃn
ĠChÃ Ńnh
ĠTrá» įng
Ġnhá»ĭ n
Ń i
Ġk ÃŃnh
Ġh a
Ġch Äĥm
ĠKhÃ ºc
Ġ e
Ġtá» ĵn
Ġthá» «a
ĠNgá» įc
ĠNhá» ĭ
ĠÄĳ áº¯c
Ġnháº ¯m
ĠM á»Ļ
B Ãªn
Ġc Å©
Ġd Ä©
Ġd Æ°á»¡ng
ĠH Ã¡n
ĠV Äĥn
ĠkÃ© m
ĠTrá» «
Vá» «a
Ġg áº¥p
ĠmÃł n
ÄĲ Ãºng
ĩ t
ĠT Ã´n
Ġcá» ¥
Ġt ia
Ġl iá»ĩt
ĠT hi
Ġtr Ã´i
ĠÄĳÃ³ ng
Ġl Ã³
áºŃ m
ĠN am
ĠM á»Ļt
Ġho ang
ĠKhÃ ª
Ġb iá»ĥu
Ġr Äĥng
Ġtá» ĩ
Ġhá» ¯u
ĠLá» ¯
á» ŀ
Ġx Æ°Æ¡ng
ĠC háº
i Ãªng
Ġl Ã¹ng
Ġb áº¡n
Ġx Ã´ng
Ġx Ãºc
ĠM iÃªu
ĠNg Ã´
« n
ĠÄĳ Ãło
Ġtr Ã²
ĠÄĲ Äĥng
Ġb Ã¡nh
ĠH áº¯c
Ġpháº ¡m
ĠhÃ ´i
ĠS au
ĠHá»ĵ n
© n
Ġcá» ©ng
Ġkh ai
ģ nh
ĠÄĳ Ã¨n
Ġm Ã¢y
Ġk áº¿
Ġná» ķ
C Ã¡i
ĠL Äĥng
ĠQu Ã¢n
Tháº ¥y
Th eo
Ġng Äĥn
Ġs Æ°Æ¡ng
Ġnh iá»ĩt
Ġnháº ¡t
ĠÄĲ iá»ģn
ĠV u
ĠtÃŃ m
Ġt Æ°á»Ľng
Ġm á»ĵ
Ġb áº¿p
Ġtháº £o
Ġhá» ķ
Ġhá»į a
Ġlu i
B áº¡ch
Ġg Ãµ
Ġdá» įn
0 0
T Ã´n
Ġd ao
C on
Ġtá» ĭch
Ġlá» Ĺi
ĠTr ong
Ä© a
Ġtáº¡ m
Ġk iÃªn
Ġh uá»ĳng
Ġth Äĥm
ĠnhÃ ¡y
u á»
Ġb áº©m
ĠphÃ ³
ĠÄĳÃ³ i
Ġthu áº§n
Ġho áº¡t
Ġr á»ĳt
Ġh ao
Ġph iá»ģn
Ġbá» ©c
Ġm Ãª
Ġthá» ¥
ÃŃ n
Ġmá» Ŀ
ÃĶ ng
Ġc á»Ļng
Ġn Ã¢ng
Ġh Æ°á»Łng
Ġx áº¥u
Ġmá» ĩnh
Ġháº¡ t
ĠhÃł o
ĠKho a
Ġn uá»ĳt
ĠT Ä©nh
ĠV iá»ĩn
Ġ em
ĠÄĳ Ãłnh
ĠT á»ĳng
Ġgi Æ¡
Ġchá» ©c
ĠNg Æ°u
ĠP háº
Ġho áº¡ch
ĠG ia
Ġmá»ī m
¥ i
Ġb Äĥng
Ġng hÃ
Ġchi m
Æ°á»Ľ t
ĠphÃº t
- -
Ġ O
Ġt áº¥n
Ġm anh
Ġqu áº§y
ĠL an
Ġcháº ¥n
ĠHÃł nh
K im
Ġc áº¯n
Ġl Æ°Æ¡ng
Ġl áºŃt
Ġl Ã©n
ĠT uyáº¿t
Ġtr Ã²n
ĠL Ã´i
Tháº ©m
Ġ 3
Ġx Ã©t
ĠC Ã¡c
ĠlÃ³ e
¹ ĳ
à ¹ĳ
Ġt á»Ļi
Ġb á»ĳ
Ġt Æ°Æ¡i
Ġc áº¥t
Ġc Æ¡n
Ġm áº«u
Ġs á»Ł
ĠchÃ ¬
ĠB a
Ġtrá» £
L áº§n
Ĺ n
Ġt Ãºc
ĠkhÃ ´i
ĠX Ãł
ĠT y
Ġcá» ı
T u
Ġ áº¥m
Ġm áº£nh
Ġqu á»ĳc
Ġth ang
C Å©ng
Ġl Æ°á»£t
Ġd uy
Ġlá» «a
Ġcháº ¥p
Ġpháº ¥n
ĠÄĲ Ã¢y
Ġho áº£ng
Ġhá»Ļ p
¨ o
Ġng á»Ļ
Ġtr Ã¹ng
Ã³ a
ĠÄĳá» ĳng
ĠL iá»ħu
ĠD Æ°
N á»
Ġt Ãº
Ġv Ã¹ng
Ġg Ã³c
Ġd Ãły
ĠÃ¡ n
Ġhá»ĵ n
S ao
Ġm Ã³n
Ġb Ã¨n
Ġc áº¯t
Ġl ai
Ġl áº¡c
Ġtháº »
Ġháº ¯c
Ġnhá» Ŀ
Ġná» ¥
áº« m
Ġbu Ã´ng
Ġbu á»ķi
C á»
N h
Ġr iÃªng
ĠthÃ ¡m
Ġgi Ã¡m
ĠTr áº¡ch
ĠB áº¯c
Ġkh Äĥn
ĠCá» ±c
Ġm Ã©t
ĠN Ã´ng
ĠNháº ¡c
Ġbu á»ĵn
Ġ R
á» ³
Ġb iá»ĥn
Ġtr eo
Ġtr á»ĳng
Ġx Æ°a
ĠH Ãło
iá»ģ m
ĠK iá»ĥu
Ĥ m
háº ¥u
Ġb áº¡i
Ġb Ã¡i
Ġtr Ãºng
Ġchá» Ľp
Ġmá» ¥c
Ġcá»ĳ t
ĠCá» Ńu
Ġ Æ¡n
į a
Ġm Æ°á»£n
ĠT Ãº
Ġlá» ±a
Ġmá» ĭ
ĠLá» ±c
Ġkhu Ã´n
Cháº ³ng
B á»Łi
T hi
Ľ n
Ł i
Ġng u
ĠL Ã£o
ĠTr ang
ÄĲ Æ°á»£c
Ġkhá» ĳi
Ġdá»± ng
Ġnghá» ģ
K h
ĠC há»§
Ġá» ©c
Ġtho Ã¡ng
Ġl Å©
Ġb áº¯n
âĢ Ķ
Ġth am
, âĢľ
P há»
Ġv Ã¢y
Ġb áº§u
ĠT Ãºc
Ġs áº¯t
Ġqu Ãªn
ÄĲ á»ĳi
Ġtá»ĳ n
ĠmÃ¹ a
ĠnÃ© n
Ngh Ä©
Ã ģnh
âĢ ĥ
ĠH áº¡ng
áº· m
ĠhÃł n
ĠHá» įc
Tá» «
Ġn iá»ĩm
ĠT uyá»ģn
ĠP há»§
ĠS inh
º ng
Ġt áº£ng
Ġm áº½
Ġs Ã³t
Ġd iá»ĩt
Ġth Äĥng
ĠH áº§u
Ġrá» ±c
M áº¡nh
Ġl Ã²
Ġng Æ¡i
Ġcá»§ i
B a
C há»
Ġn Ã´
Ġm au
Ġb áºŃt
Ġb Ãły
Ġg hÃ
ĠhÃ Ńt
Ġmá» ĩt
ÄĲ i
Ġrá» ¡
ĠX Æ°Æ¡ng
Ġxo a
Lá» ĩnh
âĢ Ļ
ĠC áº§u
ĠTh Æ°
Ġthu Ãª
ĠQu áº¿
Thá» Ŀi
ĠÄĳ áº¿
Ġl au
Ġl áº©m
Ġcá» Ŀ
Ġqu Ã©t
Ġch uyÃªn
Ġdá» ©t
Ġti m
ĠPhÃ ¹
H iá»ĩn
Ġc Äĥng
Ġm ong
Ġm Ã´i
Ġb Ã³
Ġng Ã¢m
Ġtr Ãł
Ġg Ãł
á»ĵ m
H Æ¡n
Ġ à¹ĳ
Ġm áº¯n
Ġb Ã¹
á»Ļ m
ĠÄĳá» ĳt
Ġtá» ķng
Ġháº »
Ġchá» ¥c
ĠNg Æ°á»Ŀi
ĠChÃ ¢u
ĠÄĳ eo
Ġm Ã£n
Ġtr Æ°á»£ng
Ġtá» ıa
ĠphÃ ³ng
ÄĲ áº¿n
ĠS Æ°Æ¡ng
ĠT Ã¬nh
Ã¡ p
Ġr áº©y
Ġx Ã©
Ġbá» Ŀ
Ġbá» ¯a
Ġnháº «n
Ġkhi áº¿u
ĠB á»
Ġnghá» ĩ
Ġ áº£o
ģ m
Ġng Å©
ĠphÃ ło
ĠB áº£o
Ġkhá» ĳng
ĠhÃ´ n
ĠchÃ¬ m
Ġv áº«y
Ġs uá»ĳt
Ġth iá»ĩn
Ġch ung
Ġháº¡ ng
Ġ -
ĠT iáº¿t
Ġd iá»ħn
Ġtá» ı
Ġthá» īnh
ĠH Æ°Æ¡ng
Ġgia m
ĠTháº ¡ch
ĠtháºŃ p
ĠÃ Ĥm
C Ã¡t
¡ o
Ġm iáº¿u
ĠT Ã¢y
ĠV iÃªn
ĠK ÃŃnh
ĠB á»Ļ
Ġkho Ã¡i
C áºŃu
Ġv uá»ĳt
Ġtháº £n
ĠC Ã²n
T iáº¿ng
Ġ 5
ĠÄĳ Ãłi
ĠÄĳÃ³ n
M áº·c
Ġ Ã³c
Ġ Ã©p
ĠÄĳ áºŃu
Ġm áº¯ng
Ġb Ãºt
ĠH oÃłnh
Ġlá» ĭch
Ġphá» ©c
Ġngo n
ĠThÃº y
ģ u
Ġm áº¡o
Ġvá» ¯ng
Ġmá» ¹
ĠÄĳÃ¡ y
Ġru á»Ļng
Ġc uá»ĳn
ĠÄĳ ÃŃch
Ġl Ã¹i
Ġng uyá»ĩn
ĠL ang
Ã½ t
Ġnháº ·t
ĠcÃ¡ o
ĠQ uyáº¿t
ĠkhÃ³ i
T Ãªn
Ġn áº¡n
Ġv ung
Ġb Ã¡c
ĠchÃ ©p
ĠchÃ ¢m
Ġhá» ©ng
Ġgiáº£ m
Ġlu áºŃn
Ġbu á»Ļc
Ġv Ã¡y
Ġb á»Ļi
Ġng hiÃªn
Ġr Ã¨n
Ġd Ã¢ng
Ġh iá»ĥn
Ġgi áº¥c
Ġdá» ¥
Ġkhá» ķng
Ġtho áº£ng
Ġcu á»Ļn
Ġto Ã¡n
C Ã¡c
ĠÄĳ áº£o
Ġtr e
Ġs áº£n
Ġtá» Ŀ
Ġtu áº§n
ĠÄĳá»ĭ ch
Má» įi
ĵ ng
Ġtr Ãºc
Ġs Ã³ng
Ġr áº¯n
Ġd Æ°Æ¡ng
Ġd áº¡ng
Ġchá» ©a
Ġchá» ĳc
Ġcháº ¯p
Æ°á»Ľ p
Ġchá»ī nh
iá»ħ m
Vá» ģ
ĠtÃ² a
ĠnghÃ ¨o
Ġt iá»ĩm
Ġn á»Ļ
Ġl eo
Ġng Æ°ng
Ġh uyá»ĩn
Ġthá» ķi
ĠthÃ ¹ng
Ġsá» ¯ng
ĠTá» ķ
ĠbÃ© n
ĠbÃ© o
ĠmÃ£ nh
M áº¥y
V Ã¢ng
ĭ a
ĠTr iá»ģu
ĠC Æ°Æ¡ng
Ġbá» «ng
ĠÄĳi Ãªn
ĠK háº¥u
ĠNg Å©
ĠThÃ ´i
ĠGi áº£
Ġháº» m
H Ã´m
ĳ n
Ġm Ã£i
Ġs Äĥn
Ġth uyáº¿t
ĠchÃ ło
ĠC ung
ĠhÃ º
ĠD Æ°á»£c
ĠX ÃŃch
ĠY Ãªu
Ń ng
Ġl áº«n
Ġqu Ã¡t
Ġth Æ°á»Ľc
ĠkhÃ³ c
ĠtÃł u
© u
Ġb Ã¹a
Ġh Æ°
Ġháº §m
ĠK hi
ĠGi Ã¡m
ÄĲá» £i
ĠÄĳ áº£m
Ġtá» ©
ĠH Ã¢n
ĠphÃ ºc
Ġnhá» ¥c
Ġngh iá»ĩp
ĠÃ¡ m
Ch uyá»ĩn
Ġtho áº¡i
e ng
ĠÄĳ a
ĠÄĳ áº£
ĠnhÃ ©
Ġmá» ģm
Ġquá» ³
Vá» ĭ
Æ°á»Ŀ n
Ġcá» ¥c
N háº
Ġc Æ°Æ¡ng
Ġm iá»ħn
Ġs ay
Ġg á»ĳc
ĠÄĳá» Ľn
uy áº¿n
Ġrá» Ńa
Ġb Ã²
Ġng Æ°
Ġh y
ĠÄĲ ao
ĠkhÃ¡ i
ĠNgh Ä©a
C uá»ĳi
Ġ u
Ġl ang
Ġk Ã¬nh
Ġtr uy
Ġcá» ±
ĠH uy
Ġbá» ¥i
ĠThá» §
ĠNh an
ĠPháº Ńt
Ġt Ã¡i
Ġvá» ı
ĠH áº¡
ĠD áº¡
ĠTh Æ°Æ¡ng
Ġ áº§m
á» ª
Ġl Ã´i
Ġl Æ°á»¡i
Ġd áº·n
ĠÄĳá» ©t
Ġch iá»ģu
Ġkhi nh
Ġsá»ĳ t
ĠQu Ã¡n
Ġchiáº¿ m
Ġsu áº¥t
ĠNhÃ ¢n
¥ a
ĠÄĳá» ±ng
âĢľ .
ĠphÃ ©p
ĠTr ung
ĠÄĲ Æ°á»Ŀng
ĠÄĲ áº§u
ĠV áºŃy
Tr á»
Ġtho áº£i
Ġ1 0
ĠMá» ĩnh
ĠnhÃ³ m
Thi áº¿u
áº ³ng
Ġm á»Ļng
Ġng Ã´i
Ġtá» ķn
Ãº a
Tháº Ńt
Ġáº ¢
C Ã´
N Ãłng
Ġ ãĢĳ
ĠÄĳ iá»ģn
Ġn á»Ł
Ġl Ã£ng
Ġng áºŃp
Ġd áº·m
Ġnghi Ãªng
áº¹ t
Ġngo an
ĠÄĳu Ã´i
µ m
· n
Ġ Æ°á»Ľc
Ġc Æ°á»¡ng
Ġc Æ°á»Ľp
Ġl Ã¢m
Ġtr á»Ļm
Ġg áº¥u
Ġr á»ĳi
Ġcá» Ń
ĠL y
Ġkh iá»ĥn
Ng Ã´
Ġtháº£ m
Ġsu Ã½t
D Æ°á»Ľi
i Ãªm
Ġd iá»ĩu
Ġh iáº¿m
Ġh iáº¿n
Ã¬ a
Ġx inh
ĠnhÃ µm
Ġlá» Ĺ
ĠN á»Ļi
Ġmá» ±c
ĠM á»Ļng
ĠgiÃ¡ p
âĢ¦ âĢĿ
B Ã¢y
¥ m
Ġl an
ĠT Æ°
Ġd uyÃªn
ĠchÃ ¡y
Ġchá» ¯a
Ġmá» ıi
ĠM ai
Ġgiá» ıi
Ġcáº£ n
Ġná» £
Ġkh e
ĠKhÃ ¡nh
Ġcu á»ĵng
Há» ©a
Ġáº¢ nh
? !âĢĿ
L áº¡i
P h
ı e
Ġn áº£y
Ġg Ã¡nh
Ġr Ã¡ch
ĠlÃł ng
ĠL Ãł
ĠC á»ĳc
ĠhÃº t
P háº
ĠT Ã¢n
Ġr Ã¢u
Ġcá» Ĺ
ĠL Ãºc
Ġkhá» ıe
ĠKh Æ°Æ¡ng
ĠThi áº¿t
Ġn áº¡p
Ġn Ã£y
Ġb áºŃn
Ġg Ã¡c
Ġg Ãło
Ġg áº§y
Ġsá» £i
ĠK á»³
Ġháº¡ ch
ĠchÃ³ c
ĠgÃ£ y
Ġ á»ĳng
Ġc áº¥m
ĠÄĳ Ã¹a
Ġtr Ã¡ng
Ġh oÃłnh
Ġcá» ĳng
Ã² i
ĠB Ã¡ch
ĠThá» Ŀi
ĠG iá»
Ġchu i
Ġmu á»Ļn
B Ãł
ĠÄĳ áº¡p
Ġk iá»ĩt
ĠT Æ°á»Ľng
Ġng Ã¢y
Ġs áº£nh
Ġx Ã¡m
Ġcháº ·n
Ġnhá» Ł
ĠS an
Ġkháº ©u
Ġá» §
ĠHá» ıa
ThÃ ´i
C áº£m
o áº¡i
ĠT áº¿
Æ¡ m
ĠchÃ ¢u
ĠH ai
ĠÄĳo áº¡t
Ġvá»¥ n
¯ t
Ġt áº¯m
Ġt áº©u
Ġl Æ°á»Ľt
Ġng áº©n
ĠlÃł n
Ã¬ u
Ġvá» Ŀ
Ġcá»ķ ng
Ġlá»ĵ ng
N hÃ
o i
Ġ Ãło
Ġn áº¥u
Ġl ong
Ġl áº§m
Ġk ÃŃn
Ġv Å©
Ġb á»ĵi
Ġb á»ĳc
ĠT iáº¿n
Ġtr Ã¡n
Ġs ung
ĠlÃł nh
Ġth an
ĠV áº¡n
R áº¥t
¡ n
Ġc Ãłnh
Ġchá» įc
Ġbá» įt
Ġmá» įc
ĠS ao
ĠThá» Ń
ĠÄĲá» ĭa
µ n
Ġ Ã´n
á» ·
á» Ĵ
Ġl Äĥn
Ġvá» £
ĠhÃ ¡t
ThÃ ¢n
Giá» Ŀ
Ná» ¯
T hiÃªn
Ġ Ã´
Ġt áº¯t
Ġc áº¡n
Ġn Ã´ng
Ġv Ã¢n
Ġv Ã¡ch
Ġng Ã¢n
Ġháº Ńn
Ġhá» Ł
ĠM Ã£nh
Ġkh en
Ġkháº ³ng
Ġkho Ã¡c
Ġdo anh
ĠCá» ķ
Ġ 7
Ġ Æ¡i
ĠT áº§m
Ġr ung
Ġnh u
ĠB áº¥t
ÄĲ Æ°Æ¡ng
ĠkhÃ³ a
Ġhá»ĵ ng
ĠPhÃ ¹ng
ĠgiÃł u
S á»
Ġng áº¡i
ĠthÃ ©t
ĠhÃ ©t
ĠhÃ £y
Ġká» ĭch
ĠsÃ¡ nh
ĠGi Ã¡c
áº¹ o
Ġchu á»Ļt
ĠThu áºŃt
ĠCháº ³ng
Kh o
T i
Ġ 4
Ġ ÃŃch
ĠÄĳ iá»ĩu
Ġl áº¡ng
Ġng á»Ļt
Ġtr áº§n
Ġtháº ¯ng
ĠhÃ ¹ng
Ġmá» ıng
ĠD Ã¹
Ã¨ m
ĠthÆ¡ m
ª nh
Ġm Ã´ng
ĠT iÃªu
Ġth a
Ġlá» ģu
Ġná» Ĺi
ÄĲ iá»ģu
ĠkhÃ¡ m
Ġháº¡ nh
ĠThá» ĥ
Ġkho a
Ġkho áº£nh
Ġkho Ã¡ng
Ġxu a
Ġngu á»ĵn
¹ n
ĠÄĳ Ã¨
Ġb ang
Ġb áº©n
Ġr Æ¡m
ĠthÃ ¢m
Ġx Ã¢y
Ġgi Ã¢y
ĠK iá»ģu
Ġdá» ¥c
Ġtrá» «ng
Ng oÃłi
Å© a
Ġláº½ o
Ġ Æ°u
Ġk iá»ĩn
Ġv a
Ġháº £
ĠL uÃ¢n
Ġlá» ıng
ĠÄĲ Ãºng
Ġtu áº¥n
Lá» ¯
Má» Ĺi
C Ã´ng
ĠÄĳ oÃłn
Ġn á»ĵng
Ġb Ãª
Ġd áº¯t
Ġchá» ĵng
ĠhÃ ´ng
ĠThÃ ¹
Ġ eo
Ġc á»Ļt
Ġc áº¯m
ĠÄĳ Ã¹i
Ġl Æ¡
Ġl áº¥p
Ġb áº¡ch
Ġs Ã³c
Ġd Ã£
ĠL Ã£ng
ĠnhÃ ©t
Ġnháº ¥c
Th anh
ThÃ ¡i
Ġxá» ķ
Gi ang
ĠâĢ ĺ
D Æ°
G ia
X em
Ġt Ã¡o
Ġn o
Ġm Ã´
Ġv áº£
ĠT ung
Ġg áº§m
Ġcá» Ńu
Ġdá» įc
Ġru á»Ļt
¦ m
Ġ 6
Ġ Ã¢n
Ġc áºŃn
Ġl Æ°
Ġng hÃ¬n
Ġtr Ãło
Ġx Æ°ng
ĠchÃ ©n
Ġhá» Ĺn
ĠC on
Ġpháº ¿
Ġmá» ı
Ġngá» Ńi
ĠB Äĥng
Ġkh uyÃªn
Ng Ãły
ĠS iÃªu
ĠHá» ¯u
Ġquá» ¹
Ġxá»ķ m
S áº¯c
Ġ Û
Ġc Æ°á»¡i
Ġl Æ°á»Ľi
Ġng á»ĳc
Ġtr iá»ĩu
Ġs en
Ġs iÃªu
Ġthu a
ĠTá» «
Ġlá»Ļ n
Lá» Ŀi
ĠtÃŃ n
ĠbÃ¹ n
? !
Ġt iá»ħn
Ġc am
Ġl Ã£nh
Ġm uá»ĳi
Ġb áº¿n
Ġb Ã¡ch
ĠT Ãłng
Ġs áº
âĢĿ .
Ġchá» £
ĠH Ã¬nh
ĠÄĲ áº¿
Ġsá» Ńa
Ġgiá» ı
Ġngá» ±
Ġká» µ
Ġgiáº£ ng
Ch Æ°a
ĠCh o
Qu áº£
ĠlÅ© y
Ġl Æ°á»£n
Ġd ÃŃnh
Ġthá» ķ
Ġcá» ¯u
Ġbá» Ľt
Ġdá» įa
ĠNg Ãµ
Ġkho ang
ÄĲá» «ng
ChÃ Ńnh
Ġáº ¤
Ġsáº µn
K iá»ĥu
Ġl am
ĠT Æ°á»Ľc
Ġs ong
ĠthÃ ´
ĠL áºŃp
ĠB ÃŃnh
Ġph en
ĠLá» ĩnh
ĠVá» ĩ
Ġná»Ļ p
T á»ĳng
Ġl Äĥm
Ġv áº·n
ĠT uy
Ġng Æ°á»¡ng
ĠTr Æ°á»Ľc
Ng uyÃªn
ĠHo ang
ĠHá» ķ
ĠbÃ³ p
' ,
Ġn Ã¡o
Ġl iá»ģu
Ġs a
Ġd á»ĳc
ĠN Ã³i
ĠTr áº¡i
ĠM Ã£
Ġná» ģn
ÄĲ Ã£
Ġkháº ¥u
ĠThá» ©c
ĠGi Ã¡o
Ġkho áº£n
ĠcÃ´ n
ĠâĢ Ķ
Ġm i
ĠT Ãł
Ġr Ã¬u
Ġd áº§u
Ġh Æ°ng
Ġh uyá»ĩt
Ġx áº£o
Ġgi Ã¡n
Ġchá» ĳi
ĠC Ã¡i
ÄĲ Ã¡m
Ãµ i
ĠQ uyá»ģn
C Ã¹ng
M ay
Ġt Äĥm
Ġt áº¯c
Ġt áº·ng
ĠÄĳ áº³ng
Ġv ÃŃ
Ġd áºŃp
ĠthÃ ¨
ĠnÃ³ n
Ġná» ©t
ĠphÃ¡ ch
ÄĲ áº¡o
ĠPhÃ ¡i
Ġá» Ľt
ĠHá» Ĺn
ĠÄĲá» īnh
Phá» ¥
D á»
M áº¹
Ġ áº£i
Ġ á»ĵn
Ń ch
Ġt Ã´n
Ġv áº¥t
Ġb áº¯c
Ġtr i
Ġtr á»ĵng
Ġd Ã¬
Ġtháº §y
Ġx Ã¡ch
ĠTr Ã¬nh
ĠhÃ ¡i
ĠÄĳÃ£ i
Ġtháº¥ u
Ġphá» ĳi
ĠTh Æ°á»£ng
ĠThÃ ¡nh
N Ã³
V Ãµ
© o
ĠÄĳ Å©a
Ġn áº¯ng
Ġng uyá»ĩt
áº¡ m
Ġgi Ãły
Ġlá» ¡
ĠÄĲá» ķng
Ġnghá» ĭ
ĠNhá» ¯ng
uá» ĩ
Ġt áº£
Ġb áº¯p
Ġtr Æ°a
Ã³ m
áº¿ m
Ġtá» §
Ġtháº ±ng
Ġth iá»ĩu
ĠH Ã¹ng
ĠH iá»ĥn
Ġlá» ¥a
ĠÄĲ Ã¬nh
ĠV iá»ĩt
ÄĲ ang
ÄĲ iá»ĥm
Ã© o
Ġtrá» ¯
ĠThu áº§n
Ġ2 0
Ġ Æ
Ġt iá»ĩc
ĠÄĳ iá»ĥn
ĠÄĳ áºŃm
Ġn Ã©t
Ġb iá»ĩn
Ġcá» Łi
Ġqu áº¡
ĠL á»Ļ
ĠL áº¡i
ĠTr iÃªu
ĠÄĲ o
ĠcÃ¡ t
ĠD Æ°á»¡ng
ĠB Ã¡t
ÄĲ Ã³
ĠTh ai
ĠTháº ¥t
ĠTá» ©
ĠThá» «a
Ġngo Ã£n
ĠÄĲá» ©c
Ġphu n
Bá» įn
Nh Æ°
áº ¦m
Ġc áº¥u
Ġn eo
Ġn on
Ġl y
Ġv Ã¡c
Ġch uyáº¿n
ĠTr Ãªn
ĠTh an
ĠGi Ã¡p
Ġlá»ĩ ch
LÃł m
Ġmá»ĭ t
âĢĶ âĢĶ
N Äĥm
Ĥ n
Ġt Ã¡ch
Ġn á»ĳi
Ġn Æ°á»Ľng
Ġl Æ°á»Ŀi
Ġk Ã¬m
Ġb Ã£i
ĠchÃ ´n
ĠH Æ¡n
ĠL áº§n
Ġcáº£ i
ĠD ao
Ġná» ģ
ĠchÃº c
ĠQu ang
Ġlu Ã¢n
ĠthÃ¨ m
T iáº¿p
Ġt áº·c
ĠÄĳ Ã²i
Ġm Ã¡t
Ġtr Ã¨o
Ġg Ã³i
Ġd Ãµi
Ġthá» ¥c
ĠL iá»ĩt
Ġbá» ĩ
ĠÄĲ Æ°á»£c
ĠD ung
ĠB Ãł
Ġtrá» £n
Ġkh uy
ĠChÃ ºng
ĠâĢ ĵ
â ĺ
ĠÄĳ em
Ġl á»ĳi
Ġm áº¯c
Ġm Ã³ng
Ġng áº¥t
Ġs Ã¢m
Ġd áº¡i
Ġd áº¡o
Ġd á»Ļi
Ġd á»ĵn
Ġtá» ³
Ġthá» £
Ġqu Ãª
Ġqu áº¥n
Ġx Ãł
ĠC á»ĳt
ĠV Ã¬
ĠâĢľ ...âĢĿ
ĠquÃ¡ ng
ĠQu á»·
Tháº §n
Ġ1 2
ĠPhá» ¥
D áº¡
Ġl ay
ĠthÃ ²
ĠV áºŃt
Ġngá» ¥m
ÄĲ Ãªm
ĠS á»
ĠÄĳá»ĵ n
ĠÄĳo áº£n
Ġcu á»ĵn
ĠchÃ³ i
¡ u
Ġl a
Ġm á»ĵi
ĠH Ã´m
ĠH Ã³a
Ġngá» įt
Ġgá» Ńi
Ġdá»ĭ u
Ġáº¤ t
£ m
Ġ 8
Ġt Ã¢n
Ġb áº¿
Ã¡ u
Ġtr Æ°Æ¡ng
Ġs Ã´i
Ġr á»Ļn
ĠH iá»ĩn
ĠH oÃłn
ĠÄĲ i
ĠÄĲ á»ĵ
Ġkhi Ãªng
ÄĲ á»ĵng
Ġtrá» ©ng
Ġo Ã¡n
H áº£
T iÃªn
X Ãł
ĠÄĳ Ã²n
Ġl Ã¡nh
Ġk iá»ĥu
Ġv ay
Ġs Ãºc
Ġd u
Ġd Ãłnh
Ġd áº¹p
Ġtá» įa
Ġtháº ¯t
ĠnhÃ Ńch
ĠB Ãłn
Ġkháº ©n
ĠThá» ©
ĠQu áºŃn
C hi
V Æ°Æ¡ng
Ġm áº§m
Ġm Ã³c
Ġv Ã£
Ġhá» §y
ĠM áº¡ch
ĠTháº Ńt
ĠnhÃł n
Ng á»
ĠPhÃ ³
ĠPhÃ ºc
Ġnghi áº¿n
ĠX ung
ĠLá» £i
ĠVá» «a
ĠChá»§ ng
H áº¯c
M uá»ĳn
T Ã´i
V á»ĳn
Ġ Æ°á»Ľt
Ġt áº£n
Ġm Æ°u
Ġb Æ°ng
Ġg áº¡ch
Ġg á»ĳi
ĠÄĳá» Ŀ
Ġh ang
ĠC Ãºc
Ġpháº ¥t
ĠÄĲ áº¿n
Ġgiá» įt
ĠmÃł ng
Ġthu áº¿
ĠS Ã¡t
Ġ1 00
C há»§
H iÃªn
M áº·t
§ ng
Â «
Â »
Ġc ong
ĠÄĳ áº±ng
ĠÄĳ áº¥m
Ġn áº¥y
Ġk iÃªu
Ġv áº·t
Ġng Æ¡
Ġr á»ĵng
Ġh iÃªn
Ġtá» ī
Ġvá» įt
ĠH iá»ĥu
ĠH Ãłn
Ġhá» ĳt
Ã² e
ĠB ang
ĠTháº £o
ĠKhÃ ´n
ĠchÃ¡ n
Ġso Ã¡t
Th u
ĠNgá» į
Pháº £i
. ]
T áº¥t
V Ãło
Ġc au
Ġn áº¿n
ĠT Æ°á»£ng
Ġs Æ°á»Ŀn
Ġr Ã³t
Ġh uyá»ģn
ĠnhÃ ºc
ĠD Å©ng
Ġngá» ¯
ĠNg Ãły
ÄĲ á»Ļt
Ġxu Ã¢n
ĠÄĲá» «ng
Thá» ±c
Giá» įng
Ġv ong
Ġg Ã²
Ġg áº¡t
Ġh u
Ġh eo
Ġh iá»ĩp
Ġh iáº¿u
ĠnhÃ ¡t
ĠV Ä©nh
ĠD o
ĠkhÃ¡ ng
ĠTá» ĭch
Ġkhu áº¥t
ĠNgh e
ĠO Ã¡nh
Ġá»§ i
A nh
N Æ¡i
Ġ 9
Ġl Äĥng
Ġb Ã¨
Ġs uá»ĳi
Ġh iáº¿p
Ġtháº ©m
ĠL a
Ġhá» «
Ġkhi áº¿p
ĠkhÃ¡ t
Ġkhá» Łi
ĠX Ã¡
ĠCá» ±
Ġ1 6
Ġto Ã¡t
ĠÃ ģ
ĠChi áº¿n
ĠnhÃ³ c
A i
S Ã¡ng
V iá»ĩc
ĩ n
Ġb iÃªn
Ġng Ãµ
Ġd Æ°a
Ġnh Æ°á»Ŀng
ĠnhÃ £
Ġhá» ıng
Ġlá» Ŀ
ĠhÃ ¨
Ġphá» ķ
ĠkhÃŃ ch
ĠGi áº£i
ĠPhá» ¥c
L Äĥng
Ġt áº¥c
ĠÄĳ Ä©a
Ġb áº¡o
ĠT iá»ģn
Ġng Ã´n
Ġng Ã¹ng
Ġtr Ãªu
Ġtr Ãłng
Ġs áº¥m
Ġg an
Ġg Ã¡y
Æ°Æ¡ n
ĠL Ä©nh
Ġphá» ıng
ĠTá» ¥
ĠTrá» ĭnh
Ġnghá» ĭch
ChÃ ºng
PhÃ Ńa
H Ã¬nh
T iá»ģn
µ ng
Ġ áºŃp
Ġc an
Ġc áº©m
Ġl áº·p
Ġv en
Ġng áº¡o
Ġtr iá»ĩt
Ġs Ã©t
Ġg Ã¢n
âĢ ĺ
Ġr Å©
Ġr oi
ĠH iÃªn
ĠL á»Ļc
ĠnÃ³ c
Ġpháº ¡t
Ġsá» «ng
Ġkho Ã¡t
ĠTrá» ¯
ĠÃĶ ng
Ġsá»Ń ng
ĠÛ ©
B áº¥t
X uÃ¢n
ĠÄĳ inh
Ġl Ã´
Ġl áº»
Ġl Ãºt
Ġv Æ°Æ¡n
ĠT Ãºi
Ġs Ãºng
âĢ ĵ
Ġd Ãª
ĠthÃ ¡n
ĠH áº¡t
ĠC Ã´n
Ġcháº Ńu
Ġsá» ¥p
Ġngá» £i
Ġká» ĩ
ĠThá» ¥
Ġrá» ¥t
KhÃ Ń
ChÃ ¡u
C áº£nh
L inh
T áº¡i
Ġt Ã¢y
ĠÄĳ áºŃy
Ġn á»ĵi
Ġl oÃłi
Ġs áº£ng
Ġg áº¡o
ĠkhÃ ºc
Ġthá» ıa
á»ĳ m
Ġch Äĥn
Ġchá» Ł
Ġhá» ĳ
Ġhá» Ĺ
ĠN á»
ĠN hÃ¬n
Ġdá» Ĺ
ĠHá» £p
Ġ1 8
ĠO a
ĠÄĲo áº¡n
T oÃłn
Ġt iá»ģm
Ġk Ãª
Ġk Ã¨m
Ġng áºŃm
Ġg á»ĵm
Ġd Æ°
Ġh i
Ġthá» Ŀ
Ġnh eo
Ġtháº ¯p
Ġháº ¹
Ġháº £o
Ġta nh
Ġlá» Ńng
Ġgiá» ¥c
ĠK Ã¬nh
ĠNg á»Ļ
ĠsÃ¡ o
Ġgá» įn
ĠPhÃ ¬
ĠmÃ¡ y
Ġkhuy a
Ġb á»Ļt
Ġb Ã´ng
ĠT ÃŃn
Ġr áº£nh
Ġthá» ĳi
ĠthÃ ¡c
Ġx Ã¢m
ĠC a
ĠThá» ĭ
ĠQ uy
ĠkhÃ³ e
Ġthá»§ ng
ĠNh ung
Ġ1 5
ĠchÃ¡ o
Cá» ©
ĠR Ã¢u
ª m
Ġ 0
Ġl ung
Ġb Ãºp
ĠT Ã¹ng
Ġng háº
Ġqu áº¡t
Ġx áº»
Ġth ai
ĠchÃ ł
ĠH iáº¿u
ĠH Ã²e
ĠC Å©ng
Ġbá» ģ
ĠÄĲ iá»ĩn
ĠThá» ĭnh
ĠQ uá»ĳc
ĠX á»ĵm
Ġ1 1
ÄĲá» ĥ
L uyá»ĩn
R Ãµ
Y Ãªu
Ġ +
Ġc Æ°á»Ľc
Ġv Æ°á»Ŀn
Ġng Ã³i
Ġp hiÃªn
Ġd Å©ng
ĠÄĳá» ¥ng
ĠthÃ ³
Ġchá» ĳt
Ġbá» įc
ĠÄĲ Ãłn
ĠM Ãł
Ġtá»± u
Ġkho m
Giá» ĳng
Ġháº¹ p
M áºŃt
Ã Ģ
Ġl á»Ļt
Ġb áº«y
ĠT á»ĳ
Ġs iáº¿t
Ġs Ã³i
Ġh Äĥng
Ġthá» ı
Ġvá» ©t
ĠN iÃªm
ĠC ao
Ġra u
ĠÄĲ Ã£ng
ĠV Ã´
Ġnhá» ī
Ġxe n
Ġthá»ĭ nh
ThÃ ¬
Ġhá»ĩ t
Há» į
) ]
9 9
C a
H uyáº¿t
Ã Ŀ
Ä ĳ
ĠÄĳ uá»ĳi
Ġl iá»ħu
Ġm Ã©p
Ġk iá»ĩm
Ġv Ã¡n
ĠT Æ°á»Ŀng
Ġr áº¯c
Ġd á»ĳi
Ġx Ã³m
ĠH ay
ĠmÃł i
Ġtrá» į
Ġkho anh
Ġá» ŀ
ĠA i
ĠthÃª u
Ġlu áºŃt
Ná» Ńa
ĠÄĳáº¿ m
B an
H oÃłng
T á»ĳi
Ä Ĥn
Ġ .
Ġk eng
Ġv Ã²
Ġng Æ°á»£ng
Ġtr Ã¢n
Ġtr Ã³i
ĠÄĳá» įng
Ġh iá»ģn
Ġháº £i
Ġgi Ãłnh
ĠL Ã¢n
Ġcháº Ńt
Ġpháº «n
Ġnháº §m
ĠK há»
Tr Ã¬nh
ÄĲ a
ÄĲ Ã¡ng
ĠTh am
ĠThÃ ¢n
Ġrá» Ĺi
Ġgá» ¡
Ġngá»§ i
ThÃ łnh
ĠMá» Ĺi
ĠNgh Ä©
Ġo an
ĠO anh
Chá» Ŀ
NhÃ ł
M Æ°á»Ŀi
Ġ Æ°
Ġt Ãłng
Ġt uyá»ĥn
Ġc áº±m
Ġb i
Ġb o
Ġb iáº¿ng
ĠT Ãłn
Ġng áº§m
Ġs Ã²ng
Ġs áº§m
Ġnh o
Ġth iá»ĩt
ĠL Ãª
ĠL Æ°á»£ng
ĠTr áºŃn
ĠV Ã¢ng
ĠphÃ¡ n
ĠB Ã¢y
ÄĲ áº§u
Ġtrá» įn
ĠNh am
Ġbu Ã´n
Cháº ¯c
L oáº¡i
V áº«n
ł n
ĠÄĳ Ãºc
ĠÄĳ áº¡n
Ġl ÃŃnh
Ġv Äĥng
ĠT Ãªn
Ġng áº¯t
Ġng Ã¡c
Ġtr iá»ĩn
Ġtr Æ°á»Ľng
Ġtr Æ°á»£t
ĠkhÃ ©o
Ġr áºŃm
Ġqu áº¥y
Ġgi Ã£y
Ġch en
ĠC áº¥m
ĠÄĲ á»Ļng
Ġkhá» §ng
Ġthi áº¿n
Ġthi áº¿p
Ġgá» £n
Tháº Ńm
ĠPh Æ°á»£ng
Ġ1 7
Ġ1 9
Ġnhá»ĭ p
ĠcÃº ng
Thá» ©
á»ª m
K á»³
Ġ ao
ĵ i
Ġc Æ°á»Ľi
Ġl i
Ġm Ãºa
Ġv áº¯t
Ġb á»Ļc
Ġb Ã¡m
Ġr Ã¹a
Ġlá» į
Ġlá» įt
ĠN Ã³
Ġnháº ¡o
ĠÄĲ Ã£
ĠÄĲ inh
ĠK Ãª
ĠB Ãªn
ĠB Ãło
Ġbá»ĭ t
ÄĲ á»Ļng
Ġtá»Ń u
Ġph Æ°á»Ŀng
Ġlo áº¡t
ĠNh Æ°
ĠThi áº¿u
Cá» Ńa
ĠghÃ ©t
Kho an
) ,
N á»Ļi
Ġ uá»
Ġt Ãª
Ġt áº¡ng
Ġn uá»ĳi
Ġv e
Ġb Ã¹ng
Ġng Ã³
Ġtr o
Ġtr Ã¢m
Ã³ p
Ġr Ã¡c
Ġr Ã©t
Ġtá» £n
Ġthá» «ng
Ġcá» Ľ
ĠthÃ ¡o
ĠchÃ ªnh
Ã¹ m
Ã¹ n
Ġtrá» ¥
ĠTháº ¥y
Ġthi Ãªu
Ġvá»ĭ t
ĠPh iá»ģn
ÄĲá» ķng
ĠLÃł m
G Ã£
K iáº¿m
L Ã´i
L iá»ħu
X in
á» ĩ
ĠÄĳ Ãł
ĠÄĳ áº¯p
Ġl anh
Ġm áº¡i
Ġb á»ĵ
Ġg Ã£i
ĠkhÃ ©p
Ġr Æ°Æ¡ng
Ġd Ã£y
ĠÄĳá» £t
Ġcá» ĳi
Ġnh Äĥn
Ġx iáº¿t
ĠH oÃłi
Ġhá» ĥn
Ġhá» ĳi
Ġhá» ķn
ĠN Äĥm
ĠN Ãłng
Ġbá» ±c
ĠÄĲ iá»ĥu
ĠÄĲ Ã¡i
ĠM an
ĠâĢľ ...
ĠK iá»ĩn
ĠS Ã¢m
ĠThá» ķ
ĠPh Æ°Æ¡ng
ĠNháº Ńm
ChÃ º
ĠPhá» ¥ng
NhÃ ¢n
B iáº¿t
C áº£
N am
¿ ch
Ġ áº¯t
Ġt áº©y
ĠÄĳ uá»ĳc
Ġm en
ĠT uyá»ĩt
Ġtr áº¡i
Ġs Æ°á»Ľng
Ġg Ã³p
Ġr áº»
Ġnh iá»ħm
Ġta ng
ĠC Äĥn
Ġmá» ¡
Ġnháº ¡y
Ġnháº ¿ch
Ġnhá» £t
ĠD uá»ĩ
Ä© u
Ġtu Ã¢n
Ġkh ung
ĠCh uyá»ĩn
ĠCh Æ°á»Łng
ĠhÃł m
Ġxu Ã´i
áº¹ n
ĠNh o
Ġchá»§ ng
ĠHá» ī
ĠPh u
Th an
PhÃ ¡p
Bá» Ĺng
Trá» Ŀi
C Ã¡ch
Ġt Ã¡t
Ġt Æ¡i
ĠÄĳ áº§m
Ġm Ã¬
Ġm áº£ng
Ġv áº¹n
Ġtr Ã¢u
ĠthÃ ¡nh
Ġx Ã³a
Ġvá» Ľt
Ġch oÃłng
Ġchá» Ńi
ĠnhÃ ¡nh
ĠC áº£m
ĠM áº¥y
Ġdá» Ŀi
ĠÄĳo an
Ġ1 3
Ġxá» ©ng
ChÃ ¢n
PhÃ ¹ng
-- -
Sá» ±
H a
T Ä©nh
ħ n
Ġt Æ¡
Ġc Ã£i
ĠÄĳ áº¡c
Ġn Ãµ
Ġl á»Ļc
Ġv Ã©n
Ġng áº¯m
Ġs áº§u
Ġg Æ°á»£ng
Ġg áºŃy
Ġr áº¡p
ĠÄĳá» ©c
ĠchÃ ª
uyá» ħn
Ġnháº ¯n
ĠÄĲ Ã³
ĠÄĲ Ãło
ĠM áº¹
Ġtháº¥ m
ĠD áº«n
Ġkhi Ãªm
Ġkh an
Ġkh uyáº¿t
Ġxu i
ĠPh Æ°á»Ŀng
Ġ1 4
Ġquy áº¿n
Nháº ¥t
B á»Ļ
L áº¥y
M á»Ļ
V iá»ĩt
§ a
¨ n
« m
Ġt uyÃªn
Ġt iá»ĩt
ĠÄĳ áº¯m
Ġn an
Ġn Ã£o
Ġl Æ°á»¡ng
Ġl áº·n
Ġv Ä©
Ġv áº¡ch
Ġb Æ¡i
Ġtr áº¡ch
Ġg Äĥm
ĠkhÃ ´n
Ġd Ã¡n
Ġnh ai
ĠL ao
ĠnhÃ º
Ãº y
ĠC há»
Ġnhá» ĩn
Ġná» ĭnh
Tr Æ°á»Ŀng
ĠphÃ¡ c
Ġngh iá»ĩt
ĠB áº£ng
Ġrá» ħ
ĠX em
ThÃ ´ng
âĺ ħ
ĠnÃµ n
B áº£n
H áº¡
K áº¿t
X o
á» ĥ
Ġt Ãºng
Ġc Æ°
Ġc Ãłi
ĠÄĳ áº¯t
Ġm áºŃp
Ġm á»Ļc
Ġk áº½
Ġk iá»ĩu
Ġk áº¹p
Ġk áº¹t
Ġb ia
Ġb áºŃy
Ġr ÃŃt
Ġcá» ¡
ĠthÃ ł
Ġnh Æ°á»Ľng
ĠC áºŃu
Ġcháº §n
Ġcho Ã¡ng
ĠphÃ¡ o
ĠB Ã¡o
ĠÄĳÃ¡ o
Ġkhá» ĳc
ĠS Æ¡
ĠCh uyá»ĥn
ĠY Ãªn
ĠLá» ĩ
Vá» Ľi
Nhá» ĭ
ĠCháº ¯c
ĠnghÃ ªnh
ĠHáº¡ m
Ġbá»ĩ ch
G áº§n
H Ãłn
M áº¡c
Ġ uyá»ĥn
á» Ĺi
Ġv áº¯ng
ĠT Ã¡n
Ġg á»¥c
Ġr Ã¨m
ĠÄĳá» ĳn
Ġh oÃłi
Ġháº ¥t
Ġhá» ĳc
ĠhÃ £n
ĠÄĲ Æ°Æ¡ng
Ġnhá» įn
Ġtrá» ħ
áº± n
Ġháº¡ p
ĠKhÃ ¢u
ĠQu áº£
ĠCh a
Ġkhu Ãª
Ġvá»ĩ t
ĠmÃª nh
ĠÆ ¯ng
Ġxáº» o
L ong
T Ã¬nh
V ÃŃ
Ġ ung
Ġ in
Ġl Ãºa
Ġm ÃŃ
Ġm á»ĳt
Ġk Ã¬a
Ġv Ã¡ng
Ġng Ã´
Ġr áº½
Ġd iá»ħm
ĠÄĳá» Ĺ
Ġth ong
ĠcÃ µng
Ġpháº £
ĠM áº«u
Ġngh iá»ģn
ĠNg ay
ĠS Ã¢n
Ġrá» įi
ĠÄĳá»ĩ m
ĠChÃ ºc
Ġtuy áº¿n
Gi Ã¢y
ĠVá» ĭ
ĠBá» įn
Ph u
ĠNá» ¯
B Ã³ng
H uá»ĳng
H Ã³a
M inh
S o
T ÃŃnh
© y
Ġ Â«
Ġt Ã¡
ĠÄĳ áº¡m
Ġn Ã¢u
Ġn iá»ģm
Ġv áº§ng
Ġb Ã³i
Ġs Ãłng
Ġs áº¹o
áº¿ c
ĠkhÃ łn
Ġqu ai
Ġx Ã£
Ġx ÃŃch
Ġgi áº«m
ĠchÃ ¹
ĠH Æ°á»Ľng
Ġta o
Ã¹ y
Ġná» ¡
Ġná» į
ĠTh eo
ĠTháº ¡c
ĠS á»Ł
KhÃ ³
Ġchu Ã´i
Tháº Ńp
ĠÄĲá» ĥ
Ġxá» ī
PhÃ ¹
ĠMá» įi
ĠÃģ i
M á»Ł
R á»ĵi
T iáº¿t
j a
ĠÄĳ iáº¿m
Ġn Ã£i
Ġv iá»ħn
Ġv áº¡t
Ġb áº¥m
Ġr Æ°á»¡i
Ġthá» ģ
Ġtháº £y
Ġx ao
Ġx Ã³t
Ġvá» Ŀi
Ġch Æ°Æ¡ng
ĠC Ã´
Ġcháº ©n
Ġnhá» §
Ġnhá» ©c
Ġgiá» ¥a
ĠK áº¿t
ĠB á»ĳ
ÄĲ á»ĵ
ĠTh iá»ģn
ĠTháº ¯ng
Ġchu a
Ġchu á»ĵng
ĠChÃ º
ĠÄĲá» ĩ
Ġtráº» o
in ja
ĠghÃ ©p
âĢĻ ,
ĠGiá» Ľi
B Ãło
H ay
K háº¥u
S uy
T am
T á»ĳt
³ m
Ġ Ãºt
Ġt áº¥p
ĠÄĳ Äĥng
Ġl Æ°á»Ŀng
Ġl Ã¡ch
Ġm iÃªu
Ġb áº»
Ġng áº«u
Ġtr ao
Ġtr á»Ļn
Ġd Ãło
Ġtá» §y
Ġnh ao
Ġgi Æ°Æ¡ng
ĠchÃ ¨o
Ġchá» ĳn
ĠH á»ĵi
ĠÄĳÃ£ ng
ĠV áºŃn
Ġná» ĥ
ĠB inh
ĠB áº£n
Ġphá» ĩ
Ġhá»į ng
Ġph a
Ġkhá» ĳn
ĠTá» §y
ĠTá» ĭnh
ĠCh Æ°a
Ġá» Ńng
Ġchu m
Ġphi Ãªu
ĠÄĲá» £i
ĠDá» ±c
Ġká»ĭ t
Tá» Ń
Giá» ¯a
ĠghÃ ©
Trá» «
Ġngháº ¹n
Ġuá» ķng
B á»ĳn
C Ãłng
H Ãł
H oÃłn
K háº
K há»
c Ã³
u á»ķi
Ġv áº¹o
Ġg áº·m
Ġr Ãło
Ġd Ã¢u
ĠÄĳá» ¥c
Ġnh an
Ġtháº ¡o
Ġqu e
Ġx áº¡
Ġx áº¯n
Ġx Ãło
Ġgi áº·c
ĠTr Ãłng
ĠC Ã¹ng
ĠÄĲ Ãłi
ĠcÃ¡ n
Tr áº¥n
ĠnháºŃ t
Ġrá» Ĺng
Ch a
ĠU ng
Ġso i
ÄĲá» ©ng
Tá» «ng
Qu an
ĠVá» ģ
ĠnhÃ³ i
Tu á»ķi
Dá» ±a
âĺ Ĩ
Ġhu áº¥n
ĠthÃ³ i
) .
S á»ĳ
V áº»
V áº¥n
« u
Ġ Ãºy
ĠÄĳ Ã²
Ġl Ã¹n
Ġv Ã³
ĠT áº¥t
ĠT Æ°á»Łng
ĠT áº¡p
Ġr áº£i
Ġtá» ĵi
Ġtháº ³m
Ġqu áº¥t
Ġvá» Ł
Ġgi áº·t
Ġchá» Ńng
Ġhá» ©a
Ġcháº ¥m
ĠhÃ ²n
ĠÄĲ á»Ļc
Ġnhá» ĳt
Tr uy
Ġtu Ã´n
Ġngá» Ńa
ĠB an
Ġphá» ĵn
Ġrá» ī
ĠPhÃ º
Ġá» ķ
Ġá» ªm
Ġnháº¹ n
Ġngo Ã¡i
Ġso n
ÄĲá» ĩ
Ġxo Ã¡y
ĠKh Æ°
ĠKh ai
ĠmÃ£ ng
ĠNgá» ±
Gi Ã³
Ġdi Ãªm
ĠNhÃ ł
ĠNhÃ £n
ĠtÃº m
ĠGiá» Ŀ
ĠâĢĶ âĢĶ
ĠDo Ã£n
Ġbo ong
B á»ĳ
D Æ°á»Ŀng
D Ã¹ng
N Ãły
R áº§m
o m
Ã ģ
Ġt Ã¡ng
Ġc áºŃp
Ġc á»Ļc
Ġc uá»ĳc
ĠÄĳ iáº¿u
Ġn Ã´n
Ġl Ãª
Ġl áº«y
Ġm áº¥u
Ġm Ã²n
Ġv Ä©nh
Ġb áº§n
Ġb áº¥y
Ġb Ã¬a
ĠT áº¡i
ĠT Ã´i
Ġtr áº¯c
Ġs Ãłn
Ġg iáº¿ng
Ġr Ã¹ng
Ġháº ¹n
Ġx Äĥm
ĠN áº¡p
Ġbá» «a
ĠhÃ Ń
ĠhÃ ¢m
ĠÄĲ Ã¡ng
ĠM uá»ĳn
ĠD iá»ĩu
ĠK háº
ĠB Ãłng
ĠNg Ãłi
Ġphá» ĵng
ĠS ong
Ġkho an
ĠCh Æ°Æ¡ng
ĠLá» ħ
Há» «
Há» ī
Ġmá»ĵ m
* *
B Æ°á»Ľc
E m
H á»ĵ
M Ã¨o
R a
T ay
T Ã¬m
h en
Ġt áºŃt
Ġt áº¯p
Ġc Ãło
Ġc áºŃy
Ġn inh
Ġn áº¥p
Ġn áº¯p
Ġn áº¿m
Ġl Ã¡i
Ġl uyáº¿n
Ġk iÃªng
Ġv Ãºt
Ġng a
Ġng Ã¡y
Ġg om
Ġg hen
á»Ļ p
Ġd áº£i
Ġtá» ĳng
Ġqu áºŃt
Ġgi Ã¡ng
ĠN inja
ÃŃ u
ĠÄĲ iá»ģu
ĠV iá»ĩc
ĠM Æ°á»Ŀi
ĠM Ã£ng
Ġná» Ĺ
Ġngá» ©a
Ġphá» ī
Ġká» ·
ĠnhÃł o
ĠThá» ĳi
Ġti Ãªm
ĠGi ao
ĠCh ung
Ġphá»¥ ng
Ġchu á»Ĺi
ĠHá» į
PhÃ ¡t
ĠVá» Ľi
uá» Ĺi
ĠÛ ŀ
ĠnhÃº n
B Ã¬nh
C ao
C Ãºc
K áº»
K eng
u á»ĵng
Ġ Æ°ng
Ġ uyÃªn
Ġ á»ĳm
ĭ t
Ń c
Ġc ay
Ġc áº·p
ĠÄĳ áº·n
ĠÄĳ áº«m
Ġn áº·c
Ġl iáº¿m
Ġl áº£o
Ġm Ã¢m
Ġb Ã³c
ĠT áº©y
Ġng Ãło
Ġtr Ãº
Ġtr Ã¹m
Ġr á»Ļ
Ġr Æ°á»Ľc
Ġd Ã¨
Ġd uá»Ĺi
Ġtá» ĭ
Ġx Ã¬
Ġx Ã¹
Ġx á»Ļn
Ġth iá»ĩp
ĠH a
ĠH uyá»ĩn
ĠcÃ ºc
ĠTr uyá»ģn
Ġnháº ¡c
ĠD Ã£
Ġná» įt
ĠB iÃªn
ĠB á»Łi
ĠthÃ¬ nh
ĠÃ¡ i
Ġho Ã£n
Ġrá» ĥ
Ġkho e
ĠX u
ĠX uyÃªn
ThÃ º
ĠcÃº t
ĠÃ Ŀ
ĠÃ ģnh
Gi Ã¡
-- --
ĠSá» ±
, âĢĿ
1 00
C Äĥn
C Ã¡nh
G iáº¿t
K iáº¿p
T áº§ng
² m
Ġ Â»
Ġc Æ°á»£c
Ġn áº¡t
Ġm an
Ġm Ãºc
ĠT oÃłn
Ġng Ãºt
Ġng áº«m
Ġtr Æ¡n
Ġs an
Ġg Ãłng
Ġg am
Ġd á»ĵi
Ġthá» ĳt
Ġnh am
Ġqu áº»
Ġx Ã¡
Ġgi Ã£n
ĠnhÃ ´
Ġcháº ¡p
Ġbá» ķng
ĠÄĲ a
ĠM iáº¿u
Ġcho áº¡ng
Ġngá» Ŀi
ÄĲ Ã´i
Ġho áº¡n
ĠThá» ¥y
Ġlo áº¡ng
ĠX iá»ĥn
Ġphá»§ i
Ġtho n
Ġvu Ã´ng
Lá» ±c
Há» įc
ĠÃ Ģ
Cháº ¿t
Ġmá»ĭ n
Kh u
Chá» Ĺ
Ph Æ°Æ¡ng
Chi áº¿c
Ġgam e
. ãĢĳ
H o
H iá»ĩu
H Ãłnh
ħ u
ĠÄ ©
Ġl Ãµ
Ġl Ãºng
Ġl Ã£i
Ġl Ã³t
Ġk Ã¬
Ġk eo
Ġk iá»ģm
Ġb áº¡t
Ġng Ã³ng
Ġs áº«m
Ġg ai
Ġg áº¯p
ĠÄĳá» ĳ
uy nh
Ġtháº ¯n
Ġtháº £i
Ġtháº ¹n
ĠH áºŃu
ĠL iÃªn
Ġcá»§ ng
Ġcháº »
Ġnháº £m
ĠÄĲ Æ¡n
ĠM au
ĠM Ã´ng
ĠB Ãª
ĠNg Æ°ng
ÄĲ ao
ĠThÃ ¬
Ġho Ã¡n
Ġrá» Ĺ
ĠQu Ã½
ĠX in
ĠChÃ Ń
Ġtho Ã¡i
Ġto Ã¡i
Qu áº¡
ĠhÃ² m
Ġnu a
Bá» ĭ
H áº§u
H á»ĵi
M áº¯t
M Ã£i
T Ã¢m
T Ãło
V Ãł
X e
Y Ãªn
Ġ a
Ġ Æ°a
Ġ uá»ĳn
Ġ Ã¹a
á» Ŀi
ĠÄĳ Ã´
ĠÄĳ ai
Ġn áº£n
Ġl á»Ļng
Ġl Ã³c
Ġm áº»
Ġm áº¡n
Ġv inh
ĠT Ã½
ĠT áº¿t
ĠT Ã¹y
Ã³ e
Ġs Ãło
Ġr Ãº
Ġr áº¡ch
Ġr áº§m
Ġr áº¡ng
Ġd inh
Ġtá» ¥ng
Ġqu Ãł
Ġx Æ°á»Łng
Ġchá» ¥p
ĠnhÃ £n
Ġhá» ±c
ĠTr Ã¡i
Ġnháº ¥p
ĠÄĲ á»ĳi
ĠV i
Ġsá» įt
Ġgiá» Ł
ĠB áº¯t
ĠB á»ĳi
ÄĲ an
ÄĲ Æ°á»Ŀng
ĠP há»ī
ĠCh Æ°á»Ľng
Ġá» Ĵ
Ġchu á»Ļc
Tháº ±ng
Ġbu á»ĵm
ĠTrá» Ŀi
ÄĲá» ©a
Ġdá»ĭ p
Hai z
Nhá» Ľ
Ġ7 0
Ġnhu áºŃn
Ġláº» n
Xo áº¹t
B Ãłn
B uá»ķi
H uynh
L ao
N Ãło
T iáº¿n
k hÃ
Ġt Ã³e
Ġn anh
Ġn ÃŃn
Ġl iá»ĩp
Ġm iÃªn
Ġk ÃŃ
Ġv Å©ng
ĠT iá»ħn
Ġtr Æ°ng
Ġg iáº¿m
Ġg á»ĳm
Ġd á»Ł
Ġnh Å©
Ġnh iá»ħu
Ġtháº ¯c
âĢľ ...
Ġgi Ã²n
Ġchá» «
Ġchá» Ļ
ĠL Æ°
Ġhá» «ng
ĠN iÃªn
Ġbá» Ľi
ĠhÃ £m
Ġnháº ±m
ĠÄĲ áº£
ĠÄĳi Ãªu
Ġgiá» ħu
ĠD Æ°á»Ľi
ĠK Ã½
Tr á»Ł
Ġngá» ¥y
ĠB iáº¿t
ÄĲ á»Ļ
Ġph anh
Ġkhá» Ľp
ĠQu áº£n
ĠPhÃ ¡
ĠPhÃ Ń
KhÃ ¡c
Ġtho áº¡t
Ġbá»ı ng
ĠÄĳu n
Ġláº¡ y
Qu Ã¡
Qu ay
Qu áºŃn
Qu áº£n
ĠbÃ¡ u
ĠnhÃ³ t
ĠR áº¥t
ĠghÃ ª
ĠBá» ĭ
Ġ5 0
ĠÆ ¯
ĠchÃł ng
ThÃº y
) ãĢĳ
C Æ¡
D o
L iÃªn
M Ã¬nh
M iÃªu
T áº§m
V Ã´
V Ã¹
V Äĥn
p hÃ
§ i
Ġ á»ĳc
Ġn áº¡
Ġn Ã¡y
Ġv áº£y
Ġb Ä©u
Ġng áº£
Ġg áº¯t
Ġr áº§y
Ġr Ã¬a
ĠthÃ ©p
Ġtháº «m
Ġth ao
Ġgi eo
Ġch Æ°
Ġchá» ķi
ĠH Æ°
Ġhá» ¥t
Ġlá» įc
ĠN Ã´
ĠN Æ¡i
ĠTr Ã¡o
Ġcháº Ńp
Ġnhá» ķ
ĠM áº·t
ĠM Ã¢u
ĠD iÃªm
ĠK iáº¿n
ĠÄĳÃ³ a
Ġdá» ¥i
ĠB ÃŃch
ĠNg oÃłi
ÄĲ áº·t
Ġtrá» ¥i
ĠÃ¡ y
Ġká» ģ
Ġká» ģn
Ġph Æ¡i
Ġph Æ°á»£ng
Ng Ãłi
ĠHo Ã£n
Ġvá»ĭ n
ĠQu áº£ng
ĠCá» ©
Ġto áº¡c
Ġphi áº¿n
Ġphi áº¿u
Th Æ°á»£ng
Thá» §y
Gi Ã¡c
Má» Ľi
Kh Æ°Æ¡ng
ĠBá» ķ
H Ã´
L áºŃp
M ang
M Ã¡u
T inh
T á»ĳc
n háº
u á»Ļc
Ġ I
á» ¹
áº ³n
Ġt y
Ġt áº£i
Ġn Ãºt
Ġl eng
Ġv áº¡i
Ġv Ã³c
Ġb Ã¬
Ġb Ã£o
ĠT Ãłi
ĠT á»ĳt
Ġtr Ãºt
Ġg áº£
Ġp in
Ġh Å©
Ġcá» į
Ġth Æ°a
Ġgi áº±ng
Ġch Äĥng
ĠC áº¥p
ĠC uá»ĳi
Ġpháº ³ng
Ġpháº ©y
ĠhÃ Ńp
Ġmá» ķ
ĠÄĲ áº¥t
ĠD iá»ħn
Ġná» ı
ÄĲ Ã¡nh
Ġtrá» ¥c
ĠThÃ ´n
Ġrá» ĩt
ĠPh a
Ġphi áº¿m
Qu a
ĠPháº £i
Nh anh
ĠR Ãµ
Ġnhu á»Ļm
Kho áº£nh
Ġpháº£ ng
? ?
B ao
C Ã¢u
H iá»ĥu
S á»Ł
Y áº¿n
Ã Ĥm
Ġ âĺħ
Ġt Æ°á»Ľi
Ġt Ã¹ng
Ġc Ãły
ĠÄĳ áº¯ng
Ġl iÃªu
Ġl iá»ħm
Ġm Ã¢u
Ġm áº·n
Ġv Ã¡
Ġv Ã¹
Ġv Ã£n
ĠT ÃŃnh
Ġng áº¡t
Ġtr Æ¡
Ġs áº¡p
áº¿ ch
Ġg Ã¹
Ġr ong
Ġqu áº©n
Ġqu áº§ng
Ġchá» Ľ
ĠH áº¡c
Ġhá» Ŀ
ĠN Äĥng
ĠTr áº¯c
ĠTr Ã¹ng
Ġcháº Ńc
ĠhÃ ©
Ġná» ĩn
ĠB Ã¡
ĠB Ã©o
ÄĲ Æ°a
Ġtrá» ĩ
Ġkhá» ©
Ġkhá» ±ng
Æ°á»Ł i
Ġlo a
Ġlo Ã¡ng
Ġá» ıi
ĠPh an
Ġphi m
Ġru á»ĵi
ÄĲá» ģu
Ġtráº£ m
Gi áº£
ĠTu á»ĩ
ĠGia m
Ġ3 0
ĠBá» ĩnh
ĠHuy nh
ĠGiá» įng
KhÃ³ e
ĠlÃµ m
ĠÄĳá»ĳ m
H á»ĵng
R á»ĳt
V u
o an
¹ t
Ġ áº£m
Ġt Ã³m
Ġc uá»ĳng
ĠÄĳ e
ĠÄĳ áº¯n
Ġn áºŃp
Ġl Ã¢n
Ġv Ã¢ng
Ġb Ã£
Ġb Ã´i
Ġb áº§m
ĠT Ã¡t
Ġtr áº£o
Ġs áºŃp
Ġs áº¯m
Ġs áºŃy
Ġg áº¥m
Ġr Ã²ng
Ġd áº«m
Ġtá» §m
Ġnh Æ°á»£c
Ġtháº §u
Ġx Ã¢u
Ġth en
Ġch Æ°á»Ľng
ĠL áº¥y
ĠnhÃ ºng
Ġhá» Ľn
Ġlá» ©a
Ġlá» ¥y
ĠTr Æ°ng
Ġra nh
Ġbá» ķn
ĠÄĲ Ãł
ĠÄĲ Ãªm
Ġsá» ī
Ġsá» §a
ĠD i
Ġtu á»ĩ
Ã² a
ĠB Ãºp
Ng oáº¡i
ĠThá» ĳng
Ġlo ang
Ġrá» ¥ng
ĠNh a
Ġmu Ã´n
ĠTrá» ¥
Th Æ°Æ¡ng
Qu áº¿
ĠTu á»ķi
ĠNhÃ £
Ġo ai
Phá» ¥c
Trá» ĭnh
Ġtá»ī m
ĠkÃŃ p
ĠnhÅ© n
. âĢĻ
1 0
B Ã¡t
B áº£o
D Ã¬
H uyá»ģn
M au
S Ã¡u
T Æ°
V áº¿t
g i
³ nh
Ġ [
Ġ á»¥c
Ġc áº¡o
Ġl áº¥m
Ġl Ã©o
Ġb Ãºi
Ġb uá»ĳt
ĠT ay
ĠT uyÃªn
Ġng áº§u
Ġtr Ä©u
Ġs áº»
Ġd Æ¡
Ġd Ã¢m
Ġd áº«u
Ġh uyÃªn
Ġh am
Ġthá» ıi
Ġcá» įng
Ġnh ang
Ġháº ±ng
Ġx iÃªn
Ġx á»Ļc
Ġth ung
ĠnÃł n
Ġgi Äĥng
Ġch ai
ĠL Æ°á»£c
Ġhá» §
Ġlá» Ł
Ġlá» £n
ĠhÃ ©o
Ġnháº ¥n
ĠB á»ĵ
ĠNg á»¥c
ĠNg oáº¡i
Ġphá» ĭch
Ġkh Æ°
ĠdÃ¹ i
Ġph e
ĠS o
ĠS Ãłi
Å© i
Ġho áº¡i
ĠTá» ©c
ĠG iáº¿t
Ġchu á»ĵn
ĠNh u
ĠHá» «
Ġtho ang
ĠNhi áº¿p
ÃĶ i
ĠDá» ¥
ĠchÃ³ t
Há» ıa
ĠNghi Ãªm
PhÃ ²ng
PhÃ ºc
ĠÃĶ n
uá» ³nh
ĠchÃ¬ a
Cá» ķ
Ph an
Ngá» įc
ĠhÃ¨ n
Ġthá»ı m
khÃ ´ng
C uá»Ļc
L Ã²ng
M á»Ļng
P hi
S inh
T Ã¡m
t r
Ġ Ã¹
ī u
á» µ
Ġt Æ°á»Ľc
Ġt áº©m
ĠÄ Ĥn
ĠÄĳ áº«n
ĠÄĳ ÃŃnh
Ġn ung
Ġl Æ°á»£c
Ġl áº³ng
Ġk iá»ģu
Ġv Ã¹i
Ġb áº§y
Ġb Ãºa
ĠT á»ĳi
Ġng áº·t
Ġng Ãłnh
Ġng Ã²i
Ġs Æ°ng
Ġs áº¥p
Ġs Ã¹ng
Æ¡ ng
Ġr Ãªn
Ġr eo
Ġr áº¯m
Ġr Ã£nh
Ġd áº»
Ġd Ã¬u
Æ°á»Ŀ m
Ġtá» ¥t
Ġthá» Ľt
Ġthá» īu
Ġnh e
Ġnh uá»ĩ
ĠL áº½
ĠL iÃªu
ĠL oáº¡i
ĠN Ãły
ĠhÃ ª
ĠÄĲ Ã´
ĠÄĲ Ã¡m
ĠÄĲ áº¥u
ĠÄĲ áºŃu
ĠM ay
Tr ang
Ġkhi Ãªu
ÄĲ Ã´ng
Ġtrá» įt
Ġthu áº«n
Ng Å©
ĠS a
ĠTá» īnh
Ġrá» Ľt
ĠPhÃ ´i
Tháº £o
Ġhá»Ļ c
Ġkhu áº¥y
ĠÄĲá» ģ
ÄĲá» Ŀi
ChÃ ºc
Ġ2 3
ĠVá» ¥
Ġo anh
Nh iá»ģu
Nh iá»ĩm
Ġháº» o
Nháº ¡c
Pháº §n
âĢĶâĢĶ âĢĶâĢĶ
ĠchÃ¹ a
ĠÆ¯ Æ¡ng
Ġâĺħ âĺħ
D Ã²ng
L á»Ļc
M u
T Ã¢n
T uyá»ĩt
X ong
d eo
¢ y
± n
Ġ ~
Ġ Æ°á»
Ġ am
Ġ áº¥p
á» įi
Ġt á»Ļt
Ġt Ã²ng
Ġt áº¥u
Ġc Ãł
Ġc Äĥm
ĠÄĳ áº½
ĠÄĳ iá»ĥu
ĠÄĳ iá»ģm
Ġm áº¡t
Ġk áº¹o
Ġv Æ°á»Ľng
Ġb á»ĵn
Ġs Å©ng
Ġd áº¡t
Ġcá» ıi
Ġcá» įc
Ġháº ¯t
Ġx ay
âĢľ ...âĢĿ
Ġch Æ°á»Ľc
ĠphÃ ¬
ĠTr i
ĠhÃ ²ng
Ġnhá» įc
Tr áº£i
Ġngá» «a
Ġngá» Ĺng
ÄĲ áº·c
Ġtrá» ķ
Ġy á»ĥ
ĠnhÃł m
Ġquáº£ ng
ĠPhÃ Ńa
Ġlu á»ĵn
ĠLá» ĭch
Ġvi deo
Ġtrá»ĭ nh
Gi áº£i
ĠNhÃ ¢m
Ġo m
ĠCháº ¿t
ĠR á»ĳt
Thi áº¿t
Chá» ĭ
Ġá»§ ng
Sá» ©c
Chi áº¿n
Ġ100 0
ĠDo anh
Ġbo m
Bá»ĳ p
Ġ70 5
ĠNhu áº¿
ĠÆ°á» ¡n
B áº±ng
B áº©m
C Ã¢y
C áº§m
D uy
H Æ¡i
H ÃŃt
H áº³n
M áº¥t
M á»Ļc
M Ã¹i
R á»Ŀi
S ong
S Æ¡n
S Ã¡t
T in
± u
Ġ á»ĵ
Ġ Ã¢u
Ġ ...
ĥ nh
Ġt Ã©p
Ġc Æ°ng
ĠÄĳ áº»
ĠÄĳ Ã¹ng
Ġn iÃªm
Ġl á»Ļi
Ġl Æ°á»Ŀm
Ġm áº¡p
Ġm oi
Ġv iá»ĩt
Ġb ong
Ġb á»ĵng
ĠT Ã¡c
ĠT iáº¿p
Ġtr u
Ġtr Ã²ng
Ġs áº¥u
Ġs áº£i
Ġr Ã¨
Æ°Æ¡ u
Ġtá» ģ
Ġthá» ±
Ġthá» ĭch
Ġqu áº·ng
ĠH uá»ĳng
Ġhá» ī
Ġlá» įi
Ġbá» ĥ
Ġbá» ī
Ġsá» ¯a
ĠM áºŃu
ĠD áº§n
.. ..
ĠB Ã¡n
ĠB áº±ng
ĠNg áº«u
Ġtrá» ı
ĠÄĳá»Ļ n
ĠP hiÃªn
ĠTh Æ°á»Ŀng
ĠTh iá»ĥn
Ġy áº¿t
ĠÄĳá»ĵ i
ĠKhÃ ³
ĠQu a
ĠPhÃ ¡ch
ĠNh iá»ģu
Ġngo áº£nh
ĠthÃº y
Ġso Ã¡i
ĠDá» ±
Ġchá»Ŀ n
ĠThu áºŃn
ĠCá»« u
ĠtÃ² i
Ġ2 5
Ġ2 7
ĠMá» Ľi
Ġáº ¨n
ĠPhá» ĳ
ĠCháº ¥p
Nh a
Phá» ĳc
Ġ5 00
Nháº Ńn
Kho áº£ng
ĠbÃª nh
99 99
ĠKhá» Łi
Ġxá»ī u
Khu Ã´n
' .
B áº£y
C á»ĳc
D áº§n
M a
M Ã´n
S á»ĳng
T y
T Æ°á»Łng
V Ãłi
V Ãºt
l i
Ġ Ã¡t
Ġ Ãºp
Ġ áº©m
áº ¤
Ġt áº§n
Ġt áº¿t
ĠÄĳ Ãły
ĠÄĳ Ãºt
Ġn Ãºp
Ġl áº¯p
Ġm eo
Ġm iá»ĩt
Ġv áº©y
Ġv áº¡m
ĠT á»Ļc
Ġng Æ°á»Ľc
Ġng Ã¡p
Ġtr áº¡m
Ġs Æ°a
Ġd áº¥y
Ġd uyá»ĩt
Ġh an
Ġh Æ°Æ¡u
Ġcá» ¥t
ĠthÃ ¡p
ĠthÃ ¢y
Ġx Ãº
Ġx Ãµ
Ġvá» ¥t
ĠH áº£
ĠH uyá»ħn
ĠcÃ ¹
Ġlá» ķ
ĠN Æ°Æ¡ng
ĠTr Æ°á»Łng
Ġnháº £
ĠM ao
ĠK iá»ĩt
ĠK iáº¿p
Tr Ã¡i
ĠNg áº¡o
Ġbá»ĭ p
Ġphá» ķi
ÄĲ Ã¡i
ÄĲ á»Ļc
Ġtrá» įc
ĠÄĳá»ģ n
Ġkh anh
Ġkh ay
Ġkhá» ī
Ng á»ĵi
Ng uyá»ĩt
ĠS áº¯c
ĠThÃ ¬n
Ġkháº ¿
Ġháº¡ c
Ġho an
ĠTá» ģ
ĠG áº·p
Ġrá» §
ĠGi ai
ĠHo áº·c
ĠPhÃ ²ng
Ġá» ª
ĠthÃŃ nh
ChÃ ło
Thá» ĭ
Tá» ©
PhÃ ¡
PhÃ ³
Bá» ı
Bá» ĭch
ĠKho Ã¡i
Cá» Ńu
Ph ong
Sá» £
Ġkhuy nh
Ġhu n
ĠChá» Ĺ
Ġâĺħâĺħ âĺĨ
ĠxÃµ a
B áº¯t
B iá»ĥu
B Ã¡ch
C áº§n
H áºŃu
K iáº¿n
L u
N Ãªn
R áº¯c
T uyáº¿t
V iá»ħn
X a
X ung
e s
µ t
Ã įt
Ġ áº£
Ġ ong
Ġ **
Ġt Ã¬
Ġt áº»
Ġt Ã´m
Ġc áº¡
Ġc Ãłn
ĠÄĳ Äĥm
Ġl Ã¡c
Ġl áº«m
Ġm Ã¹ng
Ġb áº·t
Ġb Ãłng
Ġb Ã³n
ĠT Ã¬m
Ġg Ã¡p
Ġr o
Ġr Ã¢m
Ġd Æ°ng
ĠÄĳá» ±c
Ġh uyá»ħn
Ġthá» ģm
ĠcÃ³ c
Ġcá» «u
Ġnh uá»ĳ
Ġx ÃŃ
Ġx Ã´i
Ġx áº¡c
Ġth iá»ģn
Ġvá» ±a
Ġvá» ¥ng
Ġvá» ĥnh
Ġchá» ĵn
ĠL Ã´n
Ġlá» ģ
Ġlá» ±u
ĠN hiÃªn
Ġcháº £i
Ġpháº Ńt
ĠhÃ ³ng
Ġmá» ĭch
Ġnháº µn
ĠÄĲ á»Ļt
ĠÄĲ iá»ĥm
ĠÄĲ Ã¡nh
ĠÄĲ áº£o
ĠÄĲ áº©u
Ġsá» ¥c
ĠM ang
ĠM á»Ł
Ġgiá» ¡n
ĠD á»¥c
Ġná» ±c
Ġná» ©c
Ġná» Ľt
ĠK áº»
Ġtu áº¿
Ġngá» £m
ĠB Ã£o
ÄĲ iá»ĩp
ĠTh ung
Ġy áº¿m
Ġkhá» ¥
Ġkháº ©y
ĠTá» «ng
ĠKhÃ ´i
ĠKhÃ ¡ch
Ġrá» ķ
Ch Æ°á»Łng
Ġkho ai
ĠHá» §
ĠkÃ© n
ThÃ ªm
Ġxo áº¯n
Ġxo áº¹t
Tá» ķng
ĠMá» ¹
ãĢĳ :
Ġáº ¦m
Ġu áº¥t
Ġáº¤ n
ĠÄĲo Ã¡n
Ngá» įn
Thu áº§n
Ġngháº ¹t
ĠmÃŃ m
Ġcáº¡ y
Ġnhuá»ĳ m
C áº¥p
C áº¥m
G áº·p
H áº¿t
M an
N áº¯m
O anh
S Ã¡ch
S áº¯p
T há»§
V Å©
t h
Ì ģ
Ġ ãĢ
Ł m
ł ng
ng Æ°á»Ŀi
Ġt Ã´
Ġc áº¯p
ĠÄĳ ung
hÃ łnh
Ġn áº¿p
Ġn áº·n
Ġn Ã¡u
Ġl uá»ĳng
Ġl ia
Ġl áºŃn
Ġl en
Ġl Ã¡ng
Ġv o
Ġv Ã£i
Ġb Ã©t
ĠT áº§ng
Ġng áº§n
Ġng áº¯c
Ġng áº¥u
Ġng áº¥m
Ġtr Ã¡c
Ġtr áºŃt
Ġr Ã£
Ġr Ãªu
Ġr Ã¡t
Ġr Æ°á»Ľi
Ġr Ã¡ng
Ġr Ã¡p
Ġtá» Łm
Ġcá» £t
Ġqu áº·c
Ġx áº¥p
Ġx Ã³c
Ġx áº¹t
Ġvá» Ľ
Ġhá» ħ
Ġhá» ķi
ĠC Ãº
ĠC Ã¢u
Ġbá» Ŀi
Ġpháº «u
Ġmá» ħ
Ġnhá» Ļ
Ġná» ĩ
ĠK áº¿
ĠK á»µ
Tr Ãºc
Tr áºŃn
Ġkhi áº¿t
ÄĲ inh
ÄĲ au
Ġkh Æ¡i
ĠchÃŃ t
ĠTháº ±ng
Ng Æ°á»£c
ĠnháºŃ m
ĠTá» ·
ĠTá» ĩ
ĠKhÃ ¢m
Ġrá» ¯a
Ġrá» £n
ĠGi Ã¡
ĠGi áº£n
Ġgá» £i
Ġá» ·
ĠNh anh
Tháº ¥t
ĠhÃ³ t
âĢ¦ âĢ¦
Ġkhu á»·
ĠÄĲá» ģu
Táº¡ m
Ġso áº¡t
Th Æ°
ĠDá» ±a
ĠKh u
ĠKh ang
Tá» Ľi
Há» ĩ
PhÃ ¬
Ġ2 00
ĠTu áº§n
Bá» ¯a
ĠCháº ¥n
ĠPháº §n
ĠtÃº y
ĠR a
Ġngu á»Ļi
Phá» ¥ng
Chá» Ľp
âĢĻ .
Ġdá»¥ a
ĠGiá» ĳng
Ġva li
Dá» ĭch
ĠCá»± u
ĠÄĳÃł m
Ġchá»Ļ p
Ġkhuá»· u
! !
' .âĢĿ
B Ã¹m
C á»Ļng
D Æ°á»£c
H áº¡o
H áº¡ng
H iá»ĥn
K áº¿
K inh
K Ã½
K á»¹
M Ã£
M ÃŃ
M Æ°a
M á»¥c
T Ã¢y
T iÃªu
V iá»ĩn
X ÃŃch
X Ã¡c
l Æ°u
t háº
t áº§ng
Æ ł
Ġ Æ¡
Ġ Æ°Æ¡ng
Ġ Ãªm
Ġ áº¥u
Ġ âĢ¦
Ġt áº±m
Ġc áº±n
ĠÄĳ áº£ng
ĠÄĳ Ã¬a
Ġn áº»
Ġl Ãªu
Ġm áº¿n
Ġm áº¡c
Ġk Ã¨n
Ġv eo
Ġv áº¡ng
Ġv Ã£ng
Ġb áºŃp
Ġb áº©y
Ġg áºŃp
âĢ ¢
Ġd ong
Ġd Å©a
Ġcá» ¥p
Ġcá» ĵn
Ġqu Äĥng
Ġx Ã´n
Ġx iÃªu
Ġx Ã²e
Ġth e
Ġch au
ĠchÃ ²m
Ġchá» «a
ĠL iá»ĩu
ĠnhÃ Ń
ĠnhÃ ²m
ĠphÃ łn
Ġlá» ķng
Ġlá» ĭa
ĠC áº§m
Ġpháº Ńp
Ġpháº ¯t
iá»ģ ng
ĠhÃ ¹
Ġmá» ģ
ĠÄĲ iá»ĥn
ĠV áº«n
ĠV á»ĳn
ĠM i
ĠM Ã¬nh
ĠM Ã¹i
ĠD iá»ħm
Tr ung
áº½ o
Ġngá» Ľt
ĠB Ã¡c
ĠB ia
ĠB á»ĳn
Ġbá»ĭ a
Ġkh ao
ĠTháº ¥u
Ġchi Ãªng
ĠS Ã¹ng
ĠThÃ Ńnh
Ġho Ã¡
iá»ħ ng
Ġtá»ĳ p
ĠGi áº¥c
Tháº ¡ch
ĠChÃ ¡u
Ġtho áº¯t
ĠTrá» £
ĠÄĲá» Ĺ
Ġso áº¡n
Th uyá»ģn
Ġkáº» o
ChÃ Ńn
Thá» Ł
ĠPhi Ãªu
ĠNhá» Ľ
Má» Ŀi
Ġkháº£ m
ĠMá» Ŀi
Ġlá»ĵ i
ĠPhá» ķ
Ġo a
Ġo áº£i
uá» µt
Ġ3 6
Phá» ¥t
ĠlÃ² e
ĠxÃ© o
Dá» ©t
ĠvÃ² m
ĠKhá» ĳng
Ġuá» ĥ
Ho áº·c
Haiz z
Ġyá»ĥ u
Ġnhá»Ļ n
! ?
) :
B iÃªn
B ÃŃch
B Ã¡c
B Ã¡nh
D Ä©
L Ã¢u
M áº«u
M Å©i
N Ã´
N inh
N Æ°á»Ľc
Q uy
Q uyá»ĥn
S áº½
T áº¿
V áºŃt
X Ã¨o
f a
h a
o o
o áº¡t
v i
µ i
Ġ áº¯ng
ħ nh
áº ¢
ĠÄĳ Ãª
ĠÄĳ áº©u
Ġn áº¯n
Ġl áº£
Ġl Å©ng
Ġl Ã¡y
Ġm áº«n
Ġv iá»ģn
Ġv Ã©o
Ġb áº¡
ĠT áº£
ĠT Æ°Æ¡ng
ĠT uyá»ĥn
ĠT iáº¿ng
Ġtr Ã¡o
Ġs áº¡n
Ġs Æ°á»Łi
Ġg Ã¡o
Ġr ao
Ġd ang
Ġd áºŃt
Ġd áº§m
Ġh uá»³nh
Æ°Æ¡ m
Ġqu áº¯p
Ġqu Ã£ng
Ġx Ã¡t
Ġx á»ĳi
Ġth iá»ĥu
ch Æ°a
Ġvá» ĵ
Ġgi áº¥m
âĢĿ !
Ġchá» ±c
ĠH á»Ļ
ĠH iá»ģn
ĠcÃ µi
Ġhá» ķng
Ãº n
ĠC áº£
ĠC áº§n
ĠC Ã¡ch
ĠC oi
Ġcháº ½
Æ°á»Ľ n
Ġbá» ģn
Ġmá» ¥
Ġnháº ©m
ĠÄĲ ang
ĠÄĲ Æ°a
ĠÄĲ Ã´i
ĠV Ãło
Ġnhá» ¡
ĠM Ãły
ĠD anh
ĠD iÃªn
ĠD Ã¹ng
Tr uyá»ģn
Tr Ã¡ng
Ġngá» ¡
Ġngá» ¥
ĠB u
ĠB ÃŃ
ĠB Ã¡i
ĠNg áº¡c
ÄĲ iá»ģn
ÄĲ á»ķi
Ġthu á»Ł
Ġy áº¿n
Ġháº¡ o
ĠTá» ıa
Ġti vi
Ġrá» §a
ĠHo áº±ng
Ġgá» įng
ĠNh iá»ĩm
ĠLá» Ŀi
ThÃ ´n
ÄĲá» ĭa
Lá» ĩ
Thá» ĭt
Tá» ·
Tá» ©c
Tá» ±a
Ġ2 1
Giá» Ľi
-- ---
Ġsá»Ł n
Nháº Ńp
Ġu m
Trá» ±c
ĠvÃŃ u
ĠthÃ² i
Thu á»Ļc
ĠKháº £i
nháº ¥t
áº¤ y
% ,
B Ã¡n
C áº§u
G Æ°Æ¡ng
H Ãłng
H áº£i
K Ã©t
L áº¡
L Ãªn
L Ã´ng
L áº½
L áº¡c
L iÃªu
L iáº¿c
L uá»ĵng
M áº¡ch
N áº±m
T ÃŃch
T áº¥m
T iáº¿c
V iÃªn
V áºŃn
b á»
c á»
c hÃ
i u
m á»Ļt
m eo
o áº¡n
r m
~ âĢĿ
Ġ Ãºng
Ġ Ã¹ng
Ġ Ãºa
áº µng
Ġc ai
Ġc áº·n
Ġc á»Ļp
Ġn Ãª
Ġn Ã£
Ġn áº¡o
Ġn á»ĳt
Ġl e
Ġl áº¡n
Ġm Ã³
Ġm áº¡
Ġm Æ°á»£t
Ġv Ã¡i
Ġv á»ĳc
Ġv Æ°á»£n
ĠT á»¥c
ĠT Ã¡m
Ġng háº¿
Ġtr Ã¡
Ġtr Ã³c
Ġs áº·c
Ġs am
Ġs áº©y
Ġs Ãłnh
Ġg ay
Ġg Ã³a
ĠkhÃ ¢m
Ġr Äĥn
Ġr Ã¡o
Ġr Æ°á»Łi
Ġr iu
Ġd Ã©p
ĠÄĳá» Ĺi
Ġtá» ĭnh
ĠthÃ ¡ch
ĠthÃ ło
Ġnh Æ°á»£ng
Ġháº ±n
Ġqu áº¿
Ġth au
Ġgi áºŃm
Ġch ao
ĠchÃ ©o
ĠH ung
ĠL Ã¡t
ĠL oan
ĠcÃ ²
ĠcÃ ´i
ĠphÃ ª
ĠphÃ ´
ĠphÃ ¨n
ĠvÃł n
Ġlá» «ng
ĠC Ã¢y
ĠC Ãłng
ĠC áº©n
ĠC uá»ĵng
Ġcháº ±ng
ĠÄĲ á»Ļ
ĠÄĲ áº±ng
ĠcÃ¡ p
ĠM Ã£o
ĠM áº¡n
ĠM Ã£i
ĠD u
ĠD iá»ĩn
ĠD uyá»ĩt
ĠK eng
Tr áº£
Tr Ã´ng
Tr áº¡ch
Ġdá» ¡
Ġdá» ĩt
ĠB i
ĠNg Ã£
ÄĲ á»Ļi
ÄĲ áºŃu
ĠTháº Ńn
Ġph ai
Ġkhá» Ń
Ng Ã¢n
Ng Æ°u
ĠThÃ ¢m
ĠTá» ķng
ĠThá» īnh
Ġlo i
Ġlo Ã¡t
Ġlo Ã£ng
ĠQ uyÃªn
Ġgá» įt
ĠQu Ã¡
ĠQu Ã¡i
Ġá» «
Ġá» §y
ĠChÃ ¢m
ĠNháº Ńn
ĠthÃŃ m
Ġto p
Ġkhu áº¿ch
ĠÄĲá» ©ng
ThÃ ¡ng
ĠLong in
Nhá» Ŀ
Ġ2 8
ĠVá» įng
Cháº ¡y
Bá» ©c
ĠPhá» ıng
00 0
Ġ3 1
Ná» ¥
ĠtÃº a
ĠghÃ ¬
ĠhÃº p
ĠnhÃ© o
Nháº ¯c
ĠSá» Ń
Chi Ãªu
Ngá» §
ĠChá» Ŀ
Kháº ¯c
Khá» ĳn
Mu a
ĠãĢ Ĭ
Ġngháº¿ ch
ĠLongin es
5 0
B Ãłng
B áº¡n
B Ã¡o
B Ãºp
C Æ¡n
C á»Ļc
C áºŃn
C Ãºt
D áº«n
D ung
G Ãł
H y
K iá»ĩn
K á»ĥ
K áº½o
M ong
O Ãłnh
P há»§
Q uyá»ģn
S ai
T im
V áº¡n
a c
d uy
p há»
¦ a
Ì Ģ
Ì ī
Ġ E
Ġ Ã³ng
Ġ áº¯p
Ġ á»ĵm
Ġ Æ°á»Ľp
Ľ c
á» Ľc
Ġt Ã©
Ġc áº¥y
Ġc áº¡ch
Ġn Ã¡ch
Ġl ÃŃ
Ġl Ã³i
Ġl ÃŃu
Ġm Æ°Æ¡ng
Ġm Ã¨
Ġm Ãºi
Ġm áº£i
Ġm Ã¡ch
Ġm á»ĳng
Ġm áº«m
Ġm Ã©o
Ġk iÃªm
Ġv áº¡c
Ġv Æ°á»£ng
Ġv áº©n
Ġv Ã¨o
Ġb Ã´
Ġb Ãºng
Ġb iáº¿c
Ġb áº·m
ĠT áº£n
Ġng áº¡nh
Ġtr uyá»ĩn
Ġtr áº¡c
Ġs Ãºt
Ġg ao
Ġg ang
Ġg áº±n
ĠkhÃ ²
ĠkhÃ ¢u
Ġr Ãł
Ġr áºŃp
Ġr Ã³n
Ġr Ã©o
Ġd iá»ģu
Ġd Äĥm
Ġd á»ĳt
ĠÄĳá» ĳc
ĠcÃ³ p
ĠcÃ³ ng
ĠthÃ £i
Ġq uyá»ĩt
Ġháº Ńm
Ġqu áº¡nh
Ġx Ã©n
Ġgi Ã£
Ġgi Å©
Ġch ay
Ġchá» £p
ĠH Ã¢m
ĠH á»Ļi
ĠH uá»³nh
ĠcÃ ²ng
Ġhá» Ŀi
Ġlá» ¯
Ġlá» ıi
ĠN Ãªn
ĠTr áº¡ng
ĠC Æ°á»Ŀng
ĠC Ãºt
Ġcháº ¡c
Æ°á»Ľ m
Ġbá» £
Ġbá» į
ĠhÃ ¡ch
Ġmá» įn
ĠÄĲ au
ĠV ÃŃ
Ġsá» ¥t
Ġsá» §ng
ĠK á»¹
Tr ÃŃ
Ġngá» Ĺ
Ġngh iá»ħm
ÄĲ Ã¹ng
ÄĲ Ã³ng
Ġkh iá»ħng
... '
Ġkhá» ĳ
Ng Ãµ
ĠS á»ĳ
ĠS Ã¡ch
ĠS á»ĳng
Ġkháº Ńp
ĠTá» Ľi
ĠThá» £
ĠG Ã£
Ġrá» §i
Ġgá» Ľm
Ġxu á»ĥ
KhÃ ´i
KhÃ ¡ch
Ġbá»Ļ p
Ġchu á»Ļng
ĠX áº£o
ĠCá» Ńa
ĠChu áº©n
ĠNháº Ńt
ĠNháº Ńp
ĠkÃ© t
Ġbu Ã½t
Ġ( *
Ġto e
Ġto ang
Ġto Ã©t
Ġngo áº¡n
Ġchá»ĭ t
Ġso áº¡ng
Th Æ°á»Ŀng
Th ay
Th am
Th uá»ĳc
Ġnhi áº¿p
Ġxo áº£ng
ĠphÃ¹ n
Thá» Ń
Ġtrá»ĭ a
Tá» ±
Tá» ĭch
Há» Ń
Há» Ńm
ĠPhi áº¿t
ĠÃ įt
ĠChi áº¿u
Khi áº¿n
Ġ2 4
Gi ao
ĠVá» ±c
ĠtÃ¹ m
Chu Ã´ng
Ġ3 3
Ġ3 5
Ġ3 8
ĠR á»ĵi
ĠãĢĳ :
ĠHai z
Ġ4 6
Ġ6 4
ĠvÃŃ a
Ġbá»ĩ n
ĠSá» ©
ĠSá» Ńu
Â» .
ĠNá» Ńa
Ġhi u
ĠthÃ³ c
Äĳ áº¡i
ĠchÃ¹ i
Ãģ ch
ĠrÃº m
! ?âĢĿ
. '
2 0
B Ã¡i
C anh
D Ã¡m
D Æ°á»¡ng
G á»įi
H Ã¡n
L Ã¡
L á»Ļ
L iá»ĩu
M Ã¢y
M Ãły
M Ã³n
Q uÃ¢n
R á»
S Æ°Æ¡ng
S Ã¢n
S uá»µt
T Æ°Æ¡ng
T Ãº
T áº«n
T áºŃp
T Ã¹y
X Ãº
X uá»ĳng
X Ã©t
b á»ĳ
n á»Ļi
o áº¹t
s t
u s
· ng
Ì £
Ġ á»ĳ
Ġ Ãº
Ġ Ã¹n
Ġ fa
ĭ m
ĭ u
ļ y
Ġt Ã£
Ġt áº¡nh
Ġt Ã¡nh
Ġc Ã¢m
Ġc Æ°a
ĠÄĳ ong
ĠÄĳ Ãłng
ĠÄĳ áºµng
Ġn áº§n
Ġn Å©ng
Ġn áº¥m
Ġl Ã¬
Ġl Ã¢y
Ġl áº·t
Ġl Ã¬m
Ġl Ã¡o
Ġl áº£i
Ġl áº§y
Ġl áº©y
Ġl iáº¿ng
Ġl iÃªm
Ġl Ã¬a
Ġl Ãµi
Ġl Ãºn
Ġm áº¥p
Ġm ÃŃt
Ġm Ã¡nh
Ġv Ãª
Ġv Ã©
Ġv Ã²i
Ġv oi
Ġb ung
Ġb Æ°á»Ľm
ĠT Ãª
ĠT Äĥng
ĠT áºŃp
ĠT á»ĳc
Ġng ao
Ġng Ã´ng
Ġng Ã²
Ġng uyá»ģn
Ġs i
Ġs Æ°u
Ġs áº¡t
Ġs áºŃm
Ġg a
Ġg há»
Ġg áº£y
Ġg áº«u
Ġg Å©i
Ġg iá»ģng
Ġr ang
Ġr Ã¬nh
Ġr áº§u
Ġr Ãłnh
Ġr áº«y
Ġr ÃŃu
Ġd áº£
Ġd ai
Ġd Ã¡i
Ġd uá»ĩ
Ġtá» ıi
Ġtá» ħnh
áº¥ ng
Ġthá» ĳ
Ġcá» Ĺi
Ġcá» ©a
ĠthÃ ©
Ġqu Ã¢y
Ġqu áº¹t
Ġx áº£
Ġx Ãºi
Ġx ÃŃu
ĠnÃł nh
Ġgi Ã²
Ġch ang
ĠchÃ ¹ng
ĠchÃ ¨n
Ġchá» įi
Ġchá» ĵi
ĠH i
ĠH y
ĠH Ãłng
ĠH Ã£y
ĠL ai
ĠL Å©
ĠL Ã£nh
ĠnhÃ £o
ĠnhÃ ³n
ĠvÃł nh
Ġlá» ĭm
Ãº m
ĠN á»Ļ
ĠN Æ°á»Ľc
ĠN ay
ĠN Ãło
ĠN Ãºi
ĠTr Ãºy
Ġcháº ¡ng
Ġcháº §m
Ġcháº ¥u
Ġbá» ĩt
Ġnháº £i
Ġnháº ±n
ĠÄĲ iá»ģm
ĠV Ãł
ĠV áº¿t
Ġsá» į
Ġná» ī
ĠK á»·
Tr Æ°
Tr Ã¡nh
áº« ng
Ġdá» Ĺi
ĠB iá»ĥu
ĠNg uyá»ĩn
ĠNg Ã´n
Ġphá» Ľi
ÄĲ iá»ĩn
ÄĲ Æ¡n
ĠTh iá»ĩn
ĠTháº Ńm
Ġph o
Ġph Äĥng
Ġchi nh
Ġkhá» ©a
Ng há»ī
Ng áº©ng
ĠS Ã´ng
ĠS Ã¡u
ĠThÃ ªm
Ġkháº ¥c
Ġháº¡ m
Ġho e
ĠG áº§n
ĠG á»įi
Ġlo gi
Ġrá» ģn
Ġrá» ĭch
ĠQu áº¡
ĠQu á»³
ĠPhÃ ¢n
ĠCh Æ°
Ġá» Ľn
Ġá» «m
ĠX a
ĠX e
Ġlu á»Ļc
Ġchá»§ y
Ġtho i
ĠU áº©n
Ġmu á»Ĺi
Ġcu a
Ġbu á»Ļt
ĠchÃ¡ t
ĠÄĲá» ©a
Vá» ¥
Vá» ±c
Vá» ©t
ãĢ ĭ
ĠDá» ĭ
ÄĲá» §
Ġxá» ĭt
Lá» Ńa
Lá» Ľn
ChÃ ¡t
ChÃ łng
Thá» ©c
Há» ıi
ĠNgá» ¯
PhÃ łm
ĠNhá» ¥c
Ġ2 2
Ġ2 6
Má» ¹
ĠrÆ°á»£ i
Ġsu Ã´ng
ĠNgh iá»ĩp
ĠTu áº¿
Cho ang
ĠKho an
ĠKho áº£ng
ĠO Ã¡n
ĠlÃ² a
Chá» ©ng
Ġdá»¥ m
ĠKhi áº¿u
Pháº Ńp
Ġno m
Ġ6 0
Dá» «ng
ĠÆ ¯u
Ġ8 0
ĠthÃ³ t
ÃĢ o
Äĳ á»
Ġnho Ã¡ng
Xo áº¡t
ĠchÃ¹ m
100 0
Ġchá»Ļ t
?? ?
ĠxÃº m
ĠâĺħâĺħâĺĨ âĺĨ
rm st
Ġfa rmst
ĠngÃ² m
Ġlogi c
Ġfarmst ay
1 5
B áº§u
B Äĥng
B Ãłnh
C Ã¡
C Ãłn
C áº¡ch
C Ãºi
D áº«u
H uyá»ĩn
K Ã¬nh
K iá»ĥm
L o
L áº¡nh
L áºŃt
L áº¯c
L Å©
L Æ°á»¡i
M Æ¡
M Ãłn
M áº£nh
M Æ°á»£n
N ay
S Æ°u
S uá»ĳt
T Ãª
T á»¥c
T iá»ħn
T há»ī
T uÃ¢n
V Ã¹ng
X u
c on
e r
e t
k h
r áº¯c
t há»
t hi
t hiÃªn
t hÃłnh
Æ ¯
ï ¼
Ġ ?
Ġ Em
ĩ ch
ĭ n
á» «ng
á» ¦a
Ġt áº¡c
Ġt Ãło
Ġt Ãłnh
ĠÄĳ Æ¡
Ġn áº¡i
Ġn ao
Ġn ang
Ġn ÃŃch
Ġn Ãªu
Ġn Ã²ng
Ġn ÃŃu
Ġn áº¥ng
Ġl áº¥t
Ġl áº¯t
Ġl áº¥n
Ġl Ã¨
Ġl áºŃu
Ġl áº¡p
Ġm Ã¡c
Ġm áº©n
Ġm á»ĵn
há» ĭ
Ġv Ã´i
Ġb e
Ġb Ã´n
Ġb áº«ng
ĠT V
ĠT áºŃn
Ġng Äĥm
Ġng Ãłng
Ġng Ã³c
Ġng uá»ĩ
Ġtr ÃŃch
Ġtr áº¯m
Ġtr Ã¡p
Ġs iÃªng
Ġg áº·t
ĠkhÃ ¹ng
Ġr áº¿t
Ġr á»¥c
Ġr áº¡c
Ġr ia
Ġr á»ĳn
Ġr á»ĳng
Ġr Ã©n
Ġd á»Ļt
Ġd iÃªu
Ġh iá»ģm
Ġtá» ĥ
Ġtá» Ľ
Ġtá» ¥y
Ġthá» ĳn
Ġcá» «
ĠthÃ µng
Ġnh uyá»ħn
Ġq uyÃªn
Ġháº ¥u
Ġqu áºŃy
Ġqu áº©y
Ġx Ã´
Ġx Æ°á»£c
Ġx Ã¡n
Ġx áº±ng
Ġx Ã¨o
Ġch Æ°á»£c
Ġch Æ°ng
Ġch uyá»ģn
Ġch uá»ĳi
Ġch uá»ĳc
Ġchá» ¯ng
ĠH Ãłi
ĠH áº±ng
ĠH áº³n
ĠnhÃ ¬
ĠnhÃ £i
ĠnhÃ ¡p
Ġhá» ·
Ġhá» Ľp
Ġlá» ¯ng
Ġlá» £p
Ġlá» §i
ĠN iá»ĩm
ĠTr ai
ĠTr áº£o
ĠTr áº£m
ĠC Ã¢n
Ġcháº ¹t
ĠhÃ £
ĠhÃ ¢n
ĠhÃ ºc
ĠhÃ £o
Ġmá» Ĺ
Ġmá» Ľ
Ġnháº ½
Ġnháº ·ng
ĠÄĲ Ã³a
ĠV Ãłi
Ġnhá» «
Ġnhá» ĵi
Ġsá» ıi
ĠM u
ĠD áºŃu
Tr iá»ģu
Tr áº»
Tr áº§m
Tr Ã¹ng
Ġngá» ķn
ĠB Ãłi
ĠB áº¡n
ĠB iáº¿n
ĠNg á»ĵi
Ġphá» ¥t
ÄĲ Ã³i
ÄĲ Ã¡p
ÄĲ oáº¡n
Ã© m
Ġtrá» ģ
Ġtrá» ĭch
Ãµ ng
ĠP háº¿
ĠTh ao
... ]
... ?âĢĿ
Ġchi áº¿t
Ġkhá» ĭt
ĠsÃ¡ p
ĠS Ã¡ng
ĠS áº¯p
ĠThá» į
Ġthi Ãªng
Ch uyáº¿n
ĠGi Ãºp
Ġgá» ī
Ġgá» «ng
ĠPhÃ ¡t
Ġbá»Ļ n
ĠX ong
ĠX oáº¡t
ĠNh iá»ħm
Tháº »
Tháº §y
ĠHá» Ń
ĠHá» ıi
Ġtho a
ĠthÃŃ t
Ġto i
Ġto an
Ġngo áº¡c
ĠLá» ¡
Ġkhu Ã¢n
ĠÄĲá» §
ĠÄĲá» Ŀi
ThÃ Ńch
ÄĲá» īnh
ĠTáº¡ m
Ġxá» ı
Lá» ħ
ChÃ ªnh
Thá» ĥ
Há» ±
Há» ķ
Qu á»·
ĠhÃ¡ o
ĠÃ Ĥn
ĠÃ ļy
Gi áº¥c
Cháº ¥p
Ġkháº£ nh
ĠdÃ² m
ĠTu áº¥t
Bá» ĩnh
ĠPháº ©m
Ġngu Ã´i
Chá» £t
ĠBá» ı
Nháº ·t
Pháº ©m
Sá» Ŀ
Ġ4 0
Ġ4 5
Dá» įc
Ġnghá»ĭ t
ĠSá» ©c
Thu áºŃn
Ġláº» o
Ġká»ĩ ch
ĠKhá» ¥
ĠKhá» ķ
ĠnhÃº t
ĠBá»ĳ p
Kháº £o
Khá» ¥
âĺĨ âĺĨ
ĠâĢĶâĢĶ âĢĿ
Ãģ p
ĠKháº £o
Ho a
nháº Ńp
ĠcÃ² i
ĠghÃ¬ m
Thá»ī nh
Ġnguá»ĩ ch
) .âĢĿ
1 4
1 8
7 0
8 2
? '
? ]
A n
B u
B ÃŃ
B iáº¿n
C Ãº
C Æ°á»Ŀng
C uá»ĳn
C oi
D anh
D iá»ĩp
D áº·n
G r
G Ãµ
H i
H oÃłi
H Ãło
H Ã²a
K ÃŃ
K ia
K ÃŃnh
K Ã©o
L Ã¡t
L Æ°ng
L eng
M ai
M Ãłi
M áº¥u
M Ã¹a
N hi
R Ãło
S i
S Ã¢u
S Ã³ng
T Ã´ng
T Ãºc
T áº¿t
T Ãłng
T áº¡ch
T Ãłi
T ia
T Ãºi
T iá»ĩm
U á»ĳng
V iáº¿t
V Ã£n
X uyÃªn
X áº¿p
] ,
] ]
b iáº¿t
n hÃ¬n
r o
s á»
v á»
x i
¶ c
¹ o
½ n
Ġ Ãª
á» «
Ġt Ãły
Ġt Äĥn
Ġt Ã¢ng
Ġc á»Ļ
Ġc hiÃªn
Ġc áº³ng
Ġc áº¡m
ĠÄĳ áº§n
hÃ ¨o
Ġn Ã¡n
Ġn inja
Ġl á»ĳc
Ġl Ã©t
Ġl Ã¹a
Ġl iá»ģm
Ġm Ã¢n
Ġm iá»ģn
Ġm Äĥng
Ġm á»ĳc
Ġm Æ°á»Ľp
há» Ń
Ġv Æ¡
Ġv an
Ġv áº¯n
Ġv Ã©t
Ġv áº³ng
Ġv áº±n
Ġb á»Ł
Ġb Äĥm
ĠT ai
ĠT Ã¡i
ĠT áº¥n
ĠT iá»ĩm
ĠT iá»ģm
Ġtr inh
Ġtr á»ĵi
Ġtr iá»ģn
Ġtr á»Ļi
Ġtr Äĥn
Ġtr uÃ¢n
Ġs á»Ļt
Ġs oÃłi
Ġg háº
Ġg á»Ļt
Ġg áº¯n
Ġg Ã¡n
Ġg Ã³t
ĠkhÃ ł
Ġr áº¡
Ġr Ãºc
Ġr Ã¡n
Ġr Ã³c
Ġr áº±m
Ġd Ãłn
Ġd áº¥p
Ġd Ãºi
Ġd Ã£i
Ġd áº±n
Ġh e
Ġháº ¯ng
Ġháº µng
Ġx áº¿
Ġx uyáº¿t
Ġx á»ĳc
Ġth iá»ĥn
âĢľ ?âĢĿ
âĢĿ ãĢĳ
Ġch Ä©a
ĠH Ã´n
ĠH iá»ĩu
ĠH ÃŃt
ĠH Ã²a
ĠL u
ĠL Ã´
ĠnhÃ ²
ĠnhÃ ¡c
Ġhá» ¯ng
Ġlá» ¥i
ĠN áº±m
ĠC anh
ĠC áº¥u
ĠC háº¿
ĠC Ã¡p
Ġbá» ģnh
Ġpháº ¥p
Ġnháº ·n
Ġnháº ¥m
Ġnháº ¡n
ĠÄĲ á»Ļi
ĠÄĲ áº·c
ĠÄĲ iÃªu
ĠÄĲ á»ĳc
ĠÄĲ oÃłng
ĠÄĲ á»ĳt
ĠV áº½
ĠcÃ¡ m
ĠcÃ¡ u
Ġsá» ¡
ĠM Ã¡i
ĠM Ã³n
ĠM Ã¡u
ĠD Ã¬
ĠD Æ°á»Ŀng
ĠD Ã¡m
Ġná» ĭu
Tr a
Tr anh
Ġkhi áº¿m
Ġtu á»ĵng
ĠNg Ã¢m
Ġphá» Ĺng
ÄĲ oÃłn
ÄĲ Ãłi
ÄĲ Ãło
ÄĲ em
ÄĲ Ã³a
Ġkh a
Ġkh Äĥng
Ġkh am
ĠTh uyá»ģn
ĠsÃ¡ i
Ng hi
Ng on
ĠS i
Ġho áº¡
Ġho áº¯m
ĠTá» µ
Ġsá»ĳ c
ĠG Ã¬
Ġlo an
Ġlo Ã©
Ġlo áº£ng
Ġrá» ¥i
Ġrá» ĭn
ĠGi Ã³
Ġkho áº¯n
Ġgá» «
ĠQu áº§n
ĠPhÃ ¡c
ĠCh iá»ģu
ĠCh uyÃªn
Ġá» £
Ġá» ī
Ġxu áº©n
ĠHá» ĩ
ĠChu Ã´ng
Ġmu Ã´i
ĠY áº¿u
Ġquá» ĩ
Ġbu á»ĵng
ĠNhi Ãªu
Ġkhu a
ĠÄĲá» ĭnh
Ġnhá»Ľ p
Vá» £
Th o
Th iá»ĩu
ÄĲá» įc
Ġxo e
Ġxá» ©
Ġxá» Ľi
Lá» £i
ĠThu á»Ļc
ChÃ ł
ĠbÃŃ m
Tá» ģ
Tá» ķ
Há» «m
ĠNgá» ±a
Nhá» ¥c
Qu áº§n
Qu Ã½
PhÃ ¢n
ĠNhá» Ŀ
Gi Ã¡m
Gi Ãºp
Gi Ã¡p
Cháº ¿
Cháº Ńc
Chu áº©n
MÃł u
Ġmá»ī a
Ġghi m
ĠPháº ¡m
ĠPháº ¥n
Ġ3 2
Ġ3 9
Ġ3 00
Ġbá»ĳ p
Tu áº§n
Cá» ±c
Cá» «u
Ġngu áºŃy
Phá» ĳi
Chá» ¯
ĠBá» ķn
Ġ5 2
Nháº ¹
Ġcá»± u
Trá» įng
Ph anh
Pháº £n
ĠGiá» ¯a
Ġvá»Ŀ n
Sá» Ń
Sá» Ľm
Ġ4 3
ĠÆ ł
ĠÄĲo áº¡t
ĠSá» £
Chá»§ ng
Thu áºŃt
Ġhu Ã½t
ĠNá» Ĺ
ĠkÃª nh
Ġ15 0
Ġ0 5
Ġngháº ½n
So áº¡t
ĠChÃº t
Kháº £
Khá» Łi
---- ----
Ho an
ĠlÃµ ng
ĠÆ¯ á»Ľc
phÃ ¬
phÃ ¡p
ĠÄĳáº½ o
Ġyá»ĥ m
Ġ25 6
Lu áºŃn
th u
ĠKhang ac
!! !âĢĿ
ĠBu Ã´ng
bá»ĳ p
Ġghá» ģnh
Xu áº¥t
ĠKhangac a
% .
' ?
) !
) ?
, ...
. Â»
9 0
B Ã©
B áºŃn
C áº©n
C á»ĳt
D a
G á»
G hi
G áºŃt
G áº¡t
H ÃŃ
H áº»
H áº¥p
H Ã£y
K ÃŃch
L ang
L áº§u
L á»Ļp
M eo
M Ã¡i
M Ã¹ng
N Äĥng
N uá»ĳt
O a
O ng
Q uá»ĳc
R Æ¡i
S u
S áº¥m
T Ãł
T ÃŃ
T ai
T ung
T Ãłn
T á»ĳn
T áº¡p
T Ã²a
U y
V Ã²ng
X Ã¬
X Æ°Æ¡ng
b a
b áº¯t
b áº¡ch
b áº£o
c háº
c ao
c áº¡ch
c há»ī
n hÃ
o ong
o Ã¡n
q u
r i
r us
t á»
t iÃªn
t im
u n
u Ã´i
u á»Ļng
x oáº¹t
y Ãªu
¦ M
° c
Ä ĳi
â Ĩ
Ġ inh
Ġ áº¡t
Ġ áº©u
Ġ Ã©n
Ġ áº¿ch
Ļ ng
á» Į
Ġt iá»ģu
Ġt áº¡ch
Ġt Ã¨
Ġt ÃŃt
Ġc en
Ġc áº§y
Ġc áº©u
ĠÄĳ iáº¿c
Ġn a
Ġn áº¡nh
Ġn ia
Ġn Æ¡m
Ġn Ãºm
Ġl Ã£
Ġl áº¡ch
Ġl Ã¡n
Ġl im
Ġl áº¹
Ġl áº£ng
Ġl Ã³ng
Ġl áº£m
Ġl á»ĳm
Ġl áº¿ch
Ġm e
Ġm o
Ġm Æ¡n
Ġm Ãµ
Ġm á»ĵng
Ġm Ã¡ng
Ġm áº©u
Ġk iáº¿t
Ġv Ãº
Ġv Æ¡i
Ġv áº§y
Ġb iáº¿m
Ġb áº¹p
Ġb iáº¿u
ĠT áº¡o
ĠT áº¡ng
ĠT iáº¿c
ĠT Ã²a
Ġng Ãł
Ġng ai
Ġng Ã¡t
Ġng Æ°u
Ġtr á»ĵ
Ġtr á»ĳi
Ġtr Ã©t
Ġtr áº«m
Ġs e
Ġs anh
Ġs áº¥y
Ġs Ã¹i
Ġg Ã¢u
Ġg áº¡c
Ġg á»Ļp
ĠkhÃ ¨
Ġd Ãł
Ġd áº¿
Ġd iáº¿m
Ġd áº¡n
Ġd Ã¬m
Ġd áº¹o
ĠÄĳá» Ľp
Ġh Æ¡
Ġh ong
Ġh Æ°u
Ġh uá»ĩ
Ġtá» µ
Ġthá» Ńa
ĠlÃł u
Ġcá» Ńi
ĠthÃ Ńa
ĠthÃ ¢u
Ġnh ung
Ġnh oÃłi
Ġnh Æ°á»Ľn
Ġtháº «n
Ġqu Æ¡
Ġqu á»Ł
Ġqu áº«n
Ġqu áº¯c
Ġx i
Ġx á»Ł
Ġx oÃłng
Ġx iá»ģng
Ġth Æ°á»£t
Ġth Æ°á»Ľt
Ġvá» ©c
Ġvá» ĵng
Ġgi áº»
Ġgi Ãłn
Ġgi Ã²i
âĢĿ ?
Ġch Æ°á»Ŀng
Ġch uá»ĳt
ĠH áº¡p
ĠH Ã¨n
ĠL i
ĠL Ã¡
ĠL Ã²ng
ĠL Ãºa
ĠL uá»ĵng
ĠnhÃ ¨
ĠnhÃ ¡o
Ġhá» ĳng
Ġhá» Ńng
Ġlá» įn
ĠN Ãª
ĠTr Ã´ng
ĠTr iá»ĩt
ĠTr áº£i
ĠC á»Ļc
ĠC á»Ļng
ĠC Ã¡nh
Ġcháº £
Ġcháº £o
Ġcháº ¯t
Ġra n
Ġmá» įng
Ġmá» ¥n
ĠÄĲ Ã¢u
ĠÄĲ áº¡n
ĠÄĲ Ã³i
ĠÄĲ áº£n
ĠV áº£
ĠV Ä©
Ġsá» §i
ĠM ong
ĠM áº£nh
ĠM á»ĳi
ĠM Ã¨o
ĠM Ã¹a
Ġgiá» Ĺ
ĠâĢľ âĢ¦
ĠD áº¡o
ĠD Ã²ng
ĠD iá»ĩt
Ġná» Ľi
Ġná» Ľp
Tr áº¡ng
Ġtu á»Ļt
Ġngá» į
Ġngá» §n
ĠB Ã¬
ĠB áº§n
ĠB áº§u
ĠB áº¡o
ĠB uá»ķi
ĠNg Æ°á»£c
ĠNg Ã¢n
Ġhai z
Ġbá»ĭ ch
Ġphá» Ļng
ÄĲ áº¥t
ÄĲ Äĥng
ÄĲ oÃłng
ÄĲ á»ĳng
Ġhá»į p
ĠgÃ¬ n
ĠthÃ¬ a
Ġkh Æ°á»Ľt
ĠkhÃ¡ n
ĠTh ay
ĠTh uá»ĳc
ĠTháº »
Ġtháº¿ ch
Ġph Æ¡
Ġkhá» ģu
ĠnhÃł u
Ng Æ°
Ng Æ°ng
Ng Ã³n
Ng oan
ĠS Ä©
ĠS áº½
ĠS Ãºng
ĠThÃ ºc
ĠThÃ ¡m
ĠThÃ ¡p
Ġho i
Ġho ay
ĠTá» ĭ
Ġthi nh
Ġlo ay
Ġlo Ã©t
Ch Æ°
Ch uyá»ĥn
ĠGi an
ĠquÃ¡ nh
ĠHo áº¡t
Ġmá»Ł n
Ġá» į
Ġá» ĭch
Ġxu Ã½t
KhÃ ºc
ĠX Ã¬
ĠX Ã¡c
Tháº £
ĠHá» £i
ĠHá» Ńm
ĠCá» ¯u
ĠChÃ ªnh
ĠPh Æ°á»£c
ĠPh iá»ĩt
ĠU á»ĳng
Ġquá» ĩt
Ġngo áº¯c
Ġvi rus
ĠTrá» ĭ
ĠTi n
Th Æ°a
Th iá»ĥn
Ġvu a
ĠphÃº ng
Ġxo an
Ġxo áº¡t
ĠKh uyáº¿t
Ġxá» ĭ
Ġxá» ĩch
ĠThu áº¿
Ngh Ä©a
ChÃ ³
Thá» «a
Tá» ¥
Tá» ıa
Tá» ĭnh
ĠchÃ³ p
Há» ©
Há» Ĺn
Nhá» ı
ĠPhi áº¿n
Qu en
ĠtÃŃ a
ĠÃ Ļ
PhÃ Ń
PhÃ ¡o
ĠNhá» ¯
ĠChi áº¿c
Ġ2 9
ĠhÃ² e
ĠhÃ² i
ĠÃĶ i
Gi an
Gi áº¥y
Gi áº¥u
Cháº £
Cháº ¡ng
ĠMá» Ĺ
Ġnu Ã´ng
Ġo i
Ġo áº¯t
Ġcá»¥ m
ĠPháº Ńp
ĠnghÃ Ńa
Ġ3 4
Ná» Ĺi
Nh iá»ĩt
Nh iá»ħm
ĠR áº§m
Thi áº¿p
Phá» ĳ
ĠlÃ² i
Chá» įn
Ġbá»Ŀ m
ĠBá» Ĺng
ĠBá» Ľt
Ġ5 1
Ġ5 4
Ġ5 6
Ġ5 7
Ġ5 50
ĠKhi áº¿t
Nháº ¯m
Ġu áº¿
Ġvá»ı n
Ph iá»ģn
NhÃ ¡y
Ġnhu áº§n
Ġ4 1
Ġ4 2
Ġ4 8
Ġ4 9
Ġtá»§ i
Ngá» ±c
Ngá» ¥y
Ngá» Ńi
Â» ,
Ġxáº» ng
ĠthÃ³ p
Ha ha
Bá»Ļ p
Xo ay
Ġkáº½ o
ĠChÃº a
Khá» ĳng
Ãģ o
ĠlÃª nh
ĠKháº ©u
ĠXu áº¥t
khÃ Ń
Ġchá»Ļ i
?? ?âĢĿ
Ġnáº» o
ĠhÃ¹ m
oo oo
áº¢ o
bá» ĭch
chÃ Ńnh
Rá» Ńa
ï¼ Ł
ĠhÃ£ nh
sá» ±
xi t
Ġgháº ¹o
Háº» m
Su Ã½t
tim et
âĨ ĳ
Ġcen timet
! ]
! ãĢĳ
! âĢĻ
% .âĢĿ
) âĢĿ
- ,
1 3
2 5
8 0
8 6
B Ã¡
B iá»ĩn
B Ã£o
B Ãłi
B Æ°u
B áº§y
B Ã¹a
C á»Ļt
C Æ°á»Ŀi
C Ã¢m
C áº¯n
C á»¥c
C áº¯m
C áº©u
D ao
D iá»ĩu
D iá»ħn
D áºŃy
D Ã¡ng
G Ã¢u
G Ã¡c
H Æ°
H Ãª
H Ã¬
H Æ°Æ¡ng
H ung
H Ãłi
H á»ĵn
I m
K á»µ
L a
L y
L an
L Ã¢n
L iá»ģn
L Ä©nh
L áº·ng
L Æ°á»£t
L áº©m
L Ã¹i
M á»ĵ
M Ã´ng
M en
M Ã³ng
M iá»ĩng
N hiÃªn
N Ãºi
N iá»ģm
N áº¿m
O an
R Äĥng
R Ãºt
R á»ĳng
S á»Ļt
S iÃªu
S Ãºng
T iá»ĩn
T Ã¡t
T Äĥng
T Ã¡c
T áºŃn
T áº·ng
T Ã³c
T Ã³m
V e
V i
V áº£
V áº½
V ung
V en
V Ã¨o
X Ãło
X Ã¡ch
X áº£y
b Ãł
b Ãłn
c k
c hi
c Ã´ng
c Ã¢u
c á»ĳt
e l
g iá»
h uyáº¿t
h eng
k g
k Ã©t
l o
l Ãªn
m Æ°á»Ŀi
m á»Ł
m áº¥t
m Ãłi
m á»Ŀi
n á»
n há»ĭ
o a
o l
p háº
r a
r am
s Æ°
t an
t iáº¿p
t er
v Ã´
x u
£ ng
¨ ng
» m
Ã Ļ
Ġ !
Ġ f
Ġ Ã³
Ġ .âĢĿ
Ġ Ã´i
Ġ Ã³t
Ġ ???
ī m
ĵ m
Ķ n
Ŀ n
á» Ń
á» Ĺng
á» °c
áº ¨n
áº ¶c
áº ¦M
ng Ãły
Ġt ong
Ġt Ã¡p
Ġt Æ°Æ¡m
Ġc m
Ġc á»Ļm
ĠÄĳ Å©ng
ĠÄĳ oÃłng
ĠÄĳ áº£n
ĠÄĳ áº«y
Ġn i
Ġn ai
Ġn Ã¡i
Ġn Ãªm
Ġn Ãºng
Ġl á»ĳ
Ġl Ã¬nh
Ġl Æ¡i
Ġl áº£nh
Ġm uá»ĳt
há» ģ
há» ĩ
há» įc
há» ıa
Ġk en
Ġk Ã¨
Ġk iá»ħng
nh iÃªn
Ġv áº¡
Ġv Ã¡o
Ġv áº¥p
Ġv áº£ng
Ġv iáº¿ng
Ġv Ã£nh
Ġv oan
Ġb ÃŃch
Ġb Äĥn
Ġb Ä©nh
Ġb Æ°á»Ľng
Ġb Æ¡m
Ġb Æ°Æ¡m
Ġb Ãºn
ĠT áº¯m
ĠT áº¥m
ĠT Ã³m
Ġng áº¡ch
Ġng Ã¡n
Ġtr Æ°
Ġtr á»ĳ
Ġtr Å©ng
Ġtr Ã¹
Ġtr Æ¡i
Ġtr áº±n
Ġs á»Ļ
Ġs Ã¬
Ġs Ã´
Ġs Ãłi
Ġs Æ°á»£t
Ġs Ãµng
Ġs heng
Ġg Ã´ng
Ġg Ãłi
Ġg Ã²n
Ġg uá»Ļc
Ġg ram
ĠkhÃ łng
Ġp ro
Ġr áº§n
Ġr á»ĵ
Ġr uá»ĳc
Ġr Ã¡y
Ġd ÃŃ
Ġd áº·t
Ġd Æ°á»£ng
Ġd iáº¿c
Ġd áºŃm
Ġd áº¹t
ĠÄĳá» ħnh
Ġh anh
Ġh oÃł
Ġh Ä©nh
Ġthá» ¯ng
Ġcá» ±a
Ġcá» įt
ĠthÃ ²ng
Ġnh em
Ġháº «ng
Ġháº ¥n
Ġqu Ã¨
Ġx Ã³
Ġx Ãłi
Ġx á»ĵm
Ġth Æ°á»Ŀn
ĠnÃł i
Ġgi Å©a
Ġch ong
ĠchÃ łm
ĠH u
ĠH Ãª
ĠH áº¡i
ĠH Ã¬
ĠH áº¿t
ĠH áº¡nh
ĠH á»Ļc
ĠH iá»ĩp
ĠH Ã£n
ĠL Ãªn
ĠL oÃłi
ĠnhÃ ¡
ĠnhÃ ¡i
Ġhá» ©c
Ġlá» ¥t
Ġlá» §ng
ĠN áº¡n
ĠN Ã¢ng
ĠTr áº£
ĠTr ÃŃ
ĠTr uyá»ĩn
ĠTr áº»
ĠTr Ã¡ng
ĠTr Ã¡nh
ĠC áº¥t
ĠC an
ĠC Æ°á»Ľc
ĠC Æ¡n
ĠC á»¥c
ĠC áº©m
Ġbá» ¥c
Ġbá» §n
Ġbá» ıi
Ġbá» £m
Ġpháº ¿t
ĠhÃ ¡ng
ĠhÃ ¢u
an el
Ġmá» §
Ġnháº ¡i
Ġnháº »m
ĠÄĲ áº·t
ĠÄĲ Ã¡n
ĠÄĲ á»ķi
ĠÄĲ Ã¹ng
ĠÄĲ áº¡t
ĠÄĲ Ã³ng
ĠÄĲ Ã¨n
ĠV iáº¿t
ĠV Ã²ng
ĠV iÃªm
Ġnhá» ħ
Ġnhá» į
Ġnhá» ¥t
Ġnhá» ±a
Ġnhá» īnh
Ġnhá» ¥i
Ġsá» ±c
Ġsá» ©t
Ġsá» ĩt
ĠM áº¯t
ĠâĢľ ?âĢĿ
ĠâĢľ ???âĢĿ
ĠD Ã¢n
ĠK ÃŃch
Tr Äĥm
Tr Äĥng
Tr á»ĳn
Ġdá» ģ
Ġngá» Ľ
Ġngh iá»ĩn
ĠB ao
ĠB Æ°á»Ľc
ĠB á»ĵng
ĠB Ãłnh
ĠB áº£y
ĠNg uy
ĠNg ao
ĠNg áºŃm
ĠNg Ã²i
Ġphá» Ľt
ĠÄĳÃ¡ c
ÄĲ Ã¬nh
ÄĲ Ã¢u
ÄĲ Ãłn
ÄĲ áº¯c
ÄĲ Ã¨
ÄĲ Ã©t
ÄĲ áº£o
ÄĲ Ã¨n
ÄĲ á»ĳt
ÄĲ áº¹p
ÄĲ Ã¹a
ÄĲ Ã¡y
ÄĲ áº³ng
Ġtrá» įi
Ġtrá» Ĺi
ĠTh a
ĠTh uyáº¿t
ĠTh iá»ĩt
ĠÃ¡ ng
ĠchÃŃ ch
Ġthu i
Ġthu á»ĵng
Ġká» īnh
Ġph iá»ĩt
Ġph Æ°á»Ľn
... ,
Ġchi Ãªm
Ġkhá» ıa
Ġkhá» ©u
Ng Ã³
Ng á»Ļ
Ng uy
Ng áº¯n
Ng Ã´i
ĠS ÃŃ
ĠS Æ°u
ĠS am
ĠS uá»µt
ĠThÃ ¡c
ĠThÃ Ńch
Ġho áº£
ĠTá» ĥ
Ġgiáº£ o
ĠThá» ĩ
Ġthi n
ĠKhÃ ł
Ġlo m
Ġlo anh
Ġrá» į
Ch iá»ģu
ĠQ uyá»ĥn
Ġkho áº»
Ġkho Äĥn
ĠQu Ãªn
ĠQu ay
ĠQu áº»
ĠQu Ã¡ng
ĠQu Ã¡ch
ĠPhÃ ³ng
ĠCh uyáº¿n
ĠCh anel
Ġá» ±c
Ġá» įt
Ġá» ¨ng
KhÃ ¡m
Ġváº» n
ĠX Ã©t
ĠX uyáº¿n
ĠNh Ä©
Tháº ³ng
ĠHá» Ĺ
ĠCá» Ń
ĠCá» §ng
ĠCá» §a
ĠChÃ ło
Ġtho Äĥn
ĠU Ã½
Ġmu n
Ġmu á»Ĺng
ĠHÃł m
Ġquá» µ
Ġto áº£
Ġlá»Ļ p
ĠchÃ¡ c
Ġngo i
Ġngo áº·t
Ġngo áº¡m
ĠLá» ±a
ĠLá» Ľp
ĠLá» Ľn
ĠTrá» ±c
Ġkhu Ã¢y
Ġkhu áº©n
ĠthÃº t
Ġso Ã³c
Ġso fa
Th Äĥm
Ġnhi áº¿c
ThÃ ¹ng
ĠDá» ©t
ĠDá» ±ng
ÄĲá» ģ
ÄĲá» Ĺ
Ġnghá» ħ
ĠcÃº p
Ġmáº¹ o
ĠÄĳu a
ĠThu áº«n
on a
on e
ChÃ ¡o
Tá» §
Há» ıng
ĠNgá» §
ĠNgá» ¥y
Qu Ã¡n
ĠÃ Ĥ
PhÃ ¨n
Má» ĩnh
Má» ĩt
Má» īm
Cháº ¥t
Cháº Ńm
ĠphÃŃ ch
Giá» ¯
Giá» ıi
ĠMá» ĭ
Ġsu Ã´n
Ġsu ona
ĠNgh iá»ħn
ĠthÃ¹ y
Bá» ¥ng
ĠKho Ã¡ng
ĠKho áº£n
ĠPhá» ĳi
ĠPhá» ĳc
Ġha ck
ĠlÃ³ a
ĠCháº £
ĠCháº ¡y
ĠCháº Ńm
ĠCháº ¡p
uá» ·
ĠPháº £n
ĠnghÃ ©
ĠnghÃ ©n
Ġ3 7
Cá» ±
Cá» ©u
Cá» §a
Nh uyá»ħn
ĠR á»Ŀi
ĠR á»«ng
Phá» ıng
Chá» ĳc
Chá» ĵng
ĠghÃ ©m
ĠxÃ© m
ĠBá» ģ
ĠBá» ©c
ĠBá» ¯a
ĠBá» ĭch
ĠBá» ¥ng
Ġ5 3
Ġ5 5
Ġ5 8
ĠKhi nh
Nháº £
Nháº Ńm
Ġu áº©n
Ph Æ°á»Ŀng
Ġ7 1
Ġ7 5
Kho anh
Kho Ã¡ng
Ġ4 4
Ġ4 7
Ġ6 7
?! '
âĢĿ. ãĢĳ
Ġnghá»ĭ u
Chi m
Ngá» ±a
Ġ9 9
Ġhá»« m
Ġ16 0
Äĳ Æ°á»£c
ĠKhá» ķng
ĠKhá» ĳn
Ġ19 6
ChÃº t
ĠnhÃº m
KhÃ³ i
Kháº ¯p
Kháº ©u
Ãģ i
ĠKháº ¯c
ĠÃĢ i
Ġa xit
phÃ łm
Ġcá»į p
Ġhá»Ŀ n
Vu i
Mu á»Ļi
ĠphÃ¬ nh
.... ..
Lu i
Lu Ã´n
ĠãĢ ĭ
ĠKhu Ã´n
áº¢ i
ĠBu á»ĵn
phá» ¥
phá» ĭch
ĠvÃª nh
ãĢĭ ,
Äĳá» ĭa
Lo áº£ng
thi áº¿t
Æ¯ á»Ľc
ĠMu a
ĠMu á»Ļi
Bu á»ĵn
Gr á»«
Nhi áº¿p
ĠLu áºŃn
Tho Ã¡ng
thu áºŃt
ĠlÃ£ m
% )]
' âĢĿ
' !âĢĿ
* ,
+ '
+ âĢĿ
+ )]
- .
. )
/ +)]
1 2
1 7
1 10
3 2
3 5
4 0
4 6
5 00
8 3
8 4
: ]
B áº¿
B áº¿n
B ang
B á»ĵi
B áº»
B Ãły
B áº¯c
B áº¡c
B Ã¨
B á»ĳi
B Ã¬a
B oong
C Æ°Æ¡ng
C Æ°á»£c
C áº¥t
C áº¯t
C Ã¢n
C Ã¡o
C áº·p
C á»Łi
C Æ°á»Ľp
C á»Ļp
C uá»ĵng
C oong
D áº¥u
G Ãło
H e
H Ã¡t
H Æ°ng
H áºŃn
H áº¡t
H áº§y
H áº£o
H á»ĳng
H uyá»ħn
I P
K Ã©m
L Æ°
L ai
L au
L iá»ģu
L Ã¡i
L Æ°á»£ng
L oÃłi
L ÃŃnh
L á»ĵng
L Ã¡o
L á»ĳi
L Ã¡ch
L Ã£ng
L Ã£nh
M Ã¡
M anh
M Ã¹
M Ã¢u
M áº»
M Ã´i
M áº§m
M iá»ħn
M Ã¡ch
M iáº¿u
N Æ°Æ¡ng
N Ã´n
N áº·ng
N Ã³ng
N áº¡p
N Ã¢ng
N uÃ´i
P hiÃªn
Q uyáº¿t
R Æ°á»£
R Ã¢u
R á»ĵng
R áº£nh
R Ã¬u
R uá»Ļng
S Ãłn
S Ã²ng
S áº£ng
S áº£n
T o
T ao
T áº¯t
T áº¡o
T Ã¡n
T Ã²ng
T á»Ļi
T áº·c
T Æ°á»£ng
T iá»ĩc
T á»ĵn
T ÃŃn
V áº¥t
V ay
V á»Ļi
V Ä©nh
V áº£i
V Æ°á»£t
X Ã´ng
X iá»ĥn
X á»Ń
Y áº¿u
a l
a t
b áº¥t
b Ã¬nh
b á»ĵi
b Ã¡i
c Ã¡
c Æ°Æ¡ng
c Ã¡i
c á»Ļc
d e
d Ã¬
d Æ°á»£c
e in
g iáº¿t
g á»įi
i l
i Ãª
k há»
k áº¿
k hi
k áº»
k iáº¿m
k iá»ĥm
k ÃŃnh
k á»¹
k áº½o
l u
l á»
l Ãł
l inh
l Ã£o
m u
m Ã£n
n Äĥm
n Ãłng
n áº¥m
o r
o áº£nh
o áº£ng
o áº£n
p hi
r áº¥t
r ay
s e
s Ã¡u
t a
t Ãł
t inh
t Ã¢m
t iá»ĥu
t iá»ģn
t Ãłi
t am
t Ã¬m
t iá»ħn
t Ã¡ch
t ein
u Ã´ng
u á»ĵn
v iÃªn
v Ãµ
v áºŃt
v iá»ĩc
v áº¡n
x em
³ c
· c
¹ p
º n
º ·
¾ ch
Â ¹
Ã ģm
Ì ĥ
ç »
ç º·
é Ľ
Ġ ,
Ġ Ã¢
Ġ ÃŃ
Ġ á»Ļc
Ġ áºŃm
Ġ âĢ¦âĢĿ
Ġ Ã©o
Ġ Æ°Æ¡m
ī a
į ch
Ĳ i
á» ¤
á» Ĺ
á» ľ
á» «m
á» Ķn
á» Ĳi
ng á»
Ġt á»Ļ
Ġt uyá»ģn
Ġt áº¡t
Ġt Ãºp
Ġt uá»ĳt
Ġt Ã³p
Ġc á»Ļi
Ġc áº¡c
Ġc áº¡p
ĠÄĳ Ä©
ĠÄĳ am
ĠÄĳ Ã©t
ĠÄĳ iáº¿ng
ĠÄĳ Ã´m
Ġn Ã¡
Ġn Ãºc
Ġn Ã´i
Ġn iÃªu
Ġn áº¡ng
Ġn áº¥c
Ġn oi
Ġn áº¡m
Ġl Ãº
Ġl áº©n
Ġl iá»ĩm
Ġl áº¡t
Ġl em
Ġl Ã©p
Ġm ao
Ġm iáº¿t
Ġm iá»ĥu
Ġm Ã£o
Ġm áº¯m
Ġm Ãºp
Ġm áº©m
háº ¹n
há» «
há» ķ
há» Ļ
há» ĭch
há» ¯u
Ġk y
Ġk ÃŃt
Ġk Ã¨o
nh Æ°
Ġv áº¿
Ġv áº§n
Ġv Æ°á»£c
Ġv Æ°á»Łng
Ġv Ã³t
Ġb Æ¡
Ġb ai
Ġb anh
Ġb áº¥u
Ġb Ã¨o
Ġb on
Ġb lo
ĠT Æ°Æ¡
ĠT ao
ĠT Ã¹
ĠT Ã¡o
ĠT áº·ng
ĠT Ã¡ch
ĠT áº£o
ĠT áº©u
ĠT oÃ¡n
Ġng áº¥y
Ġng áº¥n
Ġng á»ĳn
Ġng áº¡n
Ġng áº¥p
Ġng Ã¡ch
Ġng Ã¹n
Ġng Ãºm
Ġtr Ä©
Ġtr Ã¡t
Ġtr áºŃp
Ġtr iÃªu
Ġtr uá»ĵng
Ġs Ã¹
Ġs á»ĵi
Ġs áº¡c
Ġs ÃŃnh
Ġs áº£o
Ġs áº¡m
Ġg á»ĵ
Ġg á»Ļi
Ġg Æ°Æ¡m
ĠkhÃ Ńa
ĠkhÃ ²m
Ġr Ã¬
Ġr inh
Ġr áº¯t
Ġr Ä©
Ġr Äĥm
Ġr Æ°ng
Ġr áºŃn
Ġr áº¡n
Ġr áº¯p
Ġr áº£o
Ġr Æ°á»£t
Ġr Æ°á»Ŀm
Ġr Æ°á»Ľn
Ġd ay
Ġd Ã´ng
Ġd Ã¡t
Ġd áº¡c
Ġd iá»ĩp
Ġd áº¥m
Ġd iá»ħu
Ġd Ãµng
ĠÄĳá» į
Ġh Æ°á»Ľc
Ġh uÃ¢n
Ġh uá»
ĠcÃ³ t
Ġcá» ¥ng
Ġcá» ĵm
Ġnh Ä©
Ġnh en
Ġnh Æ°á»¡ng
Ġq uyá»ĩn
Ġtháº ¡c
Ġtháº ¯m
Ġháº ±m
Ġqu áº¯t
Ġqu áº¡c
Ġqu áº«y
Ġqu áº³ng
Ġqu áº¹o
Ġx Æ°á»Ľc
Ġx oÃł
Ġx Ã¡p
Ġx uyáº¿n
Ġx iÃªm
Ġx áº¿ch
Ġth Æ¡i
ch Æ¡i
ch uÃ´ng
âĢľ '
âĢľ âĢ¦
âĢľ âĢ¦âĢĿ
Ġgi un
âĢĿ :
Ġch an
ĠchÃ ¢y
Ġchá» ĩch
ĠH Ã´
ĠH ang
ĠH Ã¢y
ĠH Æ¡i
ĠH Ã¡i
ĠH Å©
ĠH iáº¿n
ĠH áº¥p
ĠH á»ĳi
ĠH áº£o
ĠH á»ĳng
ĠL Æ°ng
ĠL á»Ļi
ĠL am
ĠL iá»ĩp
ĠL Æ°á»Ľi
ĠL á»Ļng
ĠL áº¡p
ĠL eng
ĠcÃ ²m
ĠnhÃ ¡m
ĠnhÃ ¢m
Ġhá» £t
Ġhá» Ľt
ĠphÃ ²
ĠphÃ ¹ng
ĠphÃ Ńm
Ġlá» ģnh
ĠN Ã£
ĠN áº¯m
ĠN áº·ng
ĠN Ã£i
ĠTr u
ĠTr iá»ĩn
ĠTr Ä©
ĠTr Ã¢n
ĠTr Ã²
ĠTr áº§m
ĠTr á»ĳn
ĠTr Æ°á»Ľng
ĠTr uÃ¢n
ĠTr á»Ļm
ĠC Æ°
ĠC Æ°á»Ŀi
ĠC áº¯t
ĠC áº£ng
ĠC Ãłnh
Ġthá»ĥ u
Ġbá» ±
Ġbá» ¥a
Ġbá» §a
Ġpháº ¯c
ĠhÃ ¡m
Ã½ ch
Ġmá» įt
Ġnháº ¡nh
ĠÄĲ ÃŃch
ĠÄĲ oÃłn
ĠÄĲ á»Ļn
ĠV o
ĠV Ã¹
ĠV Æ°u
ĠV IP
Ġnhá» Ń
Ġnhá» ¥y
Ġnhá» ĳn
ĠÄĳi Ãª
Ġsá» ¥a
Ġsá» ĭt
ĠM Ã¡
ĠM Æ¡
ĠM anh
ĠM Ã²
ĠM iá»ĥu
ĠM Æ°a
ĠM Ãłn
ĠM ÃŃnh
ĠM áº¥u
ĠM iá»ĩng
ĠM Ã£n
ĠM or
ĠâĢľ '
ĠâĢľ âĢ¦âĢĿ
ĠâĢľ +âĢĿ
ĠD a
ĠD áº¯t
ĠD Ã¢m
ĠD Æ°a
ĠD áºŃy
ĠD Ã¡ng
Ġná» ĭch
Ġná» įc
ĠK iá»ĥm
ĠK iÃªu
ĠK á»ĩ
ĠK á»ĥ
ĠK iÃª
ĠÄĳÃ³ m
Tr i
Tr Æ°a
Tr eo
Tr á»¥c
Tr á»ĵng
Tr Ã³i
Tr áº£m
Tr á»Ļm
Ġcho ai
Ġdá» Ŀn
Ġngá» ı
Ġngá» ¥t
Ġngá» įng
ĠB áº¿n
ĠB iá»ĩn
ĠB áº¡c
ĠB Ã³ng
ĠB Ã¹a
ĠB Ã¹n
ĠNg Ãłn
ĠNg Ã´i
ĠNg há»ī
ĠNg á»ĳc
ĠNg áº©ng
ĠNg há»ĭ
ĠNg hÃ¨o
ĠNg há»ģ
Ġbá»ĭ u
Ġphá» Ľ
Ġphá» Ŀ
Ġphá» «ng
Ġphá» īnh
Ġphá» ħu
ĠÄĳÃ¡ i
ÄĲ Ã¡
ÄĲ áº¿
ÄĲ áº£
ÄĲ eo
ÄĲ áºŃp
ÄĲ áº§m
ÄĲ áº¡t
ÄĲ á»ĳc
ÄĲ Ã³n
ÄĲ uá»ķi
ÄĲ oÃ¡n
Ġtrá» Ľ
ĠÄĳá»ģ m
Ġkh uyá»ĥn
Ġkh uyáº¿n
ĠkhÃ¡ nh
ĠTh Æ¡
ĠTh Äĥm
ĠTh Æ°a
ĠTh Äĥng
ĠTh Æ¡m
Ġká» ģm
áº» n
áº» o
ĠkhÃŃ t
Ġy Ãªm
Ġph au
... !
... ãĢĳ
Ġkhá» Ŀ
Ng ao
Ng Æ°á»Ľc
Ng Ãłn
Ng hÃ¨o
Ng háº¹n
ĠS ang
ĠS ai
ĠS ay
ĠS Ãºc
ĠS Ã¢u
ĠS áº§m
ĠS Ã¡o
ĠS Ã³ng
ĠS Æ°á»Ľng
ĠS Ã³c
ĠThÃ ¢
Ġkháº ¥t
Ġkháº ¥p
Ġkháº ¥n
Ġkháº ¯t
Ġho t
Ġho áº±ng
Ġho Ã¨
Ġho rm
ĠTá» ¥ng
ĠTá» ķn
Ġba ri
ĠThá» ı
ĠThá» ©u
ĠG áº¡t
ĠG Ã£i
ĠKhÃ ´
ĠKhÃ ¡ng
ĠKhÃ ¡c
ĠKhÃ ©o
Ġlo áº¹t
Ġrá» £
Ġrá» §n
Ġrá» £p
Ġrá» Ńng
Ch Äĥm
Ġquáº£ i
ĠGi Ãł
ĠkhÃ³ m
ĠquÃ¡ ch
Ġkho áº¯t
Ġkho Ã©t
Ġgá» ıng
ĠQu áº·ng
ĠPhÃ ¡o
ĠCh Æ°Æ¡
ĠCh Æ¡i
ĠCh Äĥn
Ġá» ©
Ġá» Į
Ġá» Ľ
Ġá» «ng
Ġá» įc
Ġá» ©a
Ġá» ¦a
ĠA m
KhÃ ¡
KhÃ ¡n
Ġthá»§ i
ĠX Ãº
ĠX Æ°a
ĠX Ã¡n
ĠX Æ°á»Łng
ĠX oáº¹t
ĠNh Æ°Æ¡
ĠNh iá»ĩt
Tháº ¥p
Ġdo áº¡
ĠHá» §y
ĠHá» įa
ĠHá» «m
ĠChÃ ł
ĠChÃ ©m
ĠChÃ Ńn
ĠChÃ łng
ĠÄĳo m
ĠÄĳo Ã¡i
Ġmu á»ĵi
Ġmu Ã´ng
ĠNháº ¹
ĠNháº ¯c
ĠÄĳá»§ i
ĠkÃ© p
ĠY á»ĥn
ĠY á»ĥ
ĠhÃ³ i
ĠhÃ³ p
Ġquá» µt
Ġcu á»Ļi
Ġto a
Ġto áº¡
Ġto Ã¡c
Ġnháº¹ p
Ġngo a
Ġngo Ã¡c
Ġngo áº±ng
Ġngo Ã¨o
Ġngo áº¹o
Ġngo áº±n
ĠLá» Ĺ
ĠLá» ©c
ĠLá» «a
ĠLá» Ĺi
Ġcháº¿ ch
ĠTrá» ¥y
ĠTrá» §ng
ĠmÃ¹ n
Ġkhu á»µ
ĠÄĲá» ķ
ĠÄĲá» ĩt
ĠbÃł u
ĠbÃł nh
Vá» ĩ
Vá» Ĺ
Th ai
Th uyáº¿t
ThÃ ¹
ThÃ Ńnh
ThÃ ¡n
Ġvu n
ĠDá» «ng
ĠDá» įc
Ġru á»ĵng
ĠnÃ© p
ÄĲá» ©c
ÄĲá» ĭnh
Ġxo Ã¡
Ġxo ong
ĠKh en
ĠKh uyá»ĥn
Ġxá» īnh
Lá» ¡
Lá» Ľp
Lá» ģu
ĠThu a
ĠThu Ãª
ChÃ Ńp
ChÃ ¡n
Thá» £
Thá» ı
Thá» ķ
Thá» ķi
Tá» ³
Tá» ¥ng
Tá» īnh
Ġhá»ģ u
Há» §y
ĠNgá» «ng
ĠNgá» įn
Qu e
Qu Ãªn
Qu ang
Qu áº»
ĠCÆ¡ m
ĠÃ Ĵ
ĠÃ įch
PhÃ ³ng
ĠChi m
ĠChi Ãªu
ĠChi áº¿t
ĠChi Ãªm
ĠChi áº¿p
Khi nh
Gi Ãł
Gi Æ¡
Gi áº£ng
Gi Ã£y
ĠVá» £
Má» ĭ
Má» «ng
Cháº ©m
Cháº ¥n
Ġtháº£ nh
ĠMá» ħ
ĠMá» ĩt
Ġsu m
Ġsu Ãª
Ġlá»ĵ m
ĠNgh iá»ĩm
Ġáº ¶c
Bá» ģ
Bá» ķ
Bá» Ŀ
Bá» ¥p
Bá» įt
Ġxá»Ń ng
ĠKho áº£nh
Ġtá»¥ m
Ġ' +'
ĠcÅ© i
ĠThi áº¿p
ĠCháº ·n
ĠCháº Ńc
Ġkáº¿ ch
ĠPháº Ńn
Ná» ģn
Cá» Ń
Cá» ķng
Nh am
ĠR Äĥng
Thi áº¿n
Ġngu áº©y
Kh ai
Kh ung
Kh uyáº¿t
âĢĶ !
Chá» £
Chá» ©
Chá» ©c
Chá» ¯a
Chá» «ng
âĢĻ ?
âĢĻ .âĢĿ
ĠbÃ¹ m
ĠBá» ĭa
Ġ5 9
ĠKhi Ãªu
Nháº £y
Nháº «n
ĠHuy Ãª
á»ª a
âĢľ. ãĢĳ
Trá» įn
Ġ10 5
Ġáº¢ o
Pháº ¡m
Pháº £ng
ĠSan tan
NhÃ ³m
NhÃ ³c
Ġ7 2
Ġ7 3
Ġ7 4
Ġ7 6
Ġ7 7
Ġ7 8
Kho ang
Kho Ã©
Gia m
Ġ6 1
Ġ6 2
Ġ6 3
Ġ6 5
Ġ6 6
Ġ6 8
Ġ6 9
ĠNgÃµ a
Ġáº¤ y
Dá» ±
Dá» ħ
Dá» ĭ
Dá» įa
ĠÆ ¯m
âĢĶâĢĶ âĢĿ
Ġ12 0
Ġ12 7
Ġ12 70
ĠSá» Ľm
Ġ8 4
Ġ8 50
Chi a
Chi áº¿m
Ngá» ¯
Ngá» ±
Â» !
Ġtá»ī a
Thu áº¿
Ġhu Æ¡
Ġhu Ã½ch
Ġ9 0
Ġ9 8
ĠÃģ c
ĠÃģ o
Ġchá»Ł m
ĠNá» ĥ
Ġ18 0
ĠchÃł i
ÃĢ i
Äĳ áº¡o
Äĳ áº¯c
Äĳ áº·c
Äĳ á»ĵng
Ġnho áº»n
ĠChá» ©
ĠChá» įn
ĠChá» ĭu
ĠchÃ¹ y
Ġxá»ī a
Ġxá»ī n
Kháº £i
Kháº ³ng
Khá» ķ
Khá» ĳi
Khá» ©u
Ġvá»Ł n
ĠKháº ©n
---- --
ĠÂ» .
ĠÃĢ o
Khu áº¥t
ĠÄĳá»ĳ p
phÃ ³ng
phÃ ¡i
phÃ ºc
Ġâĺħ âĺĨâĺĨ
gi Ã¡
gi Ã³
gi áº¥u
Ġlá»Ł m
Ġlá»Ł n
tr uyá»ģn
Ġdáº» o
Mu á»Ļn
ĠcÃł u
ĠKhÃ³ c
áº¤ n
áº¤ t
Ġnháº£ u
Lu áºŃt
th anh
Ġná»ĩ m
ĠKhu Ã´ng
ĠKhu áº©n
tháº ¥t
tháº §y
ĠhÃ¹ a
áº¢ nh
Ġ21 7
bá» ĭ
cá» ķ
cá» Ńu
chÃ ¢n
ĠE o
Ġ46 0
Ġ46 00
20 1
us e
Ġga s
Ġghá» ģ
ĠQuá»³ nh
kh oáº£ng
ĠhÃ£ ng
Ġnháº½ o
14 0
18 0
Bu Ã´ng
Gr Ãło
ĠnhÃ² a
ĠnhÃ² e
Nghi Ãªm
Ġ43 4
Gá» £n
TÃł u
cháº ¿t
nhÃ ł
nhÃ ¢n
qu áº§n
ri c
á»Į c
ĠmÃµ m
Ġá»į e
Ġá»į p
Haha ha
chi m
ná» ¯
pháº §n
Ġf il
Ġpro tein
ĠÃĤ u
uá»· u
35 2
RÆ°á»£ u
khi áº¿u
lÃł m
mu a
Ġblo use
Ġhuá» ģ
ĠxoÃł m
ĠMor se
Ġhorm one
ĠYá»ĥ m
Ġkhuá»µ u
ĠSantan a
