{"<|endoftext|>":0,"!":1,"\"":2,"#":3,"$":4,"%":5,"&":6,"'":7,"(":8,")":9,"*":10,"+":11,",":12,"-":13,".":14,"/":15,"0":16,"1":17,"2":18,"3":19,"4":20,"5":21,"6":22,"7":23,"8":24,"9":25,":":26,";":27,"<":28,"=":29,">":30,"?":31,"@":32,"A":33,"B":34,"C":35,"D":36,"E":37,"F":38,"G":39,"H":40,"I":41,"J":42,"K":43,"L":44,"M":45,"N":46,"O":47,"P":48,"Q":49,"R":50,"S":51,"T":52,"U":53,"V":54,"W":55,"X":56,"Y":57,"Z":58,"[":59,"\\":60,"]":61,"^":62,"_":63,"`":64,"a":65,"b":66,"c":67,"d":68,"e":69,"f":70,"g":71,"h":72,"i":73,"j":74,"k":75,"l":76,"m":77,"n":78,"o":79,"p":80,"q":81,"r":82,"s":83,"t":84,"u":85,"v":86,"w":87,"x":88,"y":89,"z":90,"{":91,"|":92,"}":93,"~":94,"¡":95,"¢":96,"£":97,"¤":98,"¥":99,"¦":100,"§":101,"¨":102,"©":103,"ª":104,"«":105,"¬":106,"®":107,"¯":108,"°":109,"±":110,"²":111,"³":112,"´":113,"µ":114,"¶":115,"·":116,"¸":117,"¹":118,"º":119,"»":120,"¼":121,"½":122,"¾":123,"¿":124,"À":125,"Á":126,"Â":127,"Ã":128,"Ä":129,"Å":130,"Æ":131,"Ç":132,"È":133,"É":134,"Ê":135,"Ë":136,"Ì":137,"Í":138,"Î":139,"Ï":140,"Ð":141,"Ñ":142,"Ò":143,"Ó":144,"Ô":145,"Õ":146,"Ö":147,"×":148,"Ø":149,"Ù":150,"Ú":151,"Û":152,"Ü":153,"Ý":154,"Þ":155,"ß":156,"à":157,"á":158,"â":159,"ã":160,"ä":161,"å":162,"æ":163,"ç":164,"è":165,"é":166,"ê":167,"ë":168,"ì":169,"í":170,"î":171,"ï":172,"ð":173,"ñ":174,"ò":175,"ó":176,"ô":177,"õ":178,"ö":179,"÷":180,"ø":181,"ù":182,"ú":183,"û":184,"ü":185,"ý":186,"þ":187,"ÿ":188,"Ā":189,"ā":190,"Ă":191,"ă":192,"Ą":193,"ą":194,"Ć":195,"ć":196,"Ĉ":197,"ĉ":198,"Ċ":199,"ċ":200,"Č":201,"č":202,"Ď":203,"ď":204,"Đ":205,"đ":206,"Ē":207,"ē":208,"Ĕ":209,"ĕ":210,"Ė":211,"ė":212,"Ę":213,"ę":214,"Ě":215,"ě":216,"Ĝ":217,"ĝ":218,"Ğ":219,"ğ":220,"Ġ":221,"ġ":222,"Ģ":223,"ģ":224,"Ĥ":225,"ĥ":226,"Ħ":227,"ħ":228,"Ĩ":229,"ĩ":230,"Ī":231,"ī":232,"Ĭ":233,"ĭ":234,"Į":235,"į":236,"İ":237,"ı":238,"Ĳ":239,"ĳ":240,"Ĵ":241,"ĵ":242,"Ķ":243,"ķ":244,"ĸ":245,"Ĺ":246,"ĺ":247,"Ļ":248,"ļ":249,"Ľ":250,"ľ":251,"Ŀ":252,"ŀ":253,"Ł":254,"ł":255,"Ń":256,"á»":257,"áº":258,"ng":259,"Ġt":260,"Ġc":261,"čĊ":262,"ĠÄ":263,"ĠÄĳ":264,"hÃ":265,"Æ°":266,"Ġn":267,"Ġl":268,"Ãł":269,"Ġm":270,"háº":271,"há»":272,"Ġk":273,"nh":274,"Ġv":275,"Æ°á»":276,"Ġb":277,"ĠT":278,"Ġng":279,"Ã¡":280,"Ġtr":281,"Ã³":282,"iá»":283,"áº¡":284,"Ãª":285,"Ġs":286,"áº¿":287,"´ng":288,"Ġg":289,"Æ¡":290,"á»Ļ":291,"ĠkhÃ":292,"Ãªn":293,"âĢ":294,"Ġp":295,"Ġr":296,"áº§":297,"Ġd":298,"ĠÄĳá»":299,"ĠkhÃ´ng":300,"Æ°á»Ŀ":301,"Ġh":302,"uy":303,"Æ°Æ¡":304,"hi":305,"Ġtá»":306,"áº£":307,"áº¥":308,"Ġthá»":309,"ĠlÃł":310,"Ã¢":311,"á»Ļt":312,"ĠcÃ³":313,"Ġcá»":314,"ĠthÃ":315,"Ġnh":316,"áº¡i":317,"Ġmá»Ļt":318,"á»ĳ":319,"Ġq":320,"áºŃ":321,"Ã¬":322,"Ġtháº":323,"iáº¿":324,"áº¯":325,"Ġháº":326,"Ġqu":327,"Ġx":328,"iá»ĩ":329,"Æ°á»Ŀi":330,"Ġth":331,"Ã£":332,"ch":333,"âĢľ":334,"Ġvá»":335,"ĠnÃł":336,"Æ°Æ¡ng":337,"Ġgi":338,"âĢĿ":339,"ong":340,"Ġch":341,"ĠchÃ":342,"Ġchá»":343,"Æ°á»£":344,"áº§n":345,"ĠH":346,"©ng":347,"ĠL":348,"Ġta":349,"ĠcÃ":350,"Ľi":351,"ĠnhÆ°":352,"ĠnhÃ":353,"Ġcá»§":354,"Ġhá»":355,"Ġcá»§a":356,"ĠngÆ°á»Ŀi":357,"ĠphÃ":358,"uyá»":359,"ĠvÃł":360,"ĠnÃły":361,"Ã´":362,"¯n":363,"Ġlá»":364,"Ãº":365,"Ġláº¡i":366,"Äĥ":367,"áº¿n":368,"á»ĵ":369,"ĠN":370,"inh":371,"ĠTr":372,"Æ°á»£c":373,"ĠC":374,"Ġháº¯n":375,"áº·":376,"Å©ng":377,"ao":378,"Ġcháº":379,"ang":380,"ÃŃ":381,"Ġthá»ĥ":382,"Ġra":383,"ĠcÅ©ng":384,"á»Ł":385,"ĠnÃ³":386,"Ġtrong":387,"áº¥t":388,"ai":389,"Æ°á»Ľ":390,"Ġbá»":391,"uá»ĳ":392,"Ġpháº":393,"¢n":394,"iá»ģ":395,"ĠhÃ":396,"an":397,"Ã½":398,"anh":399,"Ã¬nh":400,"ĠÄĳÃ£":401,"ĠÄĳÆ°á»£c":402,"Ġmá»":403,"Æ°á»Ľc":404,"Æ°á»Ŀng":405,"Ġnháº":406,"ĠnÃ³i":407,"ĠÄĲ":408,"£i":409,"iá»ĥ":410,"áº§u":411,"uyá»ĩ":412,"ĠV":413,".âĢĿ":414,"ĠÄĳáº¿n":415,"Æ°Æ¡i":416,"au":417,"Ġnhá»":418,"ĠcÃ¡":419,"ĠÄĳi":420,"Ġsá»":421,"Ã¹":422,"±c":423,"ay":424,"ĠM":425,"Ã¢y":426,"Ġgiá»":427,"ĠâĢľ":428,"Ġcáº£":429,"Ġtháº¥":430,"ĠD":431,"oÃł":432,"²n":433,"hiÃªn":434,"á»ĵi":435,"..":436,"Ŀi":437,"áº¯t":438,"uyá»ĩn":439,"ĠmÃł":440,"Ã´ng":441,"Ġná»":442,"Ġchá»ī":443,"łnh":444,"¥c":445,"iá»ĩn":446,"ĠvÃło":447,"¬n":448,"ĠÄĳáº§u":449,"ĠK":450,"ĠváºŃ":451,"Ńa":452,"iÃªn":453,"ĠcÃ²n":454,"Ġtháº¥y":455,"©c":456,"ĠchÃº":457,"iáº¿t":458,"Ãºc":459,"ĠÄĳÃ³":460,"Ä©":461,"Tr":462,"Ġtá»«":463,"Ġpháº£i":464,"áº¥y":465,"áº½":466,"áº«":467,"Ã¢n":468,"ĠnhÃ¬n":469,"Ġkhi":470,"Ġá»Ł":471,"Ġtiáº¿":472,"ĠlÃªn":473,"Ġcho":474,"ĠngÆ°Æ¡i":475,"Æ¡n":476,"ĠphÃ¡":477,"Ġdá»":478,"Ġtu":479,"áº¡o":480,"ÃŃch":481,"iá»ģu":482,"Ã²":483,"áº·t":484,"Ã¢m":485,"Ġrá»ĵi":486,"áº¿u":487,"Ġngá»":488,"Ġngh":489,"Ġtay":490,"iá»ĥu":491,"ĠB":492,"ĠtrÃªn":493,"Ãªu":494,"áº«n":495,"ĠNg":496,"Ġhai":497,"ĠnhÆ°ng":498,"¥t":499,"Ġsau":500,"Äĥm":501,"Ġbá»ĭ":502,"Ġco":503,"Ġvá»Ľi":504,"Ġphá»":505,"ĠÄĳÃ¡":506,"ÄĲ":507,"Ã¢u":508,"ĠtrÆ°á»Ľc":509,"Ġhá»į":510,"áº¿t":511,"Ã©":512,"ĠthÃłnh":513,"Ã¡t":514,"Ġtrá»":515,"ĠÄĳá»Ļ":516,"¯ng":517,"Ġmáº¯t":518,"ĠlÃłm":519,"Ġmáº·t":520,"ĠgÃ¬":521,"Æ°a":522,"Ġsao":523,"ung":524,"Æ¡i":525,"ĠÄĳá»ģ":526,"§n":527,"ĠthÃ¬":528,"Ġvá»ģ":529,"ĠváºŃy":530,"iá»ģn":531,"ĥn":532,"ĠmÃ¬nh":533,"eo":534,"Ãµ":535,"Äĥng":536,"Ã¡c":537,"ĠP":538,"ıi":539,"Ġkh":540,"Æ°ng":541,"ĳi":542,"Ġsáº½":543,"Ã´n":544,"?âĢĿ":545,"áº¡nh":546,"ĠÄĳá»ĥ":547,"Ġcon":548,"¯a":549,"ĠLÃ½":550,"ķi":551,"ĠthÃ¢n":552,"ĠkhÃ¡":553,"¹ng":554,"Ġbiáº¿t":555,"ĠTh":556,"ĠÃ¡":557,"ĠchÃŃ":558,"«a":559,"Ġthu":560,"Ġbáº£":561,"uá»ĳng":562,"ĠTÃŃch":563,"Ã£o":564,"Ġgia":565,"áº©":566,"Ġká»":567,"ĠÄĳá»ģu":568,"«ng":569,"Ãłng":570,"áº¯n":571,"áº»":572,"Ġráº¥t":573,"³ng":574,"ĠkhÃŃ":575,"Ãłn":576,"áºŃt":577,"Ãły":578,"ĠdÃ¹":579,"ĠDÆ°Æ¡ng":580,"ģn":581,"ĠTháº":582,"Ġmá»Ľi":583,"Ġy":584,"Ġqua":585,"oÃłn":586,"Ġtá»Ń":587,"Ġnhá»¯ng":588,"áº¡ch":589,"ĠÄĳang":590,"Ġtháº¿":591,"ĠchÃºt":592,"Ġph":593,"Ãłi":594,"ĠcÃ¹ng":595,"uá»ĳn":596,"ĠhÆ¡n":597,"ĠtháºŃ":598,"uyá»ģn":599,"Ã¡n":600,"Ġluyá»ĩn":601,"Ã²ng":602,"ĠnÃło":603,"áºŃp":604,"ĠTráº§n":605,"Ġlá»Ľ":606,"Ġhiá»ĩn":607,"...":608,"Ġchi":609,"ĠÄĳá»ĭ":610,"Ġkhá»":611,"áº¯c":612,"Ã´i":613,"ĠsÃ¡":614,"á»¥c":615,"Ã¡i":616,"¿t":617,"ĠnhÃ¢n":618,"ĠnhÃł":619,"ĠÄĳÃ¢y":620,"ĠbÃªn":621,"Ġcáº£m":622,"ĠcÃ´ng":623,"ĠlÃºc":624,"Ng":625,"uyÃªn":626,"Ġmuá»ĳn":627,"áº±":628,"Ġtá»Ľi":629,"ĠÄĳáº¡i":630,"Æ°u":631,"Ġnháº¥t":632,"Ġsá»±":633,"á»Ļi":634,"ĠS":635,"Äĥn":636,"ĠnhiÃªn":637,"áº·c":638,"Å©":639,"ĠlÃ£o":640,"á»Ļc":641,"áº¡c":642,"Ġlá»Ľn":643,"įng":644,"ĠÄĳá»ĵ":645,"ĠThÃ":646,"Ġná»¯a":647,"Ġtheo":648,"ĠnÄĥm":649,"áº§m":650,"ia":651,"!âĢĿ":652,"Ġxuá»ĳng":653,"ĳng":654,"Ġkháº":655,"įn":656,"Ġháº¡":657,"Ġnhiá»ģu":658,"áºŃn":659,"Ġlá»±c":660,"Ġxe":661,"Æ°á»£ng":662,"Ġvá»«a":663,"iáº¿m":664,"ĠThiÃªn":665,"Ġho":666,"Ġváº«n":667,"oÃłi":668,"iá»ĩu":669,"ĠnháºŃ":670,"ĠngÃły":671,"¯c":672,"áº¥n":673,"ĠTá»":674,"Ġsá»ĳ":675,"ĠchÃŃnh":676,"Æ°á»Ł":677,"ĠcÃ¡i":678,"Ġgiáº£":679,"Æ°á»Łng":680,"uyáº¿t":681,"ĠnghÄ©":682,"Ġba":683,"ĠkhÃ¡c":684,"Ġchuyá»ĩn":685,"Ġtiáº¿ng":686,"ĠThá»":687,"ĠÄĳá»Ļng":688,"ĠphÃŃa":689,"ĠG":690,"Ġthi":691,"ĠphÃ¡p":692,"en":693,"ĠnÃªn":694,"ĠKhÃ":695,"am":696,"Ġti":697,"iá»ħ":698,"Tráº§n":699,"ĠÄĳá»ĳi":700,"ĠcÃ¡c":701,"ĠÄĥn":702,"ĠThanh":703,"Ġlo":704,"Ġtá»ĳ":705,"Ġrá»":706,"ĠÄĳá»ĭnh":707,"ĠcÆ°á»Ŀi":708,"ĠngoÃłi":709,"iá»ĥm":710,"Ch":711,"Ġláº¥y":712,"Ġcáº§n":713,"Ãło":714,"áº±ng":715,"ĠchÆ°a":716,"Ġhá»įc":717,"Ġtá»©c":718,"ĠsÆ°":719,"Ã¡m":720,"ĠlÃ²ng":721,"ĠcÆ¡":722,"iá»ĩc":723,"Ġtá»±":724,"Ġláº§n":725,"Ġgiá»Ŀ":726,"ĠQ":727,"ĠÄĳÆ°á»Ŀng":728,"á»ĳn":729,"áº¡n":730,"Ġnhá»ı":731,"ĠÃ½":732,"Ġlinh":733,"iá»ĩp":734,"ĠtháºŃt":735,"Ġthá»Ŀi":736,"įi":737,"iáº¿n":738,"ĠthÆ°á»Ŀng":739,"Ġthá»©":740,"Ã¬m":741,"Ġquan":742,"Ġquáº£":743,"iá»ĩt":744,"Ġkia":745,"Ġcá»Ńa":746,"ÃŃnh":747,"ĭch":748,"Ġhá»ıi":749,"á»ķi":750,"áº¯ng":751,"Ġcháº¿t":752,"á»ĵng":753,"hÆ°ng":754,"¡i":755,"ĠGi":756,"Ġviá»ĩc":757,"ĠkhÃ³":758,"Ġnghe":759,"ĠchÃºng":760,"Ġtrá»Ł":761,"Ġtá»«ng":762,"©m":763,"Ġmáº¥y":764,"Ġtiáº¿p":765,"ĠquÃ¡":766,"ĠnháºŃn":767,"ĠtÃ¬m":768,"ĠvÃ¬":769,"Ġsinh":770,"Ġcao":771,"´i":772,"ĠHo":773,"ĠdÃ¹ng":774,"Ġhá»ĵ":775,"áº£nh":776,"Ãªm":777,"Ġxem":778,"ĠchÃ¢n":779,"ĠtoÃłn":780,"Ġkho":781,"ĠÄĳá»ĩ":782,"Ġvá»ĭ":783,"ĠtÃ¢m":784,"iá»ħn":785,"Háº¯n":786,"ĠphÃ¡t":787,"áº©n":788,"ĠÄĳáº¡o":789,"im":790,"ĠcÃłng":791,"įc":792,"Ġnhanh":793,"áº¥u":794,"Ġgá»":795,"Ġmá»Ł":796,"Ã¡o":797,"²ng":798,"ĠQu":799,"LÃ½":800,"Ġkinh":801,"Ġnáº¿u":802,"ĠPhÃ":803,"ĠCh":804,"Ġkiáº¿m":805,"ĠÄĳá»©ng":806,"iÃªu":807,"ĠLá»¥c":808,"Ġbáº¯t":809,"áº¥p":810,"Æ°á»Ľi":811,"Ã¨":812,"áºŃu":813,"ĠváºŃt":814,"ĠmÃ´n":815,"Ãºng":816,"Ġbáº£n":817,"Ġphá»¥":818,"ĠphÃ²ng":819,"ĠtiÃªn":820,"Ġá»":821,"ĠhÃł":822,"Ä©nh":823,"ĠnÆ°á»Ľc":824,"Ġtiá»ģn":825,"áº¯m":826,"ĠvÃ´":827,"Ġká»³":828,"Ġxu":829,"Ġtá»ĳt":830,"ĠbÃ¬nh":831,"ĠA":832,"ĠthÃª":833,"Ġkhá»ıi":834,"Ġthá»±c":835,"NhÆ°ng":836,"ĠHáº¡o":837,"±a":838,"ĠcÃ¡ch":839,"KhÃ":840,"ĠtÃªn":841,"Ġbá»Ļ":842,"Ġnghi":843,"ĠTháº§n":844,"Ġváº»":845,"áº¹":846,"Ġthá»§":847,"Ãºi":848,"Ġchu":849,"ĠbÆ°á»Ľc":850,"uá»ĳi":851,"¡y":852,"Ġliá»ģn":853,"Ĺi":854,"ĩnh":855,"Ġtáº¡i":856,"Ġcáº£nh":857,"áº£i":858,"ĠVÃ¢n":859,"¡ng":860,"áºŃy":861,"ĠÃ¡nh":862,"há»ī":863,"áº¡ng":864,"ĠX":865,"á»ĳi":866,"Ġlu":867,"ĠÄĳÃ¡nh":868,"ĠláºŃp":869,"Ã¹ng":870,"ĠrÃµ":871,"Ġgiá»ĳng":872,"ĠthÃªm":873,"ĠNh":874,"Ġlá»Ŀi":875,"ĠphÆ°Æ¡ng":876,"Ġgian":877,"Ġnay":878,"Trong":879,"Tháº":880,"Ġláº½":881,"ĠhÆ¡i":882,"Ġkhiáº¿n":883,"Ġtháº§n":884,"ĠÃ¡o":885,"iá»ĩm":886,"ĠhÃ¬":887,"Ã¡ng":888,"Ġcá»ĳ":889,"áº¡t":890,"uyá»ĩt":891,"ĠsÃ¡ng":892,"áº·ng":893,"¥ng":894,"ĠhÃłnh":895,"Ġgiá»Ľi":896,"KhÃ´ng":897,"áº§y":898,"ĠTiá»ĥu":899,"ĠmÆ°á»Ŀi":900,"©a":901,"Ġtiá»ĥu":902,"ĠTrÆ°Æ¡ng":903,"áº£ng":904,"Ġphá»§":905,"Ġngá»ĵi":906,"Ġbao":907,"ĠhÃ¬nh":908,"Ġai":909,"Ġhuy":910,"ÃŃt":911,"Ġcá»©":912,"ĠÄĳáº¥t":913,"ĠhÃ´":914,"Ġchá»§":915,"ĠÄĳiá»ĥm":916,"uyá»ĥn":917,"ĠÃ´ng":918,"Ġdo":919,"Ġtuá»ķi":920,"ĠHá»":921,"áº¥m":922,"ĠÄĳá»ĵng":923,"á»Ļng":924,"Ġthá»©c":925,"ĠnÃłng":926,"ĠnÆ¡i":927,"ĠHoan":928,"Ã¡ch":929,"ĠthiÃªn":930,"ĠÄĳiá»ģu":931,"īnh":932,"ĠlÃ¢u":933,"ĠdÆ°á»Ľi":934,"ĠcÃ´":935,"ĠÄĳá»Ļt":936,"ĠsÃ¡t":937,"Ġcháº¯c":938,"ºc":939,"Ńu":940,"Ġbáº¥t":941,"ĠvÃłng":942,"ĠÄĳen":943,"ĠMinh":944,"ĠÃŃt":945,"Ã³ng":946,"ĠhoÃłn":947,"Ġbiáº¿n":948,"ChÆ°Æ¡ng":949,"ĠTÃ´":950,"ĠvÃµ":951,"Ġxuáº¥t":952,"Ġbáº£o":953,"ĠTrÆ°á»Ŀng":954,"Ġgáº§n":955,"Æ°á»Ľng":956,"Ġsá»£":957,"Ġhuynh":958,"ĠViá»ħn":959,"Ġcháº³ng":960,"ĠTá»Ń":961,"ĠCá»":962,"Ġgiáº¿t":963,"Ġxong":964,"Ġhiá»ĥu":965,"Ġhá»Ļ":966,"ĠChÃ":967,"Ġloáº¡i":968,"ĠÄĳÃ¢u":969,"ĠChu":970,"Ġsá»ĳng":971,"Ġláº¡nh":972,"ĠbÃłn":973,"Ġtho":974,"Ġbá»įn":975,"£n":976,"ĠTáº«n":977,"Ġtrá»Ŀi":978,"ĠVÅ©":979,"ĠÄĳo":980,"ĠgiÃ¡":981,"Ġtin":982,"ĠtÃ¬nh":983,"Ã¡nh":984,"ĠBáº¡ch":985,"ĠtÃŃnh":986,"Ġmáº¥t":987,"ĠPh":988,"Ġmang":989,"ĠLÆ°u":990,"ĠU":991,"Ġhay":992,"ĠmÃłu":993,"Ġthanh":994,"iá»ĥn":995,"Ġxa":996,"Ġchá»Ĺ":997,"Ġbáº±ng":998,"Ġpháº§n":999,"ĠcáºŃu":1000,"áº§ng":1001,"Ġmu":1002,"ĠÄĳÆ°a":1003,"ĠcÃ¢y":1004,"Ġtiáº¿n":1005,"ĠthÆ°Æ¡ng":1006,"ĠTáº§n":1007,"áº·p":1008,"ĠGiang":1009,"ĠNháº":1010,"Ġngay":1011,"Ġmáº¡nh":1012,"ĠviÃªn":1013,"ĠHá»ĵ":1014,"ĠgiÃ¡c":1015,"ĠsÄ©":1016,"ĠdÃłi":1017,"Má»Ļt":1018,"Ġcáº¥p":1019,"ĠAn":1020,"ĠÄĳá»§":1021,"Ã³c":1022,"Ġcháº¡y":1023,"ĠkÃ©":1024,"ĠY":1025,"ĠUy":1026,"ĠÄĲÃ´ng":1027,"Ġvá»Ļi":1028,"Ġ1":1029,"iá»ĩng":1030,"Ġquay":1031,"ĠyÃªu":1032,"Ġmiá»ĩng":1033,"Ġná»¯":1034,"ĠmÆ°Æ¡i":1035,"Ãºt":1036,"á»ĳc":1037,"ĠÄĲáº¡i":1038,"uá»ĳc":1039,"ĠthÃŃ":1040,"ĠthÃ´i":1041,"ĠhÃ³":1042,"Ġcuá»ĳi":1043,"Ã£n":1044,"áº¯p":1045,"ĠÄĳao":1046,"ĠnÃºi":1047,"ĠthÃ´ng":1048,"Ġsáº¯c":1049,"Ġtá»ĳi":1050,"Ġchiáº¿":1051,"©t":1052,"Ġcá»ķ":1053,"ĠnÄĥng":1054,"ĠhÃ³a":1055,"Ġtinh":1056,"§m":1057,"Ãºp":1058,"Ġtáº§ng":1059,"ĠlÆ°á»£ng":1060,"Ġsuy":1061,"Ġthá»Ł":1062,"ĠniÃªn":1063,"Ã©t":1064,"Ġtruyá»ģn":1065,"Ġtá»¥c":1066,"Ġháº¿t":1067,"ĠHÃł":1068,"Ġthiáº¿u":1069,"ĠÄĲáº¡o":1070,"Ġquá»":1071,"Ġthá»ĭ":1072,"£y":1073,"Ġcáº§m":1074,"ĠNguyÃªn":1075,"Ã²n":1076,"Ġcu":1077,"Ġbu":1078,"Ġgáº·p":1079,"Ġ(":1080,"ĠbÃ©":1081,"Sau":1082,"ĠcÄĥn":1083,"Ġto":1084,"Ġmáº·c":1085,"oÃłng":1086,"Ġnhau":1087,"Ã³i":1088,"Ġquanh":1089,"Ġtrá»įng":1090,"ĠtrÄĥm":1091,"Ã£i":1092,"ĠhÃ´m":1093,"ĠtrÆ°á»Ŀng":1094,"ĠÄĳáº§y":1095,"Ġlá»Ļ":1096,"Ġngá»Ŀ":1097,"Ġcáº¡nh":1098,"ĠKhÃŃ":1099,"ĠvÃłi":1100,"ĠTam":1101,"Ġbá»ı":1102,"Ġtrung":1103,"Ġgá»įi":1104,"...âĢĿ":1105,"ĠTiÃªn":1106,"ĠdÃ¡m":1107,"Ġráº±ng":1108,"Ġnháº¹":1109,"ĠLÃ¢m":1110,"ĠchÃ¡":1111,"Ġngo":1112,"Ġpháº©m":1113,"Ġmá»įi":1114,"Ġsá»©c":1115,"Ġtráº¯ng":1116,"ĠÄĳÃ¡m":1117,"ĠTruy":1118,"Ġdáº«n":1119,"ĠThÃłnh":1120,"ĠthÃŃch":1121,"łm":1122,"ĠtÆ°":1123,"ĠtÄĥng":1124,"ĠÄĳÃºng":1125,"Ġchiáº¿c":1126,"ĠÄĳÃªm":1127,"ĠtÃłi":1128,"Ġbá»ĳn":1129,"ĠLá»":1130,"ĠčĊ":1131,"ĠdÆ°á»£c":1132,"ĠNhi":1133,"LÃºc":1134,"ĠbÃ³ng":1135,"ĠKim":1136,"Ġchuyá»ĥn":1137,"ÃĶ":1138,"Ġchá»ĭ":1139,"£p":1140,"áº¿p":1141,"ĠMa":1142,"áº¡p":1143,"Ġviá»ĩn":1144,"Ġná»ķi":1145,"ĠlÆ°ng":1146,"Ġthuá»ĳc":1147,"ĠgiÃºp":1148,"Ġcháº¿":1149,"Ġrá»Ŀi":1150,"Ġdá»¥ng":1151,"¡m":1152,"Ġvi":1153,"ĠsÃ¡ch":1154,"áº£o":1155,"ĠlÃ½":1156,"ĠtáºŃp":1157,"ĠHuyá»ģn":1158,"ĠÃ¢m":1159,"ĠxÃ¡c":1160,"ĠTrá»":1161,"Ġngá»±a":1162,"Ġbáº¡c":1163,"âĢ¦":1164,"ĠmÃ¡":1165,"ĠPhong":1166,"£o":1167,"ĠmÃ¹":1168,"Ġtáº¥t":1169,"ĠÄĳá»ķi":1170,"á»ĳng":1171,"Chá»ī":1172,"Ġgiá»įng":1173,"Ġkhu":1174,"ĠliÃªn":1175,"Ġná»Ńa":1176,"ĠhÃłng":1177,"ĠNháº¥t":1178,"Lá»¥c":1179,"Ġphi":1180,"ĠÄĲá»":1181,"Ġnhá»Ľ":1182,"ĠmÃły":1183,"ıa":1184,"ĠDiá»ĩp":1185,"Ġná»Ļi":1186,"Ġtra":1187,"ĠdáºŃy":1188,"Ġdáº§n":1189,"Ġmá»Ĺi":1190,"Ġláº·ng":1191,"Ńm":1192,"ĠbÃł":1193,"ĠnguyÃªn":1194,"ĠthÃ¡ng":1195,"¥p":1196,"ĠtrÆ°á»Łng":1197,"ĠquÃ¡n":1198,"NgÆ°Æ¡i":1199,"Ġtháº³ng":1200,"Ġvang":1201,"¡ch":1202,"ĠcÃ¢u":1203,"Ġngá»§":1204,"ĠbÃ¡o":1205,"ĠTi":1206,"Ġcháº¯n":1207,"ĠrÃłng":1208,"ĠLinh":1209,"Ġvá»ĳn":1210,"ĠCáº£nh":1211,"ĠVÆ°Æ¡ng":1212,"ĠSÆ¡n":1213,"Ġgiáº£i":1214,"ĠkÃ©o":1215,"á»ĵn":1216,"ĠtÄ©nh":1217,"Ġhá»£p":1218,"ĠÄĳá»«ng":1219,"ĠÄĲan":1220,"Táº¡":1221,"ĠthÃº":1222,"§y":1223,"Ġtháº§m":1224,"Ġtráº»":1225,"Ġká»¹":1226,"Ġso":1227,"Ľm":1228,"ĠÄĳá»ı":1229,"ĠchÃ¡u":1230,"·t":1231,"áº£n":1232,"Vá»":1233,"Ġquáº£n":1234,"Ġhoa":1235,"Ġchá»ĭu":1236,"Náº¿u":1237,"Ġphá»¥c":1238,"CÃ³":1239,"´n":1240,"Æ°á»¡ng":1241,"Th":1242,"Ġtriá»ģu":1243,"Ńt":1244,"ĠHÃºc":1245,"Ã¢ng":1246,"Ġsá»Ľm":1247,"ĠtiÃªu":1248,"Ġnhi":1249,"Ġnhá»ĭ":1250,"áº±m":1251,"Ã¨n":1252,"ĠTa":1253,"ThÃ":1254,"Ġvu":1255,"ĠchÃ³ng":1256,"Ġhoáº·c":1257,"Ġkáº»":1258,"ķng":1259,"ĠÄĳá»ĭa":1260,"Ġphu":1261,"ĠBÃ¬nh":1262,"Ġxanh":1263,"ĠÄĳáº·t":1264,"ãĢ":1265,"ĠtÆ°á»Łng":1266,"Ġvá»¥":1267,"Ġcoi":1268,"ĠÄĳan":1269,"ĠÄĳá»£i":1270,"Ġmáº¡ch":1271,"Ġkáº¿t":1272,"ĠthÃ¡i":1273,"Ġnáº¯m":1274,"ĠkÃŃch":1275,"Ġquá»·":1276,"Æ°á»£t":1277,"ĠDá»":1278,"uá»ĳt":1279,"Ġthuá»Ļc":1280,"ĠMáº¡c":1281,"áº©y":1282,"Ġru":1283,"ĠthÆ°":1284,"ĠThÃ¡i":1285,"ĠsÃ¡u":1286,"ĠmÃ¡u":1287,"Ãłnh":1288,"Ġsáº¯p":1289,"ĠnháºŃp":1290,"ĠnÆ°Æ¡ng":1291,"ĠTinh":1292,"Ġca":1293,"Ńn":1294,"Ġma":1295,"á»Łi":1296,"Ĺng":1297,"ĠLÆ°Æ¡ng":1298,"ĠTriá»ĩu":1299,"ĠgáºŃt":1300,"ĠÄĳÃ¡ng":1301,"ĠthuáºŃt":1302,"Ġdanh":1303,"Ġquyáº¿t":1304,"ĠVÃµ":1305,"Ġkháº½":1306,"ĠnÃ©":1307,"ÄĲá»":1308,"Ta":1309,"ĠvÆ°Æ¡ng":1310,"Ġcá»±c":1311,"Ġcháº¥t":1312,"Ġhiá»ĩu":1313,"ĠphÃº":1314,"Ġgiá»¯a":1315,"Ġbay":1316,"ĠvÄĥn":1317,"ĠÄĳÃ¡p":1318,"įt":1319,"ĠbÃ¢y":1320,"ĠrÆ¡i":1321,"ĠTáº¡":1322,"ĠKiáº¿m":1323,"ĠtÃ´i":1324,"Ġvá»įng":1325,"Ġlá»£i":1326,"ĠNhÆ°á»£c":1327,"Ġxo":1328,"ĠphÃ¹":1329,"Ġdá»ĭ":1330,"ĠKhÃ´ng":1331,"ĠlÃ¡t":1332,"iáº¿ng":1333,"ĠmáºŃt":1334,"¡t":1335,"Ġcáº§u":1336,"Ġbiá»ĩt":1337,"ĠtÃŃch":1338,"Hai":1339,"Ã³n":1340,"Ġláº¯c":1341,"Ġdá»ħ":1342,"Ġyáº¿u":1343,"Ġhá»Ļi":1344,"Ńp":1345,"ĠtÃ¡c":1346,"Ã´m":1347,"TrÆ°Æ¡ng":1348,"Ġdá»±":1349,"³n":1350,"ĠLong":1351,"áº©m":1352,"Ġmua":1353,"áº£y":1354,"ĠQuan":1355,"Ġngáº¡c":1356,"Ġtuy":1357,"in":1358,"Ġtuyá»ĩt":1359,"Ġthá»ĭt":1360,"¯p":1361,"Ġtrang":1362,"Ġdá»ĭch":1363,"ĠLuyá»ĩn":1364,"ĠsÃ¢n":1365,"ĠÄĳau":1366,"Ġnghá»":1367,"Ġphong":1368,"uÃ¢n":1369,"Ġtráº£":1370,"ĠcháºŃm":1371,"Ġpháº£n":1372,"Ġnáº±m":1373,"ĠsÃ¢u":1374,"ĠHá»ĵng":1375,"Ġlá»Ńa":1376,"Ġhá»ĵi":1377,"Ġgiá»¯":1378,"ķn":1379,"Ġvui":1380,"hÃ¬n":1381,"Ġváº¿t":1382,"ĠKh":1383,"Ġxá»":1384,"ĠTá»±":1385,"ĠcÃº":1386,"Ġáº¥y":1387,"Ġtá»Ļc":1388,"ĠtÆ°á»£ng":1389,"iáº¿p":1390,"TÃ´":1391,"Ġháº³n":1392,"ĠNgÆ°Æ¡i":1393,"ĠyÃªn":1394,"ĠÄĳá»Ŀi":1395,"ĠnghiÃªm":1396,"Ġgiao":1397,"ĠbÃ¡n":1398,"á»ĳt":1399,"á»ĥn":1400,"ĠÄĳiá»ĩp":1401,"Ġmáº¹":1402,"Ġmá»©c":1403,"ĠdÆ°á»Ŀng":1404,"Ã¨o":1405,"ĠlÆ°u":1406,"ĠUyá»ĥn":1407,"ĠtÃ¡m":1408,"ĠtrÃŃ":1409,"ĠtráºŃn":1410,"Ġthay":1411,"Ġkháº¯c":1412,"Ġváº¥n":1413,"Ġchá»įn":1414,"áº©u":1415,"ĠTrÆ°":1416,"ĠtháºŃn":1417,"Ġchá»©":1418,"Ġchá»Ŀ":1419,"ĠÃł":1420,"ĠVÃ£n":1421,"Ġtáº¥m":1422,"Ġthuyá»ģn":1423,"ĠDá»ĭch":1424,"ĠÄĳu":1425,"Ġquen":1426,"ĠváºŃn":1427,"Lá»":1428,"Ãªng":1429,"Ġtrá»±c":1430,"Ġxung":1431,"há»§":1432,"ĠkhÃ¡ch":1433,"ĠThu":1434,"¥n":1435,"em":1436,"Ġdá»«ng":1437,"Ġtá»īnh":1438,"Ġcháº·t":1439,"Ġdáº¡":1440,"Ġchá»¯":1441,"ĠCÃłn":1442,"ĠYáº¿n":1443,"LÃ¢m":1444,"ĠDuy":1445,"ÄĲÃ¢y":1446,"Ngh":1447,"ĠÄĳÃ´i":1448,"ĠHáº¯n":1449,"ĠphÃ¢n":1450,"Ġchuáº©n":1451,"¯u":1452,"ĠNáº¿u":1453,"ĠMáº¡nh":1454,"Ġuá»ĳng":1455,"ĠKinh":1456,"Ġcáº©n":1457,"ĠcÃ¡nh":1458,"Ġtháº¥p":1459,"Ġtáº¡o":1460,"ĠCÃ¡t":1461,"áº¹p":1462,"Ġsai":1463,"Ġcuá»Ļc":1464,"ĠháºŃu":1465,"Ġbá»Ĺng":1466,"NgÆ°á»Ŀi":1467,"ĠrÃºt":1468,"ĠdÃ¢n":1469,"ĠÄĳá»©a":1470,"ĠPhÃłm":1471,"ĠÄĳÃ´ng":1472,"on":1473,"±m":1474,"ĠtÆ°Æ¡ng":1475,"Ġláº¯m":1476,"ĠThá»±c":1477,"ĠvÃ²ng":1478,"Ġtá»·":1479,"ChÃ":1480,"ĠgiÃ¡o":1481,"ĠHoÃłng":1482,"á»Ļn":1483,"Ġtháº¥t":1484,"Ġngá»«ng":1485,"ĠCá»«":1486,"ĠHÆ°ng":1487,"ĠmÆ¡":1488,"ĠkÃ½":1489,"ĠtÃ´ng":1490,"Ġthá»Ń":1491,"Ġchiáº¿n":1492,"Ġká»ĭ":1493,"ĠtháºŃm":1494,"Ġnáº·ng":1495,"ĠÄĳiá»ĩn":1496,"ĠbÃłi":1497,"ĠquÃ¡i":1498,"ĠxuyÃªn":1499,"Ġháº¡i":1500,"Ġbá»ĩnh":1501,"ĠÄĳá»Ļc":1502,"Ġkiáº¿n":1503,"Ġtráº§m":1504,"Ġtiá»ĩn":1505,"ĠmÃ£":1506,"Ġnhiá»ĩm":1507,"ĠÄĳÆ¡n":1508,"ĠÄĳáº·c":1509,"ĠTang":1510,"ĠTháº¿":1511,"ĠbÃŃ":1512,"Thá»":1513,"Ġan":1514,"Ġquang":1515,"Ġgá»Ĺ":1516,"Ġtháº¡ch":1517,"Ġbáº£y":1518,"ĠSÆ°":1519,"Ġá»©ng":1520,"DÆ°Æ¡ng":1521,"¡c":1522,"©p":1523,"Ġcháº±m":1524,"Ġhá»ĩ":1525,"Ġvá»ĩ":1526,"Ġtrá»ĭ":1527,"Tháº¿":1528,"ĠcÆ°á»Ŀng":1529,"Ġgiáº¥y":1530,"ĠluÃ´n":1531,"Ġquyá»ģn":1532,"Tá»":1533,"ĠgiáºŃn":1534,"Ġdá»±a":1535,"Ġkhoáº£ng":1536,"Ġláº¡":1537,"ĠNguyá»ĩt":1538,"¡p":1539,"ĠchÃ³":1540,"ĠTráº¥n":1541,"Ġdung":1542,"Ġhá»ģ":1543,"ĠpháºŃn":1544,"Há»":1545,"ĠngÃłi":1546,"ĠTÃło":1547,"Ġnha":1548,"Ġcá»©u":1549,"NÃ³i":1550,"ĠtrÃ´ng":1551,"Ġsang":1552,"ĠNghi":1553,"Ġcanh":1554,"VÃ¢n":1555,"Ġtáº¿":1556,"ĠnÃ³ng":1557,"£t":1558,"ĠtÃ²":1559,"Ġmáº¡ng":1560,"ĠtrÃ¡nh":1561,"ĠdÃ¡ng":1562,"Ġtai":1563,"¥y":1564,"ĠgÃ£":1565,"ĠMá»Ļc":1566,"ĠChÃ¢n":1567,"Ġtáº¡":1568,"ĠNgá»":1569,"Táº§n":1570,"ĠtÆ°á»Ŀng":1571,"ĠgÃ¡i":1572,"ĠUyÃªn":1573,"Nhá»":1574,"ıng":1575,"Ġquáº§n":1576,"Ġnghiá»ĩm":1577,"Ġhiá»ĥm":1578,"Ġnháº£y":1579,"Ã¹a":1580,"ĠPhi":1581,"ĠMá»¥c":1582,"ĠchÃŃn":1583,"Ġká»ĭp":1584,"Qu":1585,"Ġhuyáº¿t":1586,"ĠgiÃł":1587,"ĠCÆ¡":1588,"ĠhÃ¡":1589,"ĠtÃŃ":1590,"iáº¿u":1591,"ĳt":1592,"ĠCá»ĳ":1593,"¢m":1594,"ĠÃ":1595,"ĠtrÃ¡i":1596,"Ã£ng":1597,"ĠhÃ£i":1598,"ĠcÆ¡m":1599,"PhÃ":1600,"Ġcung":1601,"ĠthÃ´n":1602,"Ġchá»©ng":1603,"ĠÄĲiá»ĩp":1604,"ĠphÃ¡i":1605,"Ġnam":1606,"ĠÃ¡p":1607,"Tuy":1608,"Ġgiai":1609,"ĠNhá»":1610,"áº·n":1611,"Ńnh":1612,"ĠmÅ©":1613,"ĠbÃ¡":1614,"ĠgiÃ³":1615,"ĠTháºŃp":1616,"ĠHoa":1617,"ĠÄĳoáº¡n":1618,"ĠChi":1619,"Ġáº£nh":1620,"ĠhÆ°á»Ľng":1621,"ĠthÃºc":1622,"Ġgiáº£n":1623,"Khi":1624,"Ġ2":1625,"ĠngÆ°á»£c":1626,"âĢĿ,":1627,"ĠhÃ²":1628,"TrÃªn":1629,"ĠthÆ°á»£ng":1630,"ĠÃĶ":1631,"Ġban":1632,"ĠbÃ¡t":1633,"ĠsÃ´ng":1634,"iáº¿c":1635,"ĠNhÆ°ng":1636,"ĠCÃ´ng":1637,"ĠMÃ´n":1638,"Gi":1639,"ĠgiÆ°á»Ŀng":1640,"ĠHuyáº¿t":1641,"ĠÄĳáº¡t":1642,"Ġngá»±c":1643,"ĠÄĳá»Ļi":1644,"ĠÄĳoÃ¡n":1645,"ĠcÃºi":1646,"ĠÄĳá»īnh":1647,"áº£m":1648,"¢u":1649,"Ġláº¯ng":1650,"Ġtrai":1651,"Ġsá»©":1652,"áº«u":1653,"ĠnhiÃªu":1654,"LÆ°u":1655,"ĠchÆ°á»Łng":1656,"Ġanh":1657,"Ġda":1658,"ĠquÃ¢n":1659,"Ġche":1660,"Ġsá»Ń":1661,"Ġbá»Łi":1662,"Ġdáº¡y":1663,"LÃ£o":1664,"ło":1665,"Ã¡y":1666,"Ġlá»¥c":1667,"Ġngá»įn":1668,"ĠlÄ©nh":1669,"Ġnguy":1670,"Ġcha":1671,"ĠÄĳÃ¬nh":1672,"Ġnháº¯c":1673,"ĠtÃºi":1674,"ĠmÃ¡i":1675,"Ġtrá»ĳn":1676,"Ã³t":1677,"ĠVá»":1678,"Ġáº©n":1679,"Ġmay":1680,"ĠhÆ°Æ¡ng":1681,"iá»ħu":1682,"ĠmÅ©i":1683,"áº©ng":1684,"Ġxáº£y":1685,"Ġsá»ķ":1686,"ĠThÃ´ng":1687,"Ġtá»ĳc":1688,"Ġtá»±a":1689,"Ġliá»ĩu":1690,"Má»":1691,"ĠtÃ¹":1692,"ĠrÃ£i":1693,"Ġdi":1694,"Ġlá»Ľp":1695,"Ġháº¡n":1696,"ĠThá»§y":1697,"Ġluá»ĵng":1698,"Cháº":1699,"±ng":1700,"ĠCÃ³":1701,"Ġmá»«ng":1702,"Ġim":1703,"ĠAnh":1704,"Ã¹i":1705,"Ġkhá»ķ":1706,"ĠHá»©a":1707,"NhÃ¬n":1708,"Ġlao":1709,"Ġminh":1710,"Ġtráº¥n":1711,"Ġdiá»ĩn":1712,"ĠchÆ¡i":1713,"Ġkháº£":1714,"CÃ²n":1715,"¡nh":1716,"Ġngáº©ng":1717,"ĠchuÃ´ng":1718,"Ľt":1719,"ĠlÃ¡":1720,"ĠgiáºŃt":1721,"Ġtan":1722,"Ġtung":1723,"Ġvá»±c":1724,"Ġkiá»ĥm":1725,"ĠtÃł":1726,"Ġmá»Ŀi":1727,"ĠTÃ´ng":1728,"ĠsÆ¡n":1729,"ĠrÆ°á»£":1730,"ĠchÃ©m":1731,"Ġthá»§y":1732,"Ġrá»Ļng":1733,"Ġtiáº¿t":1734,"ĠphÃŃ":1735,"ĠÄĳáº¹p":1736,"ĠkÃªu":1737,"Ġchá»«ng":1738,"ĠMáº·c":1739,"¥u":1740,"ĠmÃ¨o":1741,"ĠDiÃªu":1742,"ĠÄĳáº¥y":1743,"Ġláº§u":1744,"Ġliáº¿c":1745,"Giá»":1746,"ĵn":1747,"Ġmai":1748,"Ġgáº¯ng":1749,"ĠrÆ°á»£u":1750,"ĠÄĳá»ķ":1751,"Ġhung":1752,"Ġxáº¿p":1753,"Ġváº¡n":1754,"ĠngÃłn":1755,"ĠdÃ²ng":1756,"áºŃc":1757,"ĠCáº©u":1758,"Ġcháº£y":1759,"Ġgiáº¥u":1760,"ĠXuÃ¢n":1761,"ĠbáºŃc":1762,"Æ°á»£n":1763,"Chu":1764,"ĠvÆ°á»£t":1765,"ĠtrÃ¬nh":1766,"Ġquy":1767,"Ġtháº£":1768,"TrÆ°á»Ľc":1769,"ĠThá»ĳ":1770,"ĠhÃ²a":1771,"ĠÄĳÃłn":1772,"Ġviáº¿t":1773,"ĠtrÃ¡ch":1774,"Ngay":1775,"ĠÄĳuá»ķi":1776,"ĠÄĳá»¡":1777,"LÆ°Æ¡ng":1778,"Ġsáº¡ch":1779,"Ġxin":1780,"Ġkháº¯p":1781,"ĠnghÄ©a":1782,"ĠNgÆ°":1783,"ĠngÃ£":1784,"ĠMá»":1785,"DiÃªu":1786,"Ġtuyáº¿t":1787,"ĠdÃ²":1788,"ĠphÃłm":1789,"ĠTrÃºc":1790,"Ġbá»¥ng":1791,"Ġloáº¡n":1792,"ĠthÆ¡":1793,"Ġká»ĥ":1794,"Ġcá»ĳc":1795,"Ġtáº¡p":1796,"ĠÄĳÆ°Æ¡ng":1797,"ĠtrÃ¬":1798,"ĠmÃ¹i":1799,"Ġnu":1800,"Ġvai":1801,"Ġsu":1802,"Ġlá»ĵ":1803,"Ġngá»įc":1804,"Æ°á»¡i":1805,"ĠnhÃłng":1806,"Ġngoáº¡i":1807,"ĠâĢ":1808,"ĠngÃ³n":1809,"Ġtiáº¿c":1810,"ĠTháº©m":1811,"Ġlá»ĩ":1812,"DÃ¹":1813,"ĠnhÃ³":1814,"ãĢĲ":1815,"Nhá»¯ng":1816,"ĠsÆ¡":1817,"ĠChá»ī":1818,"ĠNgh":1819,"ĠchiÃªu":1820,"Ġrun":1821,"Ġuy":1822,"háº¿":1823,"ĠHáº£i":1824,"Ġbá»ķ":1825,"oÃłnh":1826,"Ġngá»¥c":1827,"ĠBÆ°u":1828,"ãĢĳ":1829,"Ġáº¥n":1830,"Ġtáº§m":1831,"Ġnghá»ī":1832,"Ġtranh":1833,"Ġmá»Ļ":1834,"Ġváº£i":1835,"ĠthÃ¹":1836,"Ġháº¥p":1837,"Ġchia":1838,"ĠquáºŃn":1839,"Ġvá»Ĺ":1840,"LÃł":1841,"Tiá»ĥu":1842,"ĠÃ´m":1843,"ĳc":1844,"ĠÄĳÃ¢m":1845,"Ġbinh":1846,"Ġlá»ħ":1847,"Ġkháº£o":1848,"ĠPhÃ¡p":1849,"Ġá»ķn":1850,"ĠbÃło":1851,"Ġhá»ıa":1852,"ĠÄĲá»ĵng":1853,"Ġsá»Ŀ":1854,"Ġphá»ĳ":1855,"ÄĲáº¡i":1856,"Ã©n":1857,"ĠTu":1858,"áº«y":1859,"ĠnÃ©m":1860,"Triá»ĩu":1861,"Ġthiáº¿t":1862,"Ġáº":1863,"ĠcÃ¢n":1864,"Ġngang":1865,"ĠkhÃ´":1866,"Cho":1867,"ĠtÃłn":1868,"ĠmÃ²":1869,"ĠhÃłi":1870,"§u":1871,"ĠtrÃłn":1872,"ĠhoÃłng":1873,"ĠthoÃ¡t":1874,"Ġcháº¡m":1875,"Ġmuá»Ļi":1876,"Nghe":1877,"Ġkiáº¿p":1878,"ĠgÃ¢y":1879,"ĠÄĳá»įc":1880,"ĠLáº¡c":1881,"ĠnhÃŃu":1882,"VáºŃy":1883,"ĠnÃ¡t":1884,"Ġtráº¡ng":1885,"ĠNinh":1886,"ĠTrÃ¬":1887,"ĠÄĳáº©y":1888,"Ġdáº¥u":1889,"ĠVáº¥n":1890,"ĠThÃº":1891,"Ġrá»«ng":1892,"Bá»":1893,"ĭnh":1894,"Ġkim":1895,"ĠdÃ¢y":1896,"ĠquÃ½":1897,"ĠchÃºa":1898,"Ġxoay":1899,"Ġxá»Ń":1900,"Ġáº¡":1901,"Ġbá»ĳi":1902,"Ġtá»ķ":1903,"ĠtÃ¹y":1904,"ĠtáºŃn":1905,"Ġtriá»ĥn":1906,"Ġchá»£t":1907,"Ġtrá»«":1908,"ĠNhai":1909,"ĠKho":1910,"ĠÄĳáºŃp":1911,"ĠlÃ´ng":1912,"Ġmiáº¿ng":1913,"Ġchá»ĳng":1914,"Ġtam":1915,"Ġchiáº¿u":1916,"ĠÄĳáº¥u":1917,"ĠTÃ¢m":1918,"ĠdÃłng":1919,"ĠMáºŃt":1920,"Ġbáº£ng":1921,"Ľp":1922,"ĠtÃ¡n":1923,"ĠthÆ°á»Łng":1924,"ĠNhÃ":1925,"ĠPhá»":1926,"MÃł":1927,"¯m":1928,"Ġgháº¿":1929,"Ġtá»¥":1930,"Ġthá»į":1931,"ĠLÃ¢u":1932,"ĠhÃ¡n":1933,"Ġtráº£i":1934,"Ã£nh":1935,"Ġmá»ī":1936,"ĠnuÃ´i":1937,"ĠmÆ°a":1938,"Ġmá»ĳi":1939,"Ġváº½":1940,"VÃ¬":1941,"ĠtrÄĥng":1942,"ĠgÆ°Æ¡ng":1943,"Ġthá»ĳng":1944,"Ġghi":1945,"áº¥c":1946,"Ġvá»¡":1947,"Ġgiang":1948,"Ġdá»¯":1949,"Ã©p":1950,"SÆ°":1951,"Ġ'":1952,"Ġngáº¯n":1953,"Cá»ĳ":1954,"ĠÃ¡c":1955,"Ġháº§u":1956,"Ã£y":1957,"Ġlá»ĩnh":1958,"Ġo":1959,"ĠtÃ³c":1960,"Ġquyá»ĥn":1961,"ĠthuáºŃn":1962,"ĠChÃŃnh":1963,"ĠTrá»įng":1964,"Ġnhá»ĭn":1965,"Ńi":1966,"ĠkÃŃnh":1967,"Ġha":1968,"ĠchÄĥm":1969,"ĠKhÃºc":1970,"Ġe":1971,"Ġtá»ĵn":1972,"Ġthá»«a":1973,"ĠNgá»įc":1974,"ĠNhá»ĭ":1975,"ĠÄĳáº¯c":1976,"Ġnháº¯m":1977,"ĠMá»Ļ":1978,"BÃªn":1979,"ĠcÅ©":1980,"ĠdÄ©":1981,"ĠdÆ°á»¡ng":1982,"ĠHÃ¡n":1983,"ĠVÄĥn":1984,"ĠkÃ©m":1985,"ĠTrá»«":1986,"Vá»«a":1987,"Ġgáº¥p":1988,"ĠmÃłn":1989,"ÄĲÃºng":1990,"ĩt":1991,"ĠTÃ´n":1992,"Ġcá»¥":1993,"Ġtia":1994,"Ġliá»ĩt":1995,"ĠThi":1996,"ĠtrÃ´i":1997,"ĠÄĳÃ³ng":1998,"ĠlÃ³":1999,"áºŃm":2000,"ĠNam":2001,"ĠMá»Ļt":2002,"Ġhoang":2003,"ĠKhÃª":2004,"Ġbiá»ĥu":2005,"ĠrÄĥng":2006,"Ġtá»ĩ":2007,"Ġhá»¯u":2008,"ĠLá»¯":2009,"á»ŀ":2010,"ĠxÆ°Æ¡ng":2011,"ĠCháº":2012,"iÃªng":2013,"ĠlÃ¹ng":2014,"Ġbáº¡n":2015,"ĠxÃ´ng":2016,"ĠxÃºc":2017,"ĠMiÃªu":2018,"ĠNgÃ´":2019,"«n":2020,"ĠÄĳÃło":2021,"ĠtrÃ²":2022,"ĠÄĲÄĥng":2023,"ĠbÃ¡nh":2024,"ĠHáº¯c":2025,"Ġpháº¡m":2026,"ĠhÃ´i":2027,"ĠSau":2028,"ĠHá»ĵn":2029,"©n":2030,"Ġcá»©ng":2031,"Ġkhai":2032,"ģnh":2033,"ĠÄĳÃ¨n":2034,"ĠmÃ¢y":2035,"Ġkáº¿":2036,"Ġná»ķ":2037,"CÃ¡i":2038,"ĠLÄĥng":2039,"ĠQuÃ¢n":2040,"Tháº¥y":2041,"Theo":2042,"ĠngÄĥn":2043,"ĠsÆ°Æ¡ng":2044,"Ġnhiá»ĩt":2045,"Ġnháº¡t":2046,"ĠÄĲiá»ģn":2047,"ĠVu":2048,"ĠtÃŃm":2049,"ĠtÆ°á»Ľng":2050,"Ġmá»ĵ":2051,"Ġbáº¿p":2052,"Ġtháº£o":2053,"Ġhá»ķ":2054,"Ġhá»įa":2055,"Ġlui":2056,"Báº¡ch":2057,"ĠgÃµ":2058,"Ġdá»įn":2059,"00":2060,"TÃ´n":2061,"Ġdao":2062,"Con":2063,"Ġtá»ĭch":2064,"Ġlá»Ĺi":2065,"ĠTrong":2066,"Ä©a":2067,"Ġtáº¡m":2068,"ĠkiÃªn":2069,"Ġhuá»ĳng":2070,"ĠthÄĥm":2071,"ĠnhÃ¡y":2072,"uá»":2073,"Ġbáº©m":2074,"ĠphÃ³":2075,"ĠÄĳÃ³i":2076,"Ġthuáº§n":2077,"Ġhoáº¡t":2078,"Ġrá»ĳt":2079,"Ġhao":2080,"Ġphiá»ģn":2081,"Ġbá»©c":2082,"ĠmÃª":2083,"Ġthá»¥":2084,"ÃŃn":2085,"Ġmá»Ŀ":2086,"ÃĶng":2087,"Ġcá»Ļng":2088,"ĠnÃ¢ng":2089,"ĠhÆ°á»Łng":2090,"Ġxáº¥u":2091,"Ġmá»ĩnh":2092,"Ġháº¡t":2093,"ĠhÃło":2094,"ĠKhoa":2095,"Ġnuá»ĳt":2096,"ĠTÄ©nh":2097,"ĠViá»ĩn":2098,"Ġem":2099,"ĠÄĳÃłnh":2100,"ĠTá»ĳng":2101,"ĠgiÆ¡":2102,"Ġchá»©c":2103,"ĠNgÆ°u":2104,"ĠPháº":2105,"Ġhoáº¡ch":2106,"ĠGia":2107,"Ġmá»īm":2108,"¥i":2109,"ĠbÄĥng":2110,"ĠnghÃ":2111,"Ġchim":2112,"Æ°á»Ľt":2113,"ĠphÃºt":2114,"--":2115,"ĠO":2116,"Ġtáº¥n":2117,"Ġmanh":2118,"Ġquáº§y":2119,"ĠLan":2120,"Ġcháº¥n":2121,"ĠHÃłnh":2122,"Kim":2123,"Ġcáº¯n":2124,"ĠlÆ°Æ¡ng":2125,"ĠláºŃt":2126,"ĠlÃ©n":2127,"ĠTuyáº¿t":2128,"ĠtrÃ²n":2129,"ĠLÃ´i":2130,"Tháº©m":2131,"Ġ3":2132,"ĠxÃ©t":2133,"ĠCÃ¡c":2134,"ĠlÃ³e":2135,"¹ĳ":2136,"à¹ĳ":2137,"Ġtá»Ļi":2138,"Ġbá»ĳ":2139,"ĠtÆ°Æ¡i":2140,"Ġcáº¥t":2141,"ĠcÆ¡n":2142,"Ġmáº«u":2143,"Ġsá»Ł":2144,"ĠchÃ¬":2145,"ĠBa":2146,"Ġtrá»£":2147,"Láº§n":2148,"Ĺn":2149,"ĠtÃºc":2150,"ĠkhÃ´i":2151,"ĠXÃł":2152,"ĠTy":2153,"Ġcá»ı":2154,"Tu":2155,"Ġáº¥m":2156,"Ġmáº£nh":2157,"Ġquá»ĳc":2158,"Ġthang":2159,"CÅ©ng":2160,"ĠlÆ°á»£t":2161,"Ġduy":2162,"Ġlá»«a":2163,"Ġcháº¥p":2164,"Ġpháº¥n":2165,"ĠÄĲÃ¢y":2166,"Ġhoáº£ng":2167,"Ġhá»Ļp":2168,"¨o":2169,"Ġngá»Ļ":2170,"ĠtrÃ¹ng":2171,"Ã³a":2172,"ĠÄĳá»ĳng":2173,"ĠLiá»ħu":2174,"ĠDÆ°":2175,"Ná»":2176,"ĠtÃº":2177,"ĠvÃ¹ng":2178,"ĠgÃ³c":2179,"ĠdÃły":2180,"ĠÃ¡n":2181,"Ġhá»ĵn":2182,"Sao":2183,"ĠmÃ³n":2184,"ĠbÃ¨n":2185,"Ġcáº¯t":2186,"Ġlai":2187,"Ġláº¡c":2188,"Ġtháº»":2189,"Ġháº¯c":2190,"Ġnhá»Ŀ":2191,"Ġná»¥":2192,"áº«m":2193,"ĠbuÃ´ng":2194,"Ġbuá»ķi":2195,"Cá»":2196,"Nh":2197,"ĠriÃªng":2198,"ĠthÃ¡m":2199,"ĠgiÃ¡m":2200,"ĠTráº¡ch":2201,"ĠBáº¯c":2202,"ĠkhÄĥn":2203,"ĠCá»±c":2204,"ĠmÃ©t":2205,"ĠNÃ´ng":2206,"ĠNháº¡c":2207,"Ġbuá»ĵn":2208,"ĠR":2209,"á»³":2210,"Ġbiá»ĥn":2211,"Ġtreo":2212,"Ġtrá»ĳng":2213,"ĠxÆ°a":2214,"ĠHÃło":2215,"iá»ģm":2216,"ĠKiá»ĥu":2217,"Ĥm":2218,"háº¥u":2219,"Ġbáº¡i":2220,"ĠbÃ¡i":2221,"ĠtrÃºng":2222,"Ġchá»Ľp":2223,"Ġmá»¥c":2224,"Ġcá»ĳt":2225,"ĠCá»Ńu":2226,"ĠÆ¡n":2227,"įa":2228,"ĠmÆ°á»£n":2229,"ĠTÃº":2230,"Ġlá»±a":2231,"Ġmá»ĭ":2232,"ĠLá»±c":2233,"ĠkhuÃ´n":2234,"Cháº³ng":2235,"Bá»Łi":2236,"Thi":2237,"Ľn":2238,"Łi":2239,"Ġngu":2240,"ĠLÃ£o":2241,"ĠTrang":2242,"ÄĲÆ°á»£c":2243,"Ġkhá»ĳi":2244,"Ġdá»±ng":2245,"Ġnghá»ģ":2246,"Kh":2247,"ĠChá»§":2248,"Ġá»©c":2249,"ĠthoÃ¡ng":2250,"ĠlÅ©":2251,"Ġbáº¯n":2252,"âĢĶ":2253,"Ġtham":2254,",âĢľ":2255,"Phá»":2256,"ĠvÃ¢y":2257,"Ġbáº§u":2258,"ĠTÃºc":2259,"Ġsáº¯t":2260,"ĠquÃªn":2261,"ÄĲá»ĳi":2262,"Ġtá»ĳn":2263,"ĠmÃ¹a":2264,"ĠnÃ©n":2265,"NghÄ©":2266,"Ãģnh":2267,"âĢĥ":2268,"ĠHáº¡ng":2269,"áº·m":2270,"ĠhÃłn":2271,"ĠHá»įc":2272,"Tá»«":2273,"Ġniá»ĩm":2274,"ĠTuyá»ģn":2275,"ĠPhá»§":2276,"ĠSinh":2277,"ºng":2278,"Ġtáº£ng":2279,"Ġmáº½":2280,"ĠsÃ³t":2281,"Ġdiá»ĩt":2282,"ĠthÄĥng":2283,"ĠHáº§u":2284,"Ġrá»±c":2285,"Máº¡nh":2286,"ĠlÃ²":2287,"ĠngÆ¡i":2288,"Ġcá»§i":2289,"Ba":2290,"Chá»":2291,"ĠnÃ´":2292,"Ġmau":2293,"ĠbáºŃt":2294,"ĠbÃły":2295,"ĠghÃ":2296,"ĠhÃŃt":2297,"Ġmá»ĩt":2298,"ÄĲi":2299,"Ġrá»¡":2300,"ĠXÆ°Æ¡ng":2301,"Ġxoa":2302,"Lá»ĩnh":2303,"âĢĻ":2304,"ĠCáº§u":2305,"ĠThÆ°":2306,"ĠthuÃª":2307,"ĠQuáº¿":2308,"Thá»Ŀi":2309,"ĠÄĳáº¿":2310,"Ġlau":2311,"Ġláº©m":2312,"Ġcá»Ŀ":2313,"ĠquÃ©t":2314,"ĠchuyÃªn":2315,"Ġdá»©t":2316,"Ġtim":2317,"ĠPhÃ¹":2318,"Hiá»ĩn":2319,"ĠcÄĥng":2320,"Ġmong":2321,"ĠmÃ´i":2322,"ĠbÃ³":2323,"ĠngÃ¢m":2324,"ĠtrÃł":2325,"ĠgÃł":2326,"á»ĵm":2327,"HÆ¡n":2328,"Ġà¹ĳ":2329,"Ġmáº¯n":2330,"ĠbÃ¹":2331,"á»Ļm":2332,"ĠÄĳá»ĳt":2333,"Ġtá»ķng":2334,"Ġháº»":2335,"Ġchá»¥c":2336,"ĠNgÆ°á»Ŀi":2337,"ĠChÃ¢u":2338,"ĠÄĳeo":2339,"ĠmÃ£n":2340,"ĠtrÆ°á»£ng":2341,"Ġtá»ıa":2342,"ĠphÃ³ng":2343,"ÄĲáº¿n":2344,"ĠSÆ°Æ¡ng":2345,"ĠTÃ¬nh":2346,"Ã¡p":2347,"Ġráº©y":2348,"ĠxÃ©":2349,"Ġbá»Ŀ":2350,"Ġbá»¯a":2351,"Ġnháº«n":2352,"Ġkhiáº¿u":2353,"ĠBá»":2354,"Ġnghá»ĩ":2355,"Ġáº£o":2356,"ģm":2357,"ĠngÅ©":2358,"ĠphÃło":2359,"ĠBáº£o":2360,"Ġkhá»ĳng":2361,"ĠhÃ´n":2362,"ĠchÃ¬m":2363,"Ġváº«y":2364,"Ġsuá»ĳt":2365,"Ġthiá»ĩn":2366,"Ġchung":2367,"Ġháº¡ng":2368,"Ġ-":2369,"ĠTiáº¿t":2370,"Ġdiá»ħn":2371,"Ġtá»ı":2372,"Ġthá»īnh":2373,"ĠHÆ°Æ¡ng":2374,"Ġgiam":2375,"ĠTháº¡ch":2376,"ĠtháºŃp":2377,"ĠÃĤm":2378,"CÃ¡t":2379,"¡o":2380,"Ġmiáº¿u":2381,"ĠTÃ¢y":2382,"ĠViÃªn":2383,"ĠKÃŃnh":2384,"ĠBá»Ļ":2385,"ĠkhoÃ¡i":2386,"CáºŃu":2387,"Ġvuá»ĳt":2388,"Ġtháº£n":2389,"ĠCÃ²n":2390,"Tiáº¿ng":2391,"Ġ5":2392,"ĠÄĳÃłi":2393,"ĠÄĳÃ³n":2394,"Máº·c":2395,"ĠÃ³c":2396,"ĠÃ©p":2397,"ĠÄĳáºŃu":2398,"Ġmáº¯ng":2399,"ĠbÃºt":2400,"ĠHoÃłnh":2401,"Ġlá»ĭch":2402,"Ġphá»©c":2403,"Ġngon":2404,"ĠThÃºy":2405,"ģu":2406,"Ġmáº¡o":2407,"Ġvá»¯ng":2408,"Ġmá»¹":2409,"ĠÄĳÃ¡y":2410,"Ġruá»Ļng":2411,"Ġcuá»ĳn":2412,"ĠÄĳÃŃch":2413,"ĠlÃ¹i":2414,"Ġnguyá»ĩn":2415,"ĠLang":2416,"Ã½t":2417,"Ġnháº·t":2418,"ĠcÃ¡o":2419,"ĠQuyáº¿t":2420,"ĠkhÃ³i":2421,"TÃªn":2422,"Ġnáº¡n":2423,"Ġvung":2424,"ĠbÃ¡c":2425,"ĠchÃ©p":2426,"ĠchÃ¢m":2427,"Ġhá»©ng":2428,"Ġgiáº£m":2429,"ĠluáºŃn":2430,"Ġbuá»Ļc":2431,"ĠvÃ¡y":2432,"Ġbá»Ļi":2433,"ĠnghiÃªn":2434,"ĠrÃ¨n":2435,"ĠdÃ¢ng":2436,"Ġhiá»ĥn":2437,"Ġgiáº¥c":2438,"Ġdá»¥":2439,"Ġkhá»ķng":2440,"Ġthoáº£ng":2441,"Ġcuá»Ļn":2442,"ĠtoÃ¡n":2443,"CÃ¡c":2444,"ĠÄĳáº£o":2445,"Ġtre":2446,"Ġsáº£n":2447,"Ġtá»Ŀ":2448,"Ġtuáº§n":2449,"ĠÄĳá»ĭch":2450,"Má»įi":2451,"ĵng":2452,"ĠtrÃºc":2453,"ĠsÃ³ng":2454,"Ġráº¯n":2455,"ĠdÆ°Æ¡ng":2456,"Ġdáº¡ng":2457,"Ġchá»©a":2458,"Ġchá»ĳc":2459,"Ġcháº¯p":2460,"Æ°á»Ľp":2461,"Ġchá»īnh":2462,"iá»ħm":2463,"Vá»ģ":2464,"ĠtÃ²a":2465,"ĠnghÃ¨o":2466,"Ġtiá»ĩm":2467,"Ġná»Ļ":2468,"Ġleo":2469,"ĠngÆ°ng":2470,"Ġhuyá»ĩn":2471,"Ġthá»ķi":2472,"ĠthÃ¹ng":2473,"Ġsá»¯ng":2474,"ĠTá»ķ":2475,"ĠbÃ©n":2476,"ĠbÃ©o":2477,"ĠmÃ£nh":2478,"Máº¥y":2479,"VÃ¢ng":2480,"ĭa":2481,"ĠTriá»ģu":2482,"ĠCÆ°Æ¡ng":2483,"Ġbá»«ng":2484,"ĠÄĳiÃªn":2485,"ĠKháº¥u":2486,"ĠNgÅ©":2487,"ĠThÃ´i":2488,"ĠGiáº£":2489,"Ġháº»m":2490,"HÃ´m":2491,"ĳn":2492,"ĠmÃ£i":2493,"ĠsÄĥn":2494,"Ġthuyáº¿t":2495,"ĠchÃło":2496,"ĠCung":2497,"ĠhÃº":2498,"ĠDÆ°á»£c":2499,"ĠXÃŃch":2500,"ĠYÃªu":2501,"Ńng":2502,"Ġláº«n":2503,"ĠquÃ¡t":2504,"ĠthÆ°á»Ľc":2505,"ĠkhÃ³c":2506,"ĠtÃłu":2507,"©u":2508,"ĠbÃ¹a":2509,"ĠhÆ°":2510,"Ġháº§m":2511,"ĠKhi":2512,"ĠGiÃ¡m":2513,"ÄĲá»£i":2514,"ĠÄĳáº£m":2515,"Ġtá»©":2516,"ĠHÃ¢n":2517,"ĠphÃºc":2518,"Ġnhá»¥c":2519,"Ġnghiá»ĩp":2520,"ĠÃ¡m":2521,"Chuyá»ĩn":2522,"Ġthoáº¡i":2523,"eng":2524,"ĠÄĳa":2525,"ĠÄĳáº£":2526,"ĠnhÃ©":2527,"Ġmá»ģm":2528,"Ġquá»³":2529,"Vá»ĭ":2530,"Æ°á»Ŀn":2531,"Ġcá»¥c":2532,"Nháº":2533,"ĠcÆ°Æ¡ng":2534,"Ġmiá»ħn":2535,"Ġsay":2536,"Ġgá»ĳc":2537,"ĠÄĳá»Ľn":2538,"uyáº¿n":2539,"Ġrá»Ńa":2540,"ĠbÃ²":2541,"ĠngÆ°":2542,"Ġhy":2543,"ĠÄĲao":2544,"ĠkhÃ¡i":2545,"ĠNghÄ©a":2546,"Cuá»ĳi":2547,"Ġu":2548,"Ġlang":2549,"ĠkÃ¬nh":2550,"Ġtruy":2551,"Ġcá»±":2552,"ĠHuy":2553,"Ġbá»¥i":2554,"ĠThá»§":2555,"ĠNhan":2556,"ĠPháºŃt":2557,"ĠtÃ¡i":2558,"Ġvá»ı":2559,"ĠHáº¡":2560,"ĠDáº¡":2561,"ĠThÆ°Æ¡ng":2562,"Ġáº§m":2563,"á»ª":2564,"ĠlÃ´i":2565,"ĠlÆ°á»¡i":2566,"Ġdáº·n":2567,"ĠÄĳá»©t":2568,"Ġchiá»ģu":2569,"Ġkhinh":2570,"Ġsá»ĳt":2571,"ĠQuÃ¡n":2572,"Ġchiáº¿m":2573,"Ġsuáº¥t":2574,"ĠNhÃ¢n":2575,"¥a":2576,"ĠÄĳá»±ng":2577,"âĢľ.":2578,"ĠphÃ©p":2579,"ĠTrung":2580,"ĠÄĲÆ°á»Ŀng":2581,"ĠÄĲáº§u":2582,"ĠVáºŃy":2583,"Trá»":2584,"Ġthoáº£i":2585,"Ġ10":2586,"ĠMá»ĩnh":2587,"ĠnhÃ³m":2588,"Thiáº¿u":2589,"áº³ng":2590,"Ġmá»Ļng":2591,"ĠngÃ´i":2592,"Ġtá»ķn":2593,"Ãºa":2594,"TháºŃt":2595,"Ġáº¢":2596,"CÃ´":2597,"NÃłng":2598,"ĠãĢĳ":2599,"ĠÄĳiá»ģn":2600,"Ġná»Ł":2601,"ĠlÃ£ng":2602,"ĠngáºŃp":2603,"Ġdáº·m":2604,"ĠnghiÃªng":2605,"áº¹t":2606,"Ġngoan":2607,"ĠÄĳuÃ´i":2608,"µm":2609,"·n":2610,"ĠÆ°á»Ľc":2611,"ĠcÆ°á»¡ng":2612,"ĠcÆ°á»Ľp":2613,"ĠlÃ¢m":2614,"Ġtrá»Ļm":2615,"Ġgáº¥u":2616,"Ġrá»ĳi":2617,"Ġcá»Ń":2618,"ĠLy":2619,"Ġkhiá»ĥn":2620,"NgÃ´":2621,"Ġtháº£m":2622,"ĠsuÃ½t":2623,"DÆ°á»Ľi":2624,"iÃªm":2625,"Ġdiá»ĩu":2626,"Ġhiáº¿m":2627,"Ġhiáº¿n":2628,"Ã¬a":2629,"Ġxinh":2630,"ĠnhÃµm":2631,"Ġlá»Ĺ":2632,"ĠNá»Ļi":2633,"Ġmá»±c":2634,"ĠMá»Ļng":2635,"ĠgiÃ¡p":2636,"âĢ¦âĢĿ":2637,"BÃ¢y":2638,"¥m":2639,"Ġlan":2640,"ĠTÆ°":2641,"ĠduyÃªn":2642,"ĠchÃ¡y":2643,"Ġchá»¯a":2644,"Ġmá»ıi":2645,"ĠMai":2646,"Ġgiá»ıi":2647,"Ġcáº£n":2648,"Ġná»£":2649,"Ġkhe":2650,"ĠKhÃ¡nh":2651,"Ġcuá»ĵng":2652,"Há»©a":2653,"Ġáº¢nh":2654,"?!âĢĿ":2655,"Láº¡i":2656,"Ph":2657,"ıe":2658,"Ġnáº£y":2659,"ĠgÃ¡nh":2660,"ĠrÃ¡ch":2661,"ĠlÃłng":2662,"ĠLÃł":2663,"ĠCá»ĳc":2664,"ĠhÃºt":2665,"Pháº":2666,"ĠTÃ¢n":2667,"ĠrÃ¢u":2668,"Ġcá»Ĺ":2669,"ĠLÃºc":2670,"Ġkhá»ıe":2671,"ĠKhÆ°Æ¡ng":2672,"ĠThiáº¿t":2673,"Ġnáº¡p":2674,"ĠnÃ£y":2675,"ĠbáºŃn":2676,"ĠgÃ¡c":2677,"ĠgÃło":2678,"Ġgáº§y":2679,"Ġsá»£i":2680,"ĠKá»³":2681,"Ġháº¡ch":2682,"ĠchÃ³c":2683,"ĠgÃ£y":2684,"Ġá»ĳng":2685,"Ġcáº¥m":2686,"ĠÄĳÃ¹a":2687,"ĠtrÃ¡ng":2688,"ĠhoÃłnh":2689,"Ġcá»ĳng":2690,"Ã²i":2691,"ĠBÃ¡ch":2692,"ĠThá»Ŀi":2693,"ĠGiá»":2694,"Ġchui":2695,"Ġmuá»Ļn":2696,"BÃł":2697,"ĠÄĳáº¡p":2698,"Ġkiá»ĩt":2699,"ĠTÆ°á»Ľng":2700,"ĠngÃ¢y":2701,"Ġsáº£nh":2702,"ĠxÃ¡m":2703,"Ġcháº·n":2704,"Ġnhá»Ł":2705,"ĠSan":2706,"Ġkháº©u":2707,"Ġá»§":2708,"ĠHá»ıa":2709,"ThÃ´i":2710,"Cáº£m":2711,"oáº¡i":2712,"ĠTáº¿":2713,"Æ¡m":2714,"ĠchÃ¢u":2715,"ĠHai":2716,"ĠÄĳoáº¡t":2717,"Ġvá»¥n":2718,"¯t":2719,"Ġtáº¯m":2720,"Ġtáº©u":2721,"ĠlÆ°á»Ľt":2722,"Ġngáº©n":2723,"ĠlÃłn":2724,"Ã¬u":2725,"Ġvá»Ŀ":2726,"Ġcá»ķng":2727,"Ġlá»ĵng":2728,"NhÃ":2729,"oi":2730,"ĠÃło":2731,"Ġnáº¥u":2732,"Ġlong":2733,"Ġláº§m":2734,"ĠkÃŃn":2735,"ĠvÅ©":2736,"Ġbá»ĵi":2737,"Ġbá»ĳc":2738,"ĠTiáº¿n":2739,"ĠtrÃ¡n":2740,"Ġsung":2741,"ĠlÃłnh":2742,"Ġthan":2743,"ĠVáº¡n":2744,"Ráº¥t":2745,"¡n":2746,"ĠcÃłnh":2747,"Ġchá»įc":2748,"Ġbá»įt":2749,"Ġmá»įc":2750,"ĠSao":2751,"ĠThá»Ń":2752,"ĠÄĲá»ĭa":2753,"µn":2754,"ĠÃ´n":2755,"á»·":2756,"á»Ĵ":2757,"ĠlÄĥn":2758,"Ġvá»£":2759,"ĠhÃ¡t":2760,"ThÃ¢n":2761,"Giá»Ŀ":2762,"Ná»¯":2763,"ThiÃªn":2764,"ĠÃ´":2765,"Ġtáº¯t":2766,"Ġcáº¡n":2767,"ĠnÃ´ng":2768,"ĠvÃ¢n":2769,"ĠvÃ¡ch":2770,"ĠngÃ¢n":2771,"ĠháºŃn":2772,"Ġhá»Ł":2773,"ĠMÃ£nh":2774,"Ġkhen":2775,"Ġkháº³ng":2776,"ĠkhoÃ¡c":2777,"Ġdoanh":2778,"ĠCá»ķ":2779,"Ġ7":2780,"ĠÆ¡i":2781,"ĠTáº§m":2782,"Ġrung":2783,"Ġnhu":2784,"ĠBáº¥t":2785,"ÄĲÆ°Æ¡ng":2786,"ĠkhÃ³a":2787,"Ġhá»ĵng":2788,"ĠPhÃ¹ng":2789,"ĠgiÃłu":2790,"Sá»":2791,"Ġngáº¡i":2792,"ĠthÃ©t":2793,"ĠhÃ©t":2794,"ĠhÃ£y":2795,"Ġká»ĭch":2796,"ĠsÃ¡nh":2797,"ĠGiÃ¡c":2798,"áº¹o":2799,"Ġchuá»Ļt":2800,"ĠThuáºŃt":2801,"ĠCháº³ng":2802,"Kho":2803,"Ti":2804,"Ġ4":2805,"ĠÃŃch":2806,"ĠÄĳiá»ĩu":2807,"Ġláº¡ng":2808,"Ġngá»Ļt":2809,"Ġtráº§n":2810,"Ġtháº¯ng":2811,"ĠhÃ¹ng":2812,"Ġmá»ıng":2813,"ĠDÃ¹":2814,"Ã¨m":2815,"ĠthÆ¡m":2816,"ªnh":2817,"ĠmÃ´ng":2818,"ĠTiÃªu":2819,"Ġtha":2820,"Ġlá»ģu":2821,"Ġná»Ĺi":2822,"ÄĲiá»ģu":2823,"ĠkhÃ¡m":2824,"Ġháº¡nh":2825,"ĠThá»ĥ":2826,"Ġkhoa":2827,"Ġkhoáº£nh":2828,"ĠkhoÃ¡ng":2829,"Ġxua":2830,"Ġnguá»ĵn":2831,"¹n":2832,"ĠÄĳÃ¨":2833,"Ġbang":2834,"Ġbáº©n":2835,"ĠrÆ¡m":2836,"ĠthÃ¢m":2837,"ĠxÃ¢y":2838,"ĠgiÃ¢y":2839,"ĠKiá»ģu":2840,"Ġdá»¥c":2841,"Ġtrá»«ng":2842,"NgoÃłi":2843,"Å©a":2844,"Ġláº½o":2845,"ĠÆ°u":2846,"Ġkiá»ĩn":2847,"Ġva":2848,"Ġháº£":2849,"ĠLuÃ¢n":2850,"Ġlá»ıng":2851,"ĠÄĲÃºng":2852,"Ġtuáº¥n":2853,"Lá»¯":2854,"Má»Ĺi":2855,"CÃ´ng":2856,"ĠÄĳoÃłn":2857,"Ġná»ĵng":2858,"ĠbÃª":2859,"Ġdáº¯t":2860,"Ġchá»ĵng":2861,"ĠhÃ´ng":2862,"ĠThÃ¹":2863,"Ġeo":2864,"Ġcá»Ļt":2865,"Ġcáº¯m":2866,"ĠÄĳÃ¹i":2867,"ĠlÆ¡":2868,"Ġláº¥p":2869,"Ġbáº¡ch":2870,"ĠsÃ³c":2871,"ĠdÃ£":2872,"ĠLÃ£ng":2873,"ĠnhÃ©t":2874,"Ġnháº¥c":2875,"Thanh":2876,"ThÃ¡i":2877,"Ġxá»ķ":2878,"Giang":2879,"ĠâĢĺ":2880,"DÆ°":2881,"Gia":2882,"Xem":2883,"ĠtÃ¡o":2884,"Ġno":2885,"ĠmÃ´":2886,"Ġváº£":2887,"ĠTung":2888,"Ġgáº§m":2889,"Ġcá»Ńu":2890,"Ġdá»įc":2891,"Ġruá»Ļt":2892,"¦m":2893,"Ġ6":2894,"ĠÃ¢n":2895,"ĠcáºŃn":2896,"ĠlÆ°":2897,"ĠnghÃ¬n":2898,"ĠtrÃło":2899,"ĠxÆ°ng":2900,"ĠchÃ©n":2901,"Ġhá»Ĺn":2902,"ĠCon":2903,"Ġpháº¿":2904,"Ġmá»ı":2905,"Ġngá»Ńi":2906,"ĠBÄĥng":2907,"ĠkhuyÃªn":2908,"NgÃły":2909,"ĠSiÃªu":2910,"ĠHá»¯u":2911,"Ġquá»¹":2912,"Ġxá»ķm":2913,"Sáº¯c":2914,"ĠÛ":2915,"ĠcÆ°á»¡i":2916,"ĠlÆ°á»Ľi":2917,"Ġngá»ĳc":2918,"Ġtriá»ĩu":2919,"Ġsen":2920,"ĠsiÃªu":2921,"Ġthua":2922,"ĠTá»«":2923,"Ġlá»Ļn":2924,"Lá»Ŀi":2925,"ĠtÃŃn":2926,"ĠbÃ¹n":2927,"?!":2928,"Ġtiá»ħn":2929,"Ġcam":2930,"ĠlÃ£nh":2931,"Ġmuá»ĳi":2932,"Ġbáº¿n":2933,"ĠbÃ¡ch":2934,"ĠTÃłng":2935,"Ġsáº":2936,"âĢĿ.":2937,"Ġchá»£":2938,"ĠHÃ¬nh":2939,"ĠÄĲáº¿":2940,"Ġsá»Ńa":2941,"Ġgiá»ı":2942,"Ġngá»±":2943,"Ġká»µ":2944,"Ġgiáº£ng":2945,"ChÆ°a":2946,"ĠCho":2947,"Quáº£":2948,"ĠlÅ©y":2949,"ĠlÆ°á»£n":2950,"ĠdÃŃnh":2951,"Ġthá»ķ":2952,"Ġcá»¯u":2953,"Ġbá»Ľt":2954,"Ġdá»įa":2955,"ĠNgÃµ":2956,"Ġkhoang":2957,"ÄĲá»«ng":2958,"ChÃŃnh":2959,"Ġáº¤":2960,"Ġsáºµn":2961,"Kiá»ĥu":2962,"Ġlam":2963,"ĠTÆ°á»Ľc":2964,"Ġsong":2965,"ĠthÃ´":2966,"ĠLáºŃp":2967,"ĠBÃŃnh":2968,"Ġphen":2969,"ĠLá»ĩnh":2970,"ĠVá»ĩ":2971,"Ġná»Ļp":2972,"Tá»ĳng":2973,"ĠlÄĥm":2974,"Ġváº·n":2975,"ĠTuy":2976,"ĠngÆ°á»¡ng":2977,"ĠTrÆ°á»Ľc":2978,"NguyÃªn":2979,"ĠHoang":2980,"ĠHá»ķ":2981,"ĠbÃ³p":2982,"',":2983,"ĠnÃ¡o":2984,"Ġliá»ģu":2985,"Ġsa":2986,"Ġdá»ĳc":2987,"ĠNÃ³i":2988,"ĠTráº¡i":2989,"ĠMÃ£":2990,"Ġná»ģn":2991,"ÄĲÃ£":2992,"Ġkháº¥u":2993,"ĠThá»©c":2994,"ĠGiÃ¡o":2995,"Ġkhoáº£n":2996,"ĠcÃ´n":2997,"ĠâĢĶ":2998,"Ġmi":2999,"ĠTÃł":3000,"ĠrÃ¬u":3001,"Ġdáº§u":3002,"ĠhÆ°ng":3003,"Ġhuyá»ĩt":3004,"Ġxáº£o":3005,"ĠgiÃ¡n":3006,"Ġchá»ĳi":3007,"ĠCÃ¡i":3008,"ÄĲÃ¡m":3009,"Ãµi":3010,"ĠQuyá»ģn":3011,"CÃ¹ng":3012,"May":3013,"ĠtÄĥm":3014,"Ġtáº¯c":3015,"Ġtáº·ng":3016,"ĠÄĳáº³ng":3017,"ĠvÃŃ":3018,"ĠdáºŃp":3019,"ĠthÃ¨":3020,"ĠnÃ³n":3021,"Ġná»©t":3022,"ĠphÃ¡ch":3023,"ÄĲáº¡o":3024,"ĠPhÃ¡i":3025,"Ġá»Ľt":3026,"ĠHá»Ĺn":3027,"ĠÄĲá»īnh":3028,"Phá»¥":3029,"Dá»":3030,"Máº¹":3031,"Ġáº£i":3032,"Ġá»ĵn":3033,"Ńch":3034,"ĠtÃ´n":3035,"Ġváº¥t":3036,"Ġbáº¯c":3037,"Ġtri":3038,"Ġtrá»ĵng":3039,"ĠdÃ¬":3040,"Ġtháº§y":3041,"ĠxÃ¡ch":3042,"ĠTrÃ¬nh":3043,"ĠhÃ¡i":3044,"ĠÄĳÃ£i":3045,"Ġtháº¥u":3046,"Ġphá»ĳi":3047,"ĠThÆ°á»£ng":3048,"ĠThÃ¡nh":3049,"NÃ³":3050,"VÃµ":3051,"©o":3052,"ĠÄĳÅ©a":3053,"Ġnáº¯ng":3054,"Ġnguyá»ĩt":3055,"áº¡m":3056,"ĠgiÃły":3057,"Ġlá»¡":3058,"ĠÄĲá»ķng":3059,"Ġnghá»ĭ":3060,"ĠNhá»¯ng":3061,"uá»ĩ":3062,"Ġtáº£":3063,"Ġbáº¯p":3064,"ĠtrÆ°a":3065,"Ã³m":3066,"áº¿m":3067,"Ġtá»§":3068,"Ġtháº±ng":3069,"Ġthiá»ĩu":3070,"ĠHÃ¹ng":3071,"ĠHiá»ĥn":3072,"Ġlá»¥a":3073,"ĠÄĲÃ¬nh":3074,"ĠViá»ĩt":3075,"ÄĲang":3076,"ÄĲiá»ĥm":3077,"Ã©o":3078,"Ġtrá»¯":3079,"ĠThuáº§n":3080,"Ġ20":3081,"ĠÆ":3082,"Ġtiá»ĩc":3083,"ĠÄĳiá»ĥn":3084,"ĠÄĳáºŃm":3085,"ĠnÃ©t":3086,"Ġbiá»ĩn":3087,"Ġcá»Łi":3088,"Ġquáº¡":3089,"ĠLá»Ļ":3090,"ĠLáº¡i":3091,"ĠTriÃªu":3092,"ĠÄĲo":3093,"ĠcÃ¡t":3094,"ĠDÆ°á»¡ng":3095,"ĠBÃ¡t":3096,"ÄĲÃ³":3097,"ĠThai":3098,"ĠTháº¥t":3099,"ĠTá»©":3100,"ĠThá»«a":3101,"ĠngoÃ£n":3102,"ĠÄĲá»©c":3103,"Ġphun":3104,"Bá»įn":3105,"NhÆ°":3106,"áº¦m":3107,"Ġcáº¥u":3108,"Ġneo":3109,"Ġnon":3110,"Ġly":3111,"ĠvÃ¡c":3112,"Ġchuyáº¿n":3113,"ĠTrÃªn":3114,"ĠThan":3115,"ĠGiÃ¡p":3116,"Ġlá»ĩch":3117,"LÃłm":3118,"Ġmá»ĭt":3119,"âĢĶâĢĶ":3120,"NÄĥm":3121,"Ĥn":3122,"ĠtÃ¡ch":3123,"Ġná»ĳi":3124,"ĠnÆ°á»Ľng":3125,"ĠlÆ°á»Ŀi":3126,"ĠkÃ¬m":3127,"ĠbÃ£i":3128,"ĠchÃ´n":3129,"ĠHÆ¡n":3130,"ĠLáº§n":3131,"Ġcáº£i":3132,"ĠDao":3133,"Ġná»ģ":3134,"ĠchÃºc":3135,"ĠQuang":3136,"ĠluÃ¢n":3137,"ĠthÃ¨m":3138,"Tiáº¿p":3139,"Ġtáº·c":3140,"ĠÄĳÃ²i":3141,"ĠmÃ¡t":3142,"ĠtrÃ¨o":3143,"ĠgÃ³i":3144,"ĠdÃµi":3145,"Ġthá»¥c":3146,"ĠLiá»ĩt":3147,"Ġbá»ĩ":3148,"ĠÄĲÆ°á»£c":3149,"ĠDung":3150,"ĠBÃł":3151,"Ġtrá»£n":3152,"Ġkhuy":3153,"ĠChÃºng":3154,"ĠâĢĵ":3155,"âĺ":3156,"ĠÄĳem":3157,"Ġlá»ĳi":3158,"Ġmáº¯c":3159,"ĠmÃ³ng":3160,"Ġngáº¥t":3161,"ĠsÃ¢m":3162,"Ġdáº¡i":3163,"Ġdáº¡o":3164,"Ġdá»Ļi":3165,"Ġdá»ĵn":3166,"Ġtá»³":3167,"Ġthá»£":3168,"ĠquÃª":3169,"Ġquáº¥n":3170,"ĠxÃł":3171,"ĠCá»ĳt":3172,"ĠVÃ¬":3173,"ĠâĢľ...âĢĿ":3174,"ĠquÃ¡ng":3175,"ĠQuá»·":3176,"Tháº§n":3177,"Ġ12":3178,"ĠPhá»¥":3179,"Dáº¡":3180,"Ġlay":3181,"ĠthÃ²":3182,"ĠVáºŃt":3183,"Ġngá»¥m":3184,"ÄĲÃªm":3185,"ĠSá»":3186,"ĠÄĳá»ĵn":3187,"ĠÄĳoáº£n":3188,"Ġcuá»ĵn":3189,"ĠchÃ³i":3190,"¡u":3191,"Ġla":3192,"Ġmá»ĵi":3193,"ĠHÃ´m":3194,"ĠHÃ³a":3195,"Ġngá»įt":3196,"Ġgá»Ńi":3197,"Ġdá»ĭu":3198,"Ġáº¤t":3199,"£m":3200,"Ġ8":3201,"ĠtÃ¢n":3202,"Ġbáº¿":3203,"Ã¡u":3204,"ĠtrÆ°Æ¡ng":3205,"ĠsÃ´i":3206,"Ġrá»Ļn":3207,"ĠHiá»ĩn":3208,"ĠHoÃłn":3209,"ĠÄĲi":3210,"ĠÄĲá»ĵ":3211,"ĠkhiÃªng":3212,"ÄĲá»ĵng":3213,"Ġtrá»©ng":3214,"ĠoÃ¡n":3215,"Háº£":3216,"TiÃªn":3217,"XÃł":3218,"ĠÄĳÃ²n":3219,"ĠlÃ¡nh":3220,"Ġkiá»ĥu":3221,"Ġvay":3222,"ĠsÃºc":3223,"Ġdu":3224,"ĠdÃłnh":3225,"Ġdáº¹p":3226,"Ġtá»įa":3227,"Ġtháº¯t":3228,"ĠnhÃŃch":3229,"ĠBÃłn":3230,"Ġkháº©n":3231,"ĠThá»©":3232,"ĠQuáºŃn":3233,"Chi":3234,"VÆ°Æ¡ng":3235,"Ġmáº§m":3236,"ĠmÃ³c":3237,"ĠvÃ£":3238,"Ġhá»§y":3239,"ĠMáº¡ch":3240,"ĠTháºŃt":3241,"ĠnhÃłn":3242,"Ngá»":3243,"ĠPhÃ³":3244,"ĠPhÃºc":3245,"Ġnghiáº¿n":3246,"ĠXung":3247,"ĠLá»£i":3248,"ĠVá»«a":3249,"ĠChá»§ng":3250,"Háº¯c":3251,"Muá»ĳn":3252,"TÃ´i":3253,"Vá»ĳn":3254,"ĠÆ°á»Ľt":3255,"Ġtáº£n":3256,"ĠmÆ°u":3257,"ĠbÆ°ng":3258,"Ġgáº¡ch":3259,"Ġgá»ĳi":3260,"ĠÄĳá»Ŀ":3261,"Ġhang":3262,"ĠCÃºc":3263,"Ġpháº¥t":3264,"ĠÄĲáº¿n":3265,"Ġgiá»įt":3266,"ĠmÃłng":3267,"Ġthuáº¿":3268,"ĠSÃ¡t":3269,"Ġ100":3270,"Chá»§":3271,"HiÃªn":3272,"Máº·t":3273,"§ng":3274,"Â«":3275,"Â»":3276,"Ġcong":3277,"ĠÄĳáº±ng":3278,"ĠÄĳáº¥m":3279,"Ġnáº¥y":3280,"ĠkiÃªu":3281,"Ġváº·t":3282,"ĠngÆ¡":3283,"Ġrá»ĵng":3284,"ĠhiÃªn":3285,"Ġtá»ī":3286,"Ġvá»įt":3287,"ĠHiá»ĥu":3288,"ĠHÃłn":3289,"Ġhá»ĳt":3290,"Ã²e":3291,"ĠBang":3292,"ĠTháº£o":3293,"ĠKhÃ´n":3294,"ĠchÃ¡n":3295,"ĠsoÃ¡t":3296,"Thu":3297,"ĠNgá»į":3298,"Pháº£i":3299,".]":3300,"Táº¥t":3301,"VÃło":3302,"Ġcau":3303,"Ġnáº¿n":3304,"ĠTÆ°á»£ng":3305,"ĠsÆ°á»Ŀn":3306,"ĠrÃ³t":3307,"Ġhuyá»ģn":3308,"ĠnhÃºc":3309,"ĠDÅ©ng":3310,"Ġngá»¯":3311,"ĠNgÃły":3312,"ÄĲá»Ļt":3313,"ĠxuÃ¢n":3314,"ĠÄĲá»«ng":3315,"Thá»±c":3316,"Giá»įng":3317,"Ġvong":3318,"ĠgÃ²":3319,"Ġgáº¡t":3320,"Ġhu":3321,"Ġheo":3322,"Ġhiá»ĩp":3323,"Ġhiáº¿u":3324,"ĠnhÃ¡t":3325,"ĠVÄ©nh":3326,"ĠDo":3327,"ĠkhÃ¡ng":3328,"ĠTá»ĭch":3329,"Ġkhuáº¥t":3330,"ĠNghe":3331,"ĠOÃ¡nh":3332,"Ġá»§i":3333,"Anh":3334,"NÆ¡i":3335,"Ġ9":3336,"ĠlÄĥng":3337,"ĠbÃ¨":3338,"Ġsuá»ĳi":3339,"Ġhiáº¿p":3340,"Ġtháº©m":3341,"ĠLa":3342,"Ġhá»«":3343,"Ġkhiáº¿p":3344,"ĠkhÃ¡t":3345,"Ġkhá»Łi":3346,"ĠXÃ¡":3347,"ĠCá»±":3348,"Ġ16":3349,"ĠtoÃ¡t":3350,"ĠÃģ":3351,"ĠChiáº¿n":3352,"ĠnhÃ³c":3353,"Ai":3354,"SÃ¡ng":3355,"Viá»ĩc":3356,"ĩn":3357,"ĠbiÃªn":3358,"ĠngÃµ":3359,"ĠdÆ°a":3360,"ĠnhÆ°á»Ŀng":3361,"ĠnhÃ£":3362,"Ġhá»ıng":3363,"Ġlá»Ŀ":3364,"ĠhÃ¨":3365,"Ġphá»ķ":3366,"ĠkhÃŃch":3367,"ĠGiáº£i":3368,"ĠPhá»¥c":3369,"LÄĥng":3370,"Ġtáº¥c":3371,"ĠÄĳÄ©a":3372,"Ġbáº¡o":3373,"ĠTiá»ģn":3374,"ĠngÃ´n":3375,"ĠngÃ¹ng":3376,"ĠtrÃªu":3377,"ĠtrÃłng":3378,"Ġsáº¥m":3379,"Ġgan":3380,"ĠgÃ¡y":3381,"Æ°Æ¡n":3382,"ĠLÄ©nh":3383,"Ġphá»ıng":3384,"ĠTá»¥":3385,"ĠTrá»ĭnh":3386,"Ġnghá»ĭch":3387,"ChÃºng":3388,"PhÃŃa":3389,"HÃ¬nh":3390,"Tiá»ģn":3391,"µng":3392,"ĠáºŃp":3393,"Ġcan":3394,"Ġcáº©m":3395,"Ġláº·p":3396,"Ġven":3397,"Ġngáº¡o":3398,"Ġtriá»ĩt":3399,"ĠsÃ©t":3400,"ĠgÃ¢n":3401,"âĢĺ":3402,"ĠrÅ©":3403,"Ġroi":3404,"ĠHiÃªn":3405,"ĠLá»Ļc":3406,"ĠnÃ³c":3407,"Ġpháº¡t":3408,"Ġsá»«ng":3409,"ĠkhoÃ¡t":3410,"ĠTrá»¯":3411,"ĠÃĶng":3412,"Ġsá»Ńng":3413,"ĠÛ©":3414,"Báº¥t":3415,"XuÃ¢n":3416,"ĠÄĳinh":3417,"ĠlÃ´":3418,"Ġláº»":3419,"ĠlÃºt":3420,"ĠvÆ°Æ¡n":3421,"ĠTÃºi":3422,"ĠsÃºng":3423,"âĢĵ":3424,"ĠdÃª":3425,"ĠthÃ¡n":3426,"ĠHáº¡t":3427,"ĠCÃ´n":3428,"ĠcháºŃu":3429,"Ġsá»¥p":3430,"Ġngá»£i":3431,"Ġká»ĩ":3432,"ĠThá»¥":3433,"Ġrá»¥t":3434,"KhÃŃ":3435,"ChÃ¡u":3436,"Cáº£nh":3437,"Linh":3438,"Táº¡i":3439,"ĠtÃ¢y":3440,"ĠÄĳáºŃy":3441,"Ġná»ĵi":3442,"ĠloÃłi":3443,"Ġsáº£ng":3444,"Ġgáº¡o":3445,"ĠkhÃºc":3446,"Ġthá»ıa":3447,"á»ĳm":3448,"ĠchÄĥn":3449,"Ġchá»Ł":3450,"Ġhá»ĳ":3451,"Ġhá»Ĺ":3452,"ĠNá»":3453,"ĠNhÃ¬n":3454,"Ġdá»Ĺ":3455,"ĠHá»£p":3456,"Ġ18":3457,"ĠOa":3458,"ĠÄĲoáº¡n":3459,"ToÃłn":3460,"Ġtiá»ģm":3461,"ĠkÃª":3462,"ĠkÃ¨m":3463,"ĠngáºŃm":3464,"Ġgá»ĵm":3465,"ĠdÆ°":3466,"Ġhi":3467,"Ġthá»Ŀ":3468,"Ġnheo":3469,"Ġtháº¯p":3470,"Ġháº¹":3471,"Ġháº£o":3472,"Ġtanh":3473,"Ġlá»Ńng":3474,"Ġgiá»¥c":3475,"ĠKÃ¬nh":3476,"ĠNgá»Ļ":3477,"ĠsÃ¡o":3478,"Ġgá»įn":3479,"ĠPhÃ¬":3480,"ĠmÃ¡y":3481,"Ġkhuya":3482,"Ġbá»Ļt":3483,"ĠbÃ´ng":3484,"ĠTÃŃn":3485,"Ġráº£nh":3486,"Ġthá»ĳi":3487,"ĠthÃ¡c":3488,"ĠxÃ¢m":3489,"ĠCa":3490,"ĠThá»ĭ":3491,"ĠQuy":3492,"ĠkhÃ³e":3493,"Ġthá»§ng":3494,"ĠNhung":3495,"Ġ15":3496,"ĠchÃ¡o":3497,"Cá»©":3498,"ĠRÃ¢u":3499,"ªm":3500,"Ġ0":3501,"Ġlung":3502,"ĠbÃºp":3503,"ĠTÃ¹ng":3504,"Ġngháº":3505,"Ġquáº¡t":3506,"Ġxáº»":3507,"Ġthai":3508,"ĠchÃł":3509,"ĠHiáº¿u":3510,"ĠHÃ²e":3511,"ĠCÅ©ng":3512,"Ġbá»ģ":3513,"ĠÄĲiá»ĩn":3514,"ĠThá»ĭnh":3515,"ĠQuá»ĳc":3516,"ĠXá»ĵm":3517,"Ġ11":3518,"ÄĲá»ĥ":3519,"Luyá»ĩn":3520,"RÃµ":3521,"YÃªu":3522,"Ġ+":3523,"ĠcÆ°á»Ľc":3524,"ĠvÆ°á»Ŀn":3525,"ĠngÃ³i":3526,"ĠphiÃªn":3527,"ĠdÅ©ng":3528,"ĠÄĳá»¥ng":3529,"ĠthÃ³":3530,"Ġchá»ĳt":3531,"Ġbá»įc":3532,"ĠÄĲÃłn":3533,"ĠMÃł":3534,"Ġtá»±u":3535,"Ġkhom":3536,"Giá»ĳng":3537,"Ġháº¹p":3538,"MáºŃt":3539,"ÃĢ":3540,"Ġlá»Ļt":3541,"Ġbáº«y":3542,"ĠTá»ĳ":3543,"Ġsiáº¿t":3544,"ĠsÃ³i":3545,"ĠhÄĥng":3546,"Ġthá»ı":3547,"Ġvá»©t":3548,"ĠNiÃªm":3549,"ĠCao":3550,"Ġrau":3551,"ĠÄĲÃ£ng":3552,"ĠVÃ´":3553,"Ġnhá»ī":3554,"Ġxen":3555,"Ġthá»ĭnh":3556,"ThÃ¬":3557,"Ġhá»ĩt":3558,"Há»į":3559,")]":3560,"99":3561,"Ca":3562,"Huyáº¿t":3563,"ÃĿ":3564,"Äĳ":3565,"ĠÄĳuá»ĳi":3566,"Ġliá»ħu":3567,"ĠmÃ©p":3568,"Ġkiá»ĩm":3569,"ĠvÃ¡n":3570,"ĠTÆ°á»Ŀng":3571,"Ġráº¯c":3572,"Ġdá»ĳi":3573,"ĠxÃ³m":3574,"ĠHay":3575,"ĠmÃłi":3576,"Ġtrá»į":3577,"Ġkhoanh":3578,"Ġá»ŀ":3579,"ĠAi":3580,"ĠthÃªu":3581,"ĠluáºŃt":3582,"Ná»Ńa":3583,"ĠÄĳáº¿m":3584,"Ban":3585,"HoÃłng":3586,"Tá»ĳi":3587,"ÄĤn":3588,"Ġ.":3589,"Ġkeng":3590,"ĠvÃ²":3591,"ĠngÆ°á»£ng":3592,"ĠtrÃ¢n":3593,"ĠtrÃ³i":3594,"ĠÄĳá»įng":3595,"Ġhiá»ģn":3596,"Ġháº£i":3597,"ĠgiÃłnh":3598,"ĠLÃ¢n":3599,"ĠcháºŃt":3600,"Ġpháº«n":3601,"Ġnháº§m":3602,"ĠKhá»":3603,"TrÃ¬nh":3604,"ÄĲa":3605,"ÄĲÃ¡ng":3606,"ĠTham":3607,"ĠThÃ¢n":3608,"Ġrá»Ĺi":3609,"Ġgá»¡":3610,"Ġngá»§i":3611,"ThÃłnh":3612,"ĠMá»Ĺi":3613,"ĠNghÄ©":3614,"Ġoan":3615,"ĠOanh":3616,"Chá»Ŀ":3617,"NhÃł":3618,"MÆ°á»Ŀi":3619,"ĠÆ°":3620,"ĠtÃłng":3621,"Ġtuyá»ĥn":3622,"Ġcáº±m":3623,"Ġbi":3624,"Ġbo":3625,"Ġbiáº¿ng":3626,"ĠTÃłn":3627,"Ġngáº§m":3628,"ĠsÃ²ng":3629,"Ġsáº§m":3630,"Ġnho":3631,"Ġthiá»ĩt":3632,"ĠLÃª":3633,"ĠLÆ°á»£ng":3634,"ĠTráºŃn":3635,"ĠVÃ¢ng":3636,"ĠphÃ¡n":3637,"ĠBÃ¢y":3638,"ÄĲáº§u":3639,"Ġtrá»įn":3640,"ĠNham":3641,"ĠbuÃ´n":3642,"Cháº¯c":3643,"Loáº¡i":3644,"Váº«n":3645,"łn":3646,"ĠÄĳÃºc":3647,"ĠÄĳáº¡n":3648,"ĠlÃŃnh":3649,"ĠvÄĥng":3650,"ĠTÃªn":3651,"Ġngáº¯t":3652,"ĠngÃ¡c":3653,"Ġtriá»ĩn":3654,"ĠtrÆ°á»Ľng":3655,"ĠtrÆ°á»£t":3656,"ĠkhÃ©o":3657,"ĠráºŃm":3658,"Ġquáº¥y":3659,"ĠgiÃ£y":3660,"Ġchen":3661,"ĠCáº¥m":3662,"ĠÄĲá»Ļng":3663,"Ġkhá»§ng":3664,"Ġthiáº¿n":3665,"Ġthiáº¿p":3666,"Ġgá»£n":3667,"TháºŃm":3668,"ĠPhÆ°á»£ng":3669,"Ġ17":3670,"Ġ19":3671,"Ġnhá»ĭp":3672,"ĠcÃºng":3673,"Thá»©":3674,"á»ªm":3675,"Ká»³":3676,"Ġao":3677,"ĵi":3678,"ĠcÆ°á»Ľi":3679,"Ġli":3680,"ĠmÃºa":3681,"Ġváº¯t":3682,"Ġbá»Ļc":3683,"ĠbÃ¡m":3684,"ĠrÃ¹a":3685,"Ġlá»į":3686,"Ġlá»įt":3687,"ĠNÃ³":3688,"Ġnháº¡o":3689,"ĠÄĲÃ£":3690,"ĠÄĲinh":3691,"ĠKÃª":3692,"ĠBÃªn":3693,"ĠBÃło":3694,"Ġbá»ĭt":3695,"ÄĲá»Ļng":3696,"Ġtá»Ńu":3697,"ĠphÆ°á»Ŀng":3698,"Ġloáº¡t":3699,"ĠNhÆ°":3700,"ĠThiáº¿u":3701,"Cá»Ńa":3702,"ĠghÃ©t":3703,"Khoan":3704,"),":3705,"Ná»Ļi":3706,"Ġuá»":3707,"ĠtÃª":3708,"Ġtáº¡ng":3709,"Ġnuá»ĳi":3710,"Ġve":3711,"ĠbÃ¹ng":3712,"ĠngÃ³":3713,"Ġtro":3714,"ĠtrÃ¢m":3715,"Ã³p":3716,"ĠrÃ¡c":3717,"ĠrÃ©t":3718,"Ġtá»£n":3719,"Ġthá»«ng":3720,"Ġcá»Ľ":3721,"ĠthÃ¡o":3722,"ĠchÃªnh":3723,"Ã¹m":3724,"Ã¹n":3725,"Ġtrá»¥":3726,"ĠTháº¥y":3727,"ĠthiÃªu":3728,"Ġvá»ĭt":3729,"ĠPhiá»ģn":3730,"ÄĲá»ķng":3731,"ĠLÃłm":3732,"GÃ£":3733,"Kiáº¿m":3734,"LÃ´i":3735,"Liá»ħu":3736,"Xin":3737,"á»ĩ":3738,"ĠÄĳÃł":3739,"ĠÄĳáº¯p":3740,"Ġlanh":3741,"Ġmáº¡i":3742,"Ġbá»ĵ":3743,"ĠgÃ£i":3744,"ĠkhÃ©p":3745,"ĠrÆ°Æ¡ng":3746,"ĠdÃ£y":3747,"ĠÄĳá»£t":3748,"Ġcá»ĳi":3749,"ĠnhÄĥn":3750,"Ġxiáº¿t":3751,"ĠHoÃłi":3752,"Ġhá»ĥn":3753,"Ġhá»ĳi":3754,"Ġhá»ķn":3755,"ĠNÄĥm":3756,"ĠNÃłng":3757,"Ġbá»±c":3758,"ĠÄĲiá»ĥu":3759,"ĠÄĲÃ¡i":3760,"ĠMan":3761,"ĠâĢľ...":3762,"ĠKiá»ĩn":3763,"ĠSÃ¢m":3764,"ĠThá»ķ":3765,"ĠPhÆ°Æ¡ng":3766,"ĠNháºŃm":3767,"ChÃº":3768,"ĠPhá»¥ng":3769,"NhÃ¢n":3770,"Biáº¿t":3771,"Cáº£":3772,"Nam":3773,"¿ch":3774,"Ġáº¯t":3775,"Ġtáº©y":3776,"ĠÄĳuá»ĳc":3777,"Ġmen":3778,"ĠTuyá»ĩt":3779,"Ġtráº¡i":3780,"ĠsÆ°á»Ľng":3781,"ĠgÃ³p":3782,"Ġráº»":3783,"Ġnhiá»ħm":3784,"Ġtang":3785,"ĠCÄĥn":3786,"Ġmá»¡":3787,"Ġnháº¡y":3788,"Ġnháº¿ch":3789,"Ġnhá»£t":3790,"ĠDuá»ĩ":3791,"Ä©u":3792,"ĠtuÃ¢n":3793,"Ġkhung":3794,"ĠChuyá»ĩn":3795,"ĠChÆ°á»Łng":3796,"ĠhÃłm":3797,"ĠxuÃ´i":3798,"áº¹n":3799,"ĠNho":3800,"Ġchá»§ng":3801,"ĠHá»ī":3802,"ĠPhu":3803,"Than":3804,"PhÃ¡p":3805,"Bá»Ĺng":3806,"Trá»Ŀi":3807,"CÃ¡ch":3808,"ĠtÃ¡t":3809,"ĠtÆ¡i":3810,"ĠÄĳáº§m":3811,"ĠmÃ¬":3812,"Ġmáº£ng":3813,"Ġváº¹n":3814,"ĠtrÃ¢u":3815,"ĠthÃ¡nh":3816,"ĠxÃ³a":3817,"Ġvá»Ľt":3818,"ĠchoÃłng":3819,"Ġchá»Ńi":3820,"ĠnhÃ¡nh":3821,"ĠCáº£m":3822,"ĠMáº¥y":3823,"Ġdá»Ŀi":3824,"ĠÄĳoan":3825,"Ġ13":3826,"Ġxá»©ng":3827,"ChÃ¢n":3828,"PhÃ¹ng":3829,"---":3830,"Sá»±":3831,"Ha":3832,"TÄ©nh":3833,"ħn":3834,"ĠtÆ¡":3835,"ĠcÃ£i":3836,"ĠÄĳáº¡c":3837,"ĠnÃµ":3838,"Ġlá»Ļc":3839,"ĠvÃ©n":3840,"Ġngáº¯m":3841,"Ġsáº§u":3842,"ĠgÆ°á»£ng":3843,"ĠgáºŃy":3844,"Ġráº¡p":3845,"ĠÄĳá»©c":3846,"ĠchÃª":3847,"uyá»ħn":3848,"Ġnháº¯n":3849,"ĠÄĲÃ³":3850,"ĠÄĲÃło":3851,"ĠMáº¹":3852,"Ġtháº¥m":3853,"ĠDáº«n":3854,"ĠkhiÃªm":3855,"Ġkhan":3856,"Ġkhuyáº¿t":3857,"Ġxui":3858,"ĠPhÆ°á»Ŀng":3859,"Ġ14":3860,"Ġquyáº¿n":3861,"Nháº¥t":3862,"Bá»Ļ":3863,"Láº¥y":3864,"Má»Ļ":3865,"Viá»ĩt":3866,"§a":3867,"¨n":3868,"«m":3869,"ĠtuyÃªn":3870,"Ġtiá»ĩt":3871,"ĠÄĳáº¯m":3872,"Ġnan":3873,"ĠnÃ£o":3874,"ĠlÆ°á»¡ng":3875,"Ġláº·n":3876,"ĠvÄ©":3877,"Ġváº¡ch":3878,"ĠbÆ¡i":3879,"Ġtráº¡ch":3880,"ĠgÄĥm":3881,"ĠkhÃ´n":3882,"ĠdÃ¡n":3883,"Ġnhai":3884,"ĠLao":3885,"ĠnhÃº":3886,"Ãºy":3887,"ĠChá»":3888,"Ġnhá»ĩn":3889,"Ġná»ĭnh":3890,"TrÆ°á»Ŀng":3891,"ĠphÃ¡c":3892,"Ġnghiá»ĩt":3893,"ĠBáº£ng":3894,"Ġrá»ħ":3895,"ĠXem":3896,"ThÃ´ng":3897,"âĺħ":3898,"ĠnÃµn":3899,"Báº£n":3900,"Háº¡":3901,"Káº¿t":3902,"Xo":3903,"á»ĥ":3904,"ĠtÃºng":3905,"ĠcÆ°":3906,"ĠcÃłi":3907,"ĠÄĳáº¯t":3908,"ĠmáºŃp":3909,"Ġmá»Ļc":3910,"Ġkáº½":3911,"Ġkiá»ĩu":3912,"Ġkáº¹p":3913,"Ġkáº¹t":3914,"Ġbia":3915,"ĠbáºŃy":3916,"ĠrÃŃt":3917,"Ġcá»¡":3918,"ĠthÃł":3919,"ĠnhÆ°á»Ľng":3920,"ĠCáºŃu":3921,"Ġcháº§n":3922,"ĠchoÃ¡ng":3923,"ĠphÃ¡o":3924,"ĠBÃ¡o":3925,"ĠÄĳÃ¡o":3926,"Ġkhá»ĳc":3927,"ĠSÆ¡":3928,"ĠChuyá»ĥn":3929,"ĠYÃªn":3930,"ĠLá»ĩ":3931,"Vá»Ľi":3932,"Nhá»ĭ":3933,"ĠCháº¯c":3934,"ĠnghÃªnh":3935,"ĠHáº¡m":3936,"Ġbá»ĩch":3937,"Gáº§n":3938,"HÃłn":3939,"Máº¡c":3940,"Ġuyá»ĥn":3941,"á»Ĺi":3942,"Ġváº¯ng":3943,"ĠTÃ¡n":3944,"Ġgá»¥c":3945,"ĠrÃ¨m":3946,"ĠÄĳá»ĳn":3947,"ĠhoÃłi":3948,"Ġháº¥t":3949,"Ġhá»ĳc":3950,"ĠhÃ£n":3951,"ĠÄĲÆ°Æ¡ng":3952,"Ġnhá»įn":3953,"Ġtrá»ħ":3954,"áº±n":3955,"Ġháº¡p":3956,"ĠKhÃ¢u":3957,"ĠQuáº£":3958,"ĠCha":3959,"ĠkhuÃª":3960,"Ġvá»ĩt":3961,"ĠmÃªnh":3962,"ĠÆ¯ng":3963,"Ġxáº»o":3964,"Long":3965,"TÃ¬nh":3966,"VÃŃ":3967,"Ġung":3968,"Ġin":3969,"ĠlÃºa":3970,"ĠmÃŃ":3971,"Ġmá»ĳt":3972,"ĠkÃ¬a":3973,"ĠvÃ¡ng":3974,"ĠngÃ´":3975,"Ġráº½":3976,"Ġdiá»ħm":3977,"ĠÄĳá»Ĺ":3978,"Ġthong":3979,"ĠcÃµng":3980,"Ġpháº£":3981,"ĠMáº«u":3982,"Ġnghiá»ģn":3983,"ĠNgay":3984,"ĠSÃ¢n":3985,"Ġrá»įi":3986,"ĠÄĳá»ĩm":3987,"ĠChÃºc":3988,"Ġtuyáº¿n":3989,"GiÃ¢y":3990,"ĠVá»ĭ":3991,"ĠBá»įn":3992,"Phu":3993,"ĠNá»¯":3994,"BÃ³ng":3995,"Huá»ĳng":3996,"HÃ³a":3997,"Minh":3998,"So":3999,"TÃŃnh":4000,"©y":4001,"ĠÂ«":4002,"ĠtÃ¡":4003,"ĠÄĳáº¡m":4004,"ĠnÃ¢u":4005,"Ġniá»ģm":4006,"Ġváº§ng":4007,"ĠbÃ³i":4008,"ĠsÃłng":4009,"Ġsáº¹o":4010,"áº¿c":4011,"ĠkhÃłn":4012,"Ġquai":4013,"ĠxÃ£":4014,"ĠxÃŃch":4015,"Ġgiáº«m":4016,"ĠchÃ¹":4017,"ĠHÆ°á»Ľng":4018,"Ġtao":4019,"Ã¹y":4020,"Ġná»¡":4021,"Ġná»į":4022,"ĠTheo":4023,"ĠTháº¡c":4024,"ĠSá»Ł":4025,"KhÃ³":4026,"ĠchuÃ´i":4027,"TháºŃp":4028,"ĠÄĲá»ĥ":4029,"Ġxá»ī":4030,"PhÃ¹":4031,"ĠMá»įi":4032,"ĠÃģi":4033,"Má»Ł":4034,"Rá»ĵi":4035,"Tiáº¿t":4036,"ja":4037,"ĠÄĳiáº¿m":4038,"ĠnÃ£i":4039,"Ġviá»ħn":4040,"Ġváº¡t":4041,"Ġbáº¥m":4042,"ĠrÆ°á»¡i":4043,"Ġthá»ģ":4044,"Ġtháº£y":4045,"Ġxao":4046,"ĠxÃ³t":4047,"Ġvá»Ŀi":4048,"ĠchÆ°Æ¡ng":4049,"ĠCÃ´":4050,"Ġcháº©n":4051,"Ġnhá»§":4052,"Ġnhá»©c":4053,"Ġgiá»¥a":4054,"ĠKáº¿t":4055,"ĠBá»ĳ":4056,"ÄĲá»ĵ":4057,"ĠThiá»ģn":4058,"ĠTháº¯ng":4059,"Ġchua":4060,"Ġchuá»ĵng":4061,"ĠChÃº":4062,"ĠÄĲá»ĩ":4063,"Ġtráº»o":4064,"inja":4065,"ĠghÃ©p":4066,"âĢĻ,":4067,"ĠGiá»Ľi":4068,"BÃło":4069,"Hay":4070,"Kháº¥u":4071,"Suy":4072,"Tam":4073,"Tá»ĳt":4074,"³m":4075,"ĠÃºt":4076,"Ġtáº¥p":4077,"ĠÄĳÄĥng":4078,"ĠlÆ°á»Ŀng":4079,"ĠlÃ¡ch":4080,"ĠmiÃªu":4081,"Ġbáº»":4082,"Ġngáº«u":4083,"Ġtrao":4084,"Ġtrá»Ļn":4085,"ĠdÃło":4086,"Ġtá»§y":4087,"Ġnhao":4088,"ĠgiÆ°Æ¡ng":4089,"ĠchÃ¨o":4090,"Ġchá»ĳn":4091,"ĠHá»ĵi":4092,"ĠÄĳÃ£ng":4093,"ĠVáºŃn":4094,"Ġná»ĥ":4095,"ĠBinh":4096,"ĠBáº£n":4097,"Ġphá»ĩ":4098,"Ġhá»įng":4099,"Ġpha":4100,"Ġkhá»ĳn":4101,"ĠTá»§y":4102,"ĠTá»ĭnh":4103,"ĠChÆ°a":4104,"Ġá»Ńng":4105,"Ġchum":4106,"ĠphiÃªu":4107,"ĠÄĲá»£i":4108,"ĠDá»±c":4109,"Ġká»ĭt":4110,"Tá»Ń":4111,"Giá»¯a":4112,"ĠghÃ©":4113,"Trá»«":4114,"Ġngháº¹n":4115,"Ġuá»ķng":4116,"Bá»ĳn":4117,"CÃłng":4118,"HÃł":4119,"HoÃłn":4120,"Kháº":4121,"Khá»":4122,"cÃ³":4123,"uá»ķi":4124,"Ġváº¹o":4125,"Ġgáº·m":4126,"ĠrÃło":4127,"ĠdÃ¢u":4128,"ĠÄĳá»¥c":4129,"Ġnhan":4130,"Ġtháº¡o":4131,"Ġque":4132,"Ġxáº¡":4133,"Ġxáº¯n":4134,"ĠxÃło":4135,"Ġgiáº·c":4136,"ĠTrÃłng":4137,"ĠCÃ¹ng":4138,"ĠÄĲÃłi":4139,"ĠcÃ¡n":4140,"Tráº¥n":4141,"ĠnháºŃt":4142,"Ġrá»Ĺng":4143,"Cha":4144,"ĠUng":4145,"Ġsoi":4146,"ÄĲá»©ng":4147,"Tá»«ng":4148,"Quan":4149,"ĠVá»ģ":4150,"ĠnhÃ³i":4151,"Tuá»ķi":4152,"Dá»±a":4153,"âĺĨ":4154,"Ġhuáº¥n":4155,"ĠthÃ³i":4156,").":4157,"Sá»ĳ":4158,"Váº»":4159,"Váº¥n":4160,"«u":4161,"ĠÃºy":4162,"ĠÄĳÃ²":4163,"ĠlÃ¹n":4164,"ĠvÃ³":4165,"ĠTáº¥t":4166,"ĠTÆ°á»Łng":4167,"ĠTáº¡p":4168,"Ġráº£i":4169,"Ġtá»ĵi":4170,"Ġtháº³m":4171,"Ġquáº¥t":4172,"Ġvá»Ł":4173,"Ġgiáº·t":4174,"Ġchá»Ńng":4175,"Ġhá»©a":4176,"Ġcháº¥m":4177,"ĠhÃ²n":4178,"ĠÄĲá»Ļc":4179,"Ġnhá»ĳt":4180,"Truy":4181,"ĠtuÃ´n":4182,"Ġngá»Ńa":4183,"ĠBan":4184,"Ġphá»ĵn":4185,"Ġrá»ī":4186,"ĠPhÃº":4187,"Ġá»ķ":4188,"Ġá»ªm":4189,"Ġnháº¹n":4190,"ĠngoÃ¡i":4191,"Ġson":4192,"ÄĲá»ĩ":4193,"ĠxoÃ¡y":4194,"ĠKhÆ°":4195,"ĠKhai":4196,"ĠmÃ£ng":4197,"ĠNgá»±":4198,"GiÃ³":4199,"ĠdiÃªm":4200,"ĠNhÃł":4201,"ĠNhÃ£n":4202,"ĠtÃºm":4203,"ĠGiá»Ŀ":4204,"ĠâĢĶâĢĶ":4205,"ĠDoÃ£n":4206,"Ġboong":4207,"Bá»ĳ":4208,"DÆ°á»Ŀng":4209,"DÃ¹ng":4210,"NÃły":4211,"Ráº§m":4212,"om":4213,"Ãģ":4214,"ĠtÃ¡ng":4215,"ĠcáºŃp":4216,"Ġcá»Ļc":4217,"Ġcuá»ĳc":4218,"ĠÄĳiáº¿u":4219,"ĠnÃ´n":4220,"ĠlÃª":4221,"Ġláº«y":4222,"Ġmáº¥u":4223,"ĠmÃ²n":4224,"ĠvÄ©nh":4225,"Ġbáº§n":4226,"Ġbáº¥y":4227,"ĠbÃ¬a":4228,"ĠTáº¡i":4229,"ĠTÃ´i":4230,"Ġtráº¯c":4231,"ĠsÃłn":4232,"Ġgiáº¿ng":4233,"ĠrÃ¹ng":4234,"Ġháº¹n":4235,"ĠxÄĥm":4236,"ĠNáº¡p":4237,"Ġbá»«a":4238,"ĠhÃŃ":4239,"ĠhÃ¢m":4240,"ĠÄĲÃ¡ng":4241,"ĠMuá»ĳn":4242,"ĠDiá»ĩu":4243,"ĠKháº":4244,"ĠBÃłng":4245,"ĠNgÃłi":4246,"Ġphá»ĵng":4247,"ĠSong":4248,"Ġkhoan":4249,"ĠChÆ°Æ¡ng":4250,"ĠLá»ħ":4251,"Há»«":4252,"Há»ī":4253,"Ġmá»ĵm":4254,"**":4255,"BÆ°á»Ľc":4256,"Em":4257,"Há»ĵ":4258,"MÃ¨o":4259,"Ra":4260,"Tay":4261,"TÃ¬m":4262,"hen":4263,"ĠtáºŃt":4264,"Ġtáº¯p":4265,"ĠcÃło":4266,"ĠcáºŃy":4267,"Ġninh":4268,"Ġnáº¥p":4269,"Ġnáº¯p":4270,"Ġnáº¿m":4271,"ĠlÃ¡i":4272,"Ġluyáº¿n":4273,"ĠkiÃªng":4274,"ĠvÃºt":4275,"Ġnga":4276,"ĠngÃ¡y":4277,"Ġgom":4278,"Ġghen":4279,"á»Ļp":4280,"Ġdáº£i":4281,"Ġtá»ĳng":4282,"ĠquáºŃt":4283,"ĠgiÃ¡ng":4284,"ĠNinja":4285,"ÃŃu":4286,"ĠÄĲiá»ģu":4287,"ĠViá»ĩc":4288,"ĠMÆ°á»Ŀi":4289,"ĠMÃ£ng":4290,"Ġná»Ĺ":4291,"Ġngá»©a":4292,"Ġphá»ī":4293,"Ġká»·":4294,"ĠnhÃło":4295,"ĠThá»ĳi":4296,"ĠtiÃªm":4297,"ĠGiao":4298,"ĠChung":4299,"Ġphá»¥ng":4300,"Ġchuá»Ĺi":4301,"ĠHá»į":4302,"PhÃ¡t":4303,"ĠVá»Ľi":4304,"uá»Ĺi":4305,"ĠÛŀ":4306,"ĠnhÃºn":4307,"BÃ¬nh":4308,"Cao":4309,"CÃºc":4310,"Káº»":4311,"Keng":4312,"uá»ĵng":4313,"ĠÆ°ng":4314,"ĠuyÃªn":4315,"Ġá»ĳm":4316,"ĭt":4317,"Ńc":4318,"Ġcay":4319,"Ġcáº·p":4320,"ĠÄĳáº·n":4321,"ĠÄĳáº«m":4322,"Ġnáº·c":4323,"Ġliáº¿m":4324,"Ġláº£o":4325,"ĠmÃ¢m":4326,"ĠbÃ³c":4327,"ĠTáº©y":4328,"ĠngÃło":4329,"ĠtrÃº":4330,"ĠtrÃ¹m":4331,"Ġrá»Ļ":4332,"ĠrÆ°á»Ľc":4333,"ĠdÃ¨":4334,"Ġduá»Ĺi":4335,"Ġtá»ĭ":4336,"ĠxÃ¬":4337,"ĠxÃ¹":4338,"Ġxá»Ļn":4339,"Ġthiá»ĩp":4340,"ĠHa":4341,"ĠHuyá»ĩn":4342,"ĠcÃºc":4343,"ĠTruyá»ģn":4344,"Ġnháº¡c":4345,"ĠDÃ£":4346,"Ġná»įt":4347,"ĠBiÃªn":4348,"ĠBá»Łi":4349,"ĠthÃ¬nh":4350,"ĠÃ¡i":4351,"ĠhoÃ£n":4352,"Ġrá»ĥ":4353,"Ġkhoe":4354,"ĠXu":4355,"ĠXuyÃªn":4356,"ThÃº":4357,"ĠcÃºt":4358,"ĠÃĿ":4359,"ĠÃģnh":4360,"GiÃ¡":4361,"----":4362,"ĠSá»±":4363,",âĢĿ":4364,"100":4365,"CÄĥn":4366,"CÃ¡nh":4367,"Giáº¿t":4368,"Kiáº¿p":4369,"Táº§ng":4370,"²m":4371,"ĠÂ»":4372,"ĠcÆ°á»£c":4373,"Ġnáº¡t":4374,"Ġman":4375,"ĠmÃºc":4376,"ĠToÃłn":4377,"ĠngÃºt":4378,"Ġngáº«m":4379,"ĠtrÆ¡n":4380,"Ġsan":4381,"ĠgÃłng":4382,"Ġgam":4383,"Ġdá»ĵi":4384,"Ġthá»ĳt":4385,"Ġnham":4386,"Ġquáº»":4387,"ĠxÃ¡":4388,"ĠgiÃ£n":4389,"ĠnhÃ´":4390,"Ġcháº¡p":4391,"Ġbá»ķng":4392,"ĠÄĲa":4393,"ĠMiáº¿u":4394,"Ġchoáº¡ng":4395,"Ġngá»Ŀi":4396,"ÄĲÃ´i":4397,"Ġhoáº¡n":4398,"ĠThá»¥y":4399,"Ġloáº¡ng":4400,"ĠXiá»ĥn":4401,"Ġphá»§i":4402,"Ġthon":4403,"ĠvuÃ´ng":4404,"Lá»±c":4405,"Há»įc":4406,"ĠÃĢ":4407,"Cháº¿t":4408,"Ġmá»ĭn":4409,"Khu":4410,"Chá»Ĺ":4411,"PhÆ°Æ¡ng":4412,"Chiáº¿c":4413,"Ġgame":4414,".ãĢĳ":4415,"Ho":4416,"Hiá»ĩu":4417,"HÃłnh":4418,"ħu":4419,"ĠÄ©":4420,"ĠlÃµ":4421,"ĠlÃºng":4422,"ĠlÃ£i":4423,"ĠlÃ³t":4424,"ĠkÃ¬":4425,"Ġkeo":4426,"Ġkiá»ģm":4427,"Ġbáº¡t":4428,"ĠngÃ³ng":4429,"Ġsáº«m":4430,"Ġgai":4431,"Ġgáº¯p":4432,"ĠÄĳá»ĳ":4433,"uynh":4434,"Ġtháº¯n":4435,"Ġtháº£i":4436,"Ġtháº¹n":4437,"ĠHáºŃu":4438,"ĠLiÃªn":4439,"Ġcá»§ng":4440,"Ġcháº»":4441,"Ġnháº£m":4442,"ĠÄĲÆ¡n":4443,"ĠMau":4444,"ĠMÃ´ng":4445,"ĠBÃª":4446,"ĠNgÆ°ng":4447,"ÄĲao":4448,"ĠThÃ¬":4449,"ĠhoÃ¡n":4450,"Ġrá»Ĺ":4451,"ĠQuÃ½":4452,"ĠXin":4453,"ĠChÃŃ":4454,"ĠthoÃ¡i":4455,"ĠtoÃ¡i":4456,"Quáº¡":4457,"ĠhÃ²m":4458,"Ġnua":4459,"Bá»ĭ":4460,"Háº§u":4461,"Há»ĵi":4462,"Máº¯t":4463,"MÃ£i":4464,"TÃ¢m":4465,"TÃło":4466,"VÃł":4467,"Xe":4468,"YÃªn":4469,"Ġa":4470,"ĠÆ°a":4471,"Ġuá»ĳn":4472,"ĠÃ¹a":4473,"á»Ŀi":4474,"ĠÄĳÃ´":4475,"ĠÄĳai":4476,"Ġnáº£n":4477,"Ġlá»Ļng":4478,"ĠlÃ³c":4479,"Ġmáº»":4480,"Ġmáº¡n":4481,"Ġvinh":4482,"ĠTÃ½":4483,"ĠTáº¿t":4484,"ĠTÃ¹y":4485,"Ã³e":4486,"ĠsÃło":4487,"ĠrÃº":4488,"Ġráº¡ch":4489,"Ġráº§m":4490,"Ġráº¡ng":4491,"Ġdinh":4492,"Ġtá»¥ng":4493,"ĠquÃł":4494,"ĠxÆ°á»Łng":4495,"Ġchá»¥p":4496,"ĠnhÃ£n":4497,"Ġhá»±c":4498,"ĠTrÃ¡i":4499,"Ġnháº¥p":4500,"ĠÄĲá»ĳi":4501,"ĠVi":4502,"Ġsá»įt":4503,"Ġgiá»Ł":4504,"ĠBáº¯t":4505,"ĠBá»ĳi":4506,"ÄĲan":4507,"ÄĲÆ°á»Ŀng":4508,"ĠPhá»ī":4509,"ĠChÆ°á»Ľng":4510,"Ġá»Ĵ":4511,"Ġchuá»Ļc":4512,"Tháº±ng":4513,"Ġbuá»ĵm":4514,"ĠTrá»Ŀi":4515,"ÄĲá»©a":4516,"Ġdá»ĭp":4517,"Haiz":4518,"Nhá»Ľ":4519,"Ġ70":4520,"ĠnhuáºŃn":4521,"Ġláº»n":4522,"Xoáº¹t":4523,"BÃłn":4524,"Buá»ķi":4525,"Huynh":4526,"Lao":4527,"NÃło":4528,"Tiáº¿n":4529,"khÃ":4530,"ĠtÃ³e":4531,"Ġnanh":4532,"ĠnÃŃn":4533,"Ġliá»ĩp":4534,"ĠmiÃªn":4535,"ĠkÃŃ":4536,"ĠvÅ©ng":4537,"ĠTiá»ħn":4538,"ĠtrÆ°ng":4539,"Ġgiáº¿m":4540,"Ġgá»ĳm":4541,"Ġdá»Ł":4542,"ĠnhÅ©":4543,"Ġnhiá»ħu":4544,"Ġtháº¯c":4545,"âĢľ...":4546,"ĠgiÃ²n":4547,"Ġchá»«":4548,"Ġchá»Ļ":4549,"ĠLÆ°":4550,"Ġhá»«ng":4551,"ĠNiÃªn":4552,"Ġbá»Ľi":4553,"ĠhÃ£m":4554,"Ġnháº±m":4555,"ĠÄĲáº£":4556,"ĠÄĳiÃªu":4557,"Ġgiá»ħu":4558,"ĠDÆ°á»Ľi":4559,"ĠKÃ½":4560,"Trá»Ł":4561,"Ġngá»¥y":4562,"ĠBiáº¿t":4563,"ÄĲá»Ļ":4564,"Ġphanh":4565,"Ġkhá»Ľp":4566,"ĠQuáº£n":4567,"ĠPhÃ¡":4568,"ĠPhÃŃ":4569,"KhÃ¡c":4570,"Ġthoáº¡t":4571,"Ġbá»ıng":4572,"ĠÄĳun":4573,"Ġláº¡y":4574,"QuÃ¡":4575,"Quay":4576,"QuáºŃn":4577,"Quáº£n":4578,"ĠbÃ¡u":4579,"ĠnhÃ³t":4580,"ĠRáº¥t":4581,"ĠghÃª":4582,"ĠBá»ĭ":4583,"Ġ50":4584,"ĠÆ¯":4585,"ĠchÃłng":4586,"ThÃºy":4587,")ãĢĳ":4588,"CÆ¡":4589,"Do":4590,"LiÃªn":4591,"MÃ¬nh":4592,"MiÃªu":4593,"Táº§m":4594,"VÃ´":4595,"VÃ¹":4596,"VÄĥn":4597,"phÃ":4598,"§i":4599,"Ġá»ĳc":4600,"Ġnáº¡":4601,"ĠnÃ¡y":4602,"Ġváº£y":4603,"ĠbÄ©u":4604,"Ġngáº£":4605,"Ġgáº¯t":4606,"Ġráº§y":4607,"ĠrÃ¬a":4608,"ĠthÃ©p":4609,"Ġtháº«m":4610,"Ġthao":4611,"Ġgieo":4612,"ĠchÆ°":4613,"Ġchá»ķi":4614,"ĠHÆ°":4615,"Ġhá»¥t":4616,"Ġlá»įc":4617,"ĠNÃ´":4618,"ĠNÆ¡i":4619,"ĠTrÃ¡o":4620,"ĠcháºŃp":4621,"Ġnhá»ķ":4622,"ĠMáº·t":4623,"ĠMÃ¢u":4624,"ĠDiÃªm":4625,"ĠKiáº¿n":4626,"ĠÄĳÃ³a":4627,"Ġdá»¥i":4628,"ĠBÃŃch":4629,"ĠNgoÃłi":4630,"ÄĲáº·t":4631,"Ġtrá»¥i":4632,"ĠÃ¡y":4633,"Ġká»ģ":4634,"Ġká»ģn":4635,"ĠphÆ¡i":4636,"ĠphÆ°á»£ng":4637,"NgÃłi":4638,"ĠHoÃ£n":4639,"Ġvá»ĭn":4640,"ĠQuáº£ng":4641,"ĠCá»©":4642,"Ġtoáº¡c":4643,"Ġphiáº¿n":4644,"Ġphiáº¿u":4645,"ThÆ°á»£ng":4646,"Thá»§y":4647,"GiÃ¡c":4648,"Má»Ľi":4649,"KhÆ°Æ¡ng":4650,"ĠBá»ķ":4651,"HÃ´":4652,"LáºŃp":4653,"Mang":4654,"MÃ¡u":4655,"Tinh":4656,"Tá»ĳc":4657,"nháº":4658,"uá»Ļc":4659,"ĠI":4660,"á»¹":4661,"áº³n":4662,"Ġty":4663,"Ġtáº£i":4664,"ĠnÃºt":4665,"Ġleng":4666,"Ġváº¡i":4667,"ĠvÃ³c":4668,"ĠbÃ¬":4669,"ĠbÃ£o":4670,"ĠTÃłi":4671,"ĠTá»ĳt":4672,"ĠtrÃºt":4673,"Ġgáº£":4674,"Ġpin":4675,"ĠhÅ©":4676,"Ġcá»į":4677,"ĠthÆ°a":4678,"Ġgiáº±ng":4679,"ĠchÄĥng":4680,"ĠCáº¥p":4681,"ĠCuá»ĳi":4682,"Ġpháº³ng":4683,"Ġpháº©y":4684,"ĠhÃŃp":4685,"Ġmá»ķ":4686,"ĠÄĲáº¥t":4687,"ĠDiá»ħn":4688,"Ġná»ı":4689,"ÄĲÃ¡nh":4690,"Ġtrá»¥c":4691,"ĠThÃ´n":4692,"Ġrá»ĩt":4693,"ĠPha":4694,"Ġphiáº¿m":4695,"Qua":4696,"ĠPháº£i":4697,"Nhanh":4698,"ĠRÃµ":4699,"Ġnhuá»Ļm":4700,"Khoáº£nh":4701,"Ġpháº£ng":4702,"??":4703,"Bao":4704,"CÃ¢u":4705,"Hiá»ĥu":4706,"Sá»Ł":4707,"Yáº¿n":4708,"ÃĤm":4709,"Ġâĺħ":4710,"ĠtÆ°á»Ľi":4711,"ĠtÃ¹ng":4712,"ĠcÃły":4713,"ĠÄĳáº¯ng":4714,"ĠliÃªu":4715,"Ġliá»ħm":4716,"ĠmÃ¢u":4717,"Ġmáº·n":4718,"ĠvÃ¡":4719,"ĠvÃ¹":4720,"ĠvÃ£n":4721,"ĠTÃŃnh":4722,"Ġngáº¡t":4723,"ĠtrÆ¡":4724,"Ġsáº¡p":4725,"áº¿ch":4726,"ĠgÃ¹":4727,"Ġrong":4728,"Ġquáº©n":4729,"Ġquáº§ng":4730,"Ġchá»Ľ":4731,"ĠHáº¡c":4732,"Ġhá»Ŀ":4733,"ĠNÄĥng":4734,"ĠTráº¯c":4735,"ĠTrÃ¹ng":4736,"ĠcháºŃc":4737,"ĠhÃ©":4738,"Ġná»ĩn":4739,"ĠBÃ¡":4740,"ĠBÃ©o":4741,"ÄĲÆ°a":4742,"Ġtrá»ĩ":4743,"Ġkhá»©":4744,"Ġkhá»±ng":4745,"Æ°á»Łi":4746,"Ġloa":4747,"ĠloÃ¡ng":4748,"Ġá»ıi":4749,"ĠPhan":4750,"Ġphim":4751,"Ġruá»ĵi":4752,"ÄĲá»ģu":4753,"Ġtráº£m":4754,"Giáº£":4755,"ĠTuá»ĩ":4756,"ĠGiam":4757,"Ġ30":4758,"ĠBá»ĩnh":4759,"ĠHuynh":4760,"ĠGiá»įng":4761,"KhÃ³e":4762,"ĠlÃµm":4763,"ĠÄĳá»ĳm":4764,"Há»ĵng":4765,"Rá»ĳt":4766,"Vu":4767,"oan":4768,"¹t":4769,"Ġáº£m":4770,"ĠtÃ³m":4771,"Ġcuá»ĳng":4772,"ĠÄĳe":4773,"ĠÄĳáº¯n":4774,"ĠnáºŃp":4775,"ĠlÃ¢n":4776,"ĠvÃ¢ng":4777,"ĠbÃ£":4778,"ĠbÃ´i":4779,"Ġbáº§m":4780,"ĠTÃ¡t":4781,"Ġtráº£o":4782,"ĠsáºŃp":4783,"Ġsáº¯m":4784,"ĠsáºŃy":4785,"Ġgáº¥m":4786,"ĠrÃ²ng":4787,"Ġdáº«m":4788,"Ġtá»§m":4789,"ĠnhÆ°á»£c":4790,"Ġtháº§u":4791,"ĠxÃ¢u":4792,"Ġthen":4793,"ĠchÆ°á»Ľng":4794,"ĠLáº¥y":4795,"ĠnhÃºng":4796,"Ġhá»Ľn":4797,"Ġlá»©a":4798,"Ġlá»¥y":4799,"ĠTrÆ°ng":4800,"Ġranh":4801,"Ġbá»ķn":4802,"ĠÄĲÃł":4803,"ĠÄĲÃªm":4804,"Ġsá»ī":4805,"Ġsá»§a":4806,"ĠDi":4807,"Ġtuá»ĩ":4808,"Ã²a":4809,"ĠBÃºp":4810,"Ngoáº¡i":4811,"ĠThá»ĳng":4812,"Ġloang":4813,"Ġrá»¥ng":4814,"ĠNha":4815,"ĠmuÃ´n":4816,"ĠTrá»¥":4817,"ThÆ°Æ¡ng":4818,"Quáº¿":4819,"ĠTuá»ķi":4820,"ĠNhÃ£":4821,"Ġoai":4822,"Phá»¥c":4823,"Trá»ĭnh":4824,"Ġtá»īm":4825,"ĠkÃŃp":4826,"ĠnhÅ©n":4827,".âĢĻ":4828,"10":4829,"BÃ¡t":4830,"Báº£o":4831,"DÃ¬":4832,"Huyá»ģn":4833,"Mau":4834,"SÃ¡u":4835,"TÆ°":4836,"Váº¿t":4837,"gi":4838,"³nh":4839,"Ġ[":4840,"Ġá»¥c":4841,"Ġcáº¡o":4842,"Ġláº¥m":4843,"ĠlÃ©o":4844,"ĠbÃºi":4845,"Ġbuá»ĳt":4846,"ĠTay":4847,"ĠTuyÃªn":4848,"Ġngáº§u":4849,"ĠtrÄ©u":4850,"Ġsáº»":4851,"ĠdÆ¡":4852,"ĠdÃ¢m":4853,"Ġdáº«u":4854,"ĠhuyÃªn":4855,"Ġham":4856,"Ġthá»ıi":4857,"Ġcá»įng":4858,"Ġnhang":4859,"Ġháº±ng":4860,"ĠxiÃªn":4861,"Ġxá»Ļc":4862,"Ġthung":4863,"ĠnÃłn":4864,"ĠgiÄĥng":4865,"Ġchai":4866,"ĠLÆ°á»£c":4867,"Ġhá»§":4868,"Ġlá»Ł":4869,"Ġlá»£n":4870,"ĠhÃ©o":4871,"Ġnháº¥n":4872,"ĠBá»ĵ":4873,"ĠNgá»¥c":4874,"ĠNgoáº¡i":4875,"Ġphá»ĭch":4876,"ĠkhÆ°":4877,"ĠdÃ¹i":4878,"Ġphe":4879,"ĠSo":4880,"ĠSÃłi":4881,"Å©i":4882,"Ġhoáº¡i":4883,"ĠTá»©c":4884,"ĠGiáº¿t":4885,"Ġchuá»ĵn":4886,"ĠNhu":4887,"ĠHá»«":4888,"Ġthoang":4889,"ĠNhiáº¿p":4890,"ÃĶi":4891,"ĠDá»¥":4892,"ĠchÃ³t":4893,"Há»ıa":4894,"ĠNghiÃªm":4895,"PhÃ²ng":4896,"PhÃºc":4897,"ĠÃĶn":4898,"uá»³nh":4899,"ĠchÃ¬a":4900,"Cá»ķ":4901,"Phan":4902,"Ngá»įc":4903,"ĠhÃ¨n":4904,"Ġthá»ım":4905,"khÃ´ng":4906,"Cuá»Ļc":4907,"LÃ²ng":4908,"Má»Ļng":4909,"Phi":4910,"Sinh":4911,"TÃ¡m":4912,"tr":4913,"ĠÃ¹":4914,"īu":4915,"á»µ":4916,"ĠtÆ°á»Ľc":4917,"Ġtáº©m":4918,"ĠÄĤn":4919,"ĠÄĳáº«n":4920,"ĠÄĳÃŃnh":4921,"Ġnung":4922,"ĠlÆ°á»£c":4923,"Ġláº³ng":4924,"Ġkiá»ģu":4925,"ĠvÃ¹i":4926,"Ġbáº§y":4927,"ĠbÃºa":4928,"ĠTá»ĳi":4929,"Ġngáº·t":4930,"ĠngÃłnh":4931,"ĠngÃ²i":4932,"ĠsÆ°ng":4933,"Ġsáº¥p":4934,"ĠsÃ¹ng":4935,"Æ¡ng":4936,"ĠrÃªn":4937,"Ġreo":4938,"Ġráº¯m":4939,"ĠrÃ£nh":4940,"Ġdáº»":4941,"ĠdÃ¬u":4942,"Æ°á»Ŀm":4943,"Ġtá»¥t":4944,"Ġthá»Ľt":4945,"Ġthá»īu":4946,"Ġnhe":4947,"Ġnhuá»ĩ":4948,"ĠLáº½":4949,"ĠLiÃªu":4950,"ĠLoáº¡i":4951,"ĠNÃły":4952,"ĠhÃª":4953,"ĠÄĲÃ´":4954,"ĠÄĲÃ¡m":4955,"ĠÄĲáº¥u":4956,"ĠÄĲáºŃu":4957,"ĠMay":4958,"Trang":4959,"ĠkhiÃªu":4960,"ÄĲÃ´ng":4961,"Ġtrá»įt":4962,"Ġthuáº«n":4963,"NgÅ©":4964,"ĠSa":4965,"ĠTá»īnh":4966,"Ġrá»Ľt":4967,"ĠPhÃ´i":4968,"Tháº£o":4969,"Ġhá»Ļc":4970,"Ġkhuáº¥y":4971,"ĠÄĲá»ģ":4972,"ÄĲá»Ŀi":4973,"ChÃºc":4974,"Ġ23":4975,"ĠVá»¥":4976,"Ġoanh":4977,"Nhiá»ģu":4978,"Nhiá»ĩm":4979,"Ġháº»o":4980,"Nháº¡c":4981,"Pháº§n":4982,"âĢĶâĢĶâĢĶâĢĶ":4983,"ĠchÃ¹a":4984,"ĠÆ¯Æ¡ng":4985,"Ġâĺħâĺħ":4986,"DÃ²ng":4987,"Lá»Ļc":4988,"Mu":4989,"TÃ¢n":4990,"Tuyá»ĩt":4991,"Xong":4992,"deo":4993,"¢y":4994,"±n":4995,"Ġ~":4996,"ĠÆ°á»":4997,"Ġam":4998,"Ġáº¥p":4999,"á»įi":5000,"Ġtá»Ļt":5001,"ĠtÃ²ng":5002,"Ġtáº¥u":5003,"ĠcÃł":5004,"ĠcÄĥm":5005,"ĠÄĳáº½":5006,"ĠÄĳiá»ĥu":5007,"ĠÄĳiá»ģm":5008,"Ġmáº¡t":5009,"Ġkáº¹o":5010,"ĠvÆ°á»Ľng":5011,"Ġbá»ĵn":5012,"ĠsÅ©ng":5013,"Ġdáº¡t":5014,"Ġcá»ıi":5015,"Ġcá»įc":5016,"Ġháº¯t":5017,"Ġxay":5018,"âĢľ...âĢĿ":5019,"ĠchÆ°á»Ľc":5020,"ĠphÃ¬":5021,"ĠTri":5022,"ĠhÃ²ng":5023,"Ġnhá»įc":5024,"Tráº£i":5025,"Ġngá»«a":5026,"Ġngá»Ĺng":5027,"ÄĲáº·c":5028,"Ġtrá»ķ":5029,"Ġyá»ĥ":5030,"ĠnhÃłm":5031,"Ġquáº£ng":5032,"ĠPhÃŃa":5033,"Ġluá»ĵn":5034,"ĠLá»ĭch":5035,"Ġvideo":5036,"Ġtrá»ĭnh":5037,"Giáº£i":5038,"ĠNhÃ¢m":5039,"Ġom":5040,"ĠCháº¿t":5041,"ĠRá»ĳt":5042,"Thiáº¿t":5043,"Chá»ĭ":5044,"Ġá»§ng":5045,"Sá»©c":5046,"Chiáº¿n":5047,"Ġ1000":5048,"ĠDoanh":5049,"Ġbom":5050,"Bá»ĳp":5051,"Ġ705":5052,"ĠNhuáº¿":5053,"ĠÆ°á»¡n":5054,"Báº±ng":5055,"Báº©m":5056,"CÃ¢y":5057,"Cáº§m":5058,"Duy":5059,"HÆ¡i":5060,"HÃŃt":5061,"Háº³n":5062,"Máº¥t":5063,"Má»Ļc":5064,"MÃ¹i":5065,"Rá»Ŀi":5066,"Song":5067,"SÆ¡n":5068,"SÃ¡t":5069,"Tin":5070,"±u":5071,"Ġá»ĵ":5072,"ĠÃ¢u":5073,"Ġ...":5074,"ĥnh":5075,"ĠtÃ©p":5076,"ĠcÆ°ng":5077,"ĠÄĳáº»":5078,"ĠÄĳÃ¹ng":5079,"ĠniÃªm":5080,"Ġlá»Ļi":5081,"ĠlÆ°á»Ŀm":5082,"Ġmáº¡p":5083,"Ġmoi":5084,"Ġviá»ĩt":5085,"Ġbong":5086,"Ġbá»ĵng":5087,"ĠTÃ¡c":5088,"ĠTiáº¿p":5089,"Ġtru":5090,"ĠtrÃ²ng":5091,"Ġsáº¥u":5092,"Ġsáº£i":5093,"ĠrÃ¨":5094,"Æ°Æ¡u":5095,"Ġtá»ģ":5096,"Ġthá»±":5097,"Ġthá»ĭch":5098,"Ġquáº·ng":5099,"ĠHuá»ĳng":5100,"Ġhá»ī":5101,"Ġlá»įi":5102,"Ġbá»ĥ":5103,"Ġbá»ī":5104,"Ġsá»¯a":5105,"ĠMáºŃu":5106,"ĠDáº§n":5107,"....":5108,"ĠBÃ¡n":5109,"ĠBáº±ng":5110,"ĠNgáº«u":5111,"Ġtrá»ı":5112,"ĠÄĳá»Ļn":5113,"ĠPhiÃªn":5114,"ĠThÆ°á»Ŀng":5115,"ĠThiá»ĥn":5116,"Ġyáº¿t":5117,"ĠÄĳá»ĵi":5118,"ĠKhÃ³":5119,"ĠQua":5120,"ĠPhÃ¡ch":5121,"ĠNhiá»ģu":5122,"Ġngoáº£nh":5123,"ĠthÃºy":5124,"ĠsoÃ¡i":5125,"ĠDá»±":5126,"Ġchá»Ŀn":5127,"ĠThuáºŃn":5128,"ĠCá»«u":5129,"ĠtÃ²i":5130,"Ġ25":5131,"Ġ27":5132,"ĠMá»Ľi":5133,"Ġáº¨n":5134,"ĠPhá»ĳ":5135,"ĠCháº¥p":5136,"Nha":5137,"Phá»ĳc":5138,"Ġ500":5139,"NháºŃn":5140,"Khoáº£ng":5141,"ĠbÃªnh":5142,"9999":5143,"ĠKhá»Łi":5144,"Ġxá»īu":5145,"KhuÃ´n":5146,"'.":5147,"Báº£y":5148,"Cá»ĳc":5149,"Dáº§n":5150,"Ma":5151,"MÃ´n":5152,"Sá»ĳng":5153,"Ty":5154,"TÆ°á»Łng":5155,"VÃłi":5156,"VÃºt":5157,"li":5158,"ĠÃ¡t":5159,"ĠÃºp":5160,"Ġáº©m":5161,"áº¤":5162,"Ġtáº§n":5163,"Ġtáº¿t":5164,"ĠÄĳÃły":5165,"ĠÄĳÃºt":5166,"ĠnÃºp":5167,"Ġláº¯p":5168,"Ġmeo":5169,"Ġmiá»ĩt":5170,"Ġváº©y":5171,"Ġváº¡m":5172,"ĠTá»Ļc":5173,"ĠngÆ°á»Ľc":5174,"ĠngÃ¡p":5175,"Ġtráº¡m":5176,"ĠsÆ°a":5177,"Ġdáº¥y":5178,"Ġduyá»ĩt":5179,"Ġhan":5180,"ĠhÆ°Æ¡u":5181,"Ġcá»¥t":5182,"ĠthÃ¡p":5183,"ĠthÃ¢y":5184,"ĠxÃº":5185,"ĠxÃµ":5186,"Ġvá»¥t":5187,"ĠHáº£":5188,"ĠHuyá»ħn":5189,"ĠcÃ¹":5190,"Ġlá»ķ":5191,"ĠNÆ°Æ¡ng":5192,"ĠTrÆ°á»Łng":5193,"Ġnháº£":5194,"ĠMao":5195,"ĠKiá»ĩt":5196,"ĠKiáº¿p":5197,"TrÃ¡i":5198,"ĠNgáº¡o":5199,"Ġbá»ĭp":5200,"Ġphá»ķi":5201,"ÄĲÃ¡i":5202,"ÄĲá»Ļc":5203,"Ġtrá»įc":5204,"ĠÄĳá»ģn":5205,"Ġkhanh":5206,"Ġkhay":5207,"Ġkhá»ī":5208,"Ngá»ĵi":5209,"Nguyá»ĩt":5210,"ĠSáº¯c":5211,"ĠThÃ¬n":5212,"Ġkháº¿":5213,"Ġháº¡c":5214,"Ġhoan":5215,"ĠTá»ģ":5216,"ĠGáº·p":5217,"Ġrá»§":5218,"ĠGiai":5219,"ĠHoáº·c":5220,"ĠPhÃ²ng":5221,"Ġá»ª":5222,"ĠthÃŃnh":5223,"ChÃło":5224,"Thá»ĭ":5225,"Tá»©":5226,"PhÃ¡":5227,"PhÃ³":5228,"Bá»ı":5229,"Bá»ĭch":5230,"ĠKhoÃ¡i":5231,"Cá»Ńu":5232,"Phong":5233,"Sá»£":5234,"Ġkhuynh":5235,"Ġhun":5236,"ĠChá»Ĺ":5237,"ĠâĺħâĺħâĺĨ":5238,"ĠxÃµa":5239,"Báº¯t":5240,"Biá»ĥu":5241,"BÃ¡ch":5242,"Cáº§n":5243,"HáºŃu":5244,"Kiáº¿n":5245,"Lu":5246,"NÃªn":5247,"Ráº¯c":5248,"Tuyáº¿t":5249,"Viá»ħn":5250,"Xa":5251,"Xung":5252,"es":5253,"µt":5254,"Ãįt":5255,"Ġáº£":5256,"Ġong":5257,"Ġ**":5258,"ĠtÃ¬":5259,"Ġtáº»":5260,"ĠtÃ´m":5261,"Ġcáº¡":5262,"ĠcÃłn":5263,"ĠÄĳÄĥm":5264,"ĠlÃ¡c":5265,"Ġláº«m":5266,"ĠmÃ¹ng":5267,"Ġbáº·t":5268,"ĠbÃłng":5269,"ĠbÃ³n":5270,"ĠTÃ¬m":5271,"ĠgÃ¡p":5272,"Ġro":5273,"ĠrÃ¢m":5274,"ĠdÆ°ng":5275,"ĠÄĳá»±c":5276,"Ġhuyá»ħn":5277,"Ġthá»ģm":5278,"ĠcÃ³c":5279,"Ġcá»«u":5280,"Ġnhuá»ĳ":5281,"ĠxÃŃ":5282,"ĠxÃ´i":5283,"Ġxáº¡c":5284,"Ġthiá»ģn":5285,"Ġvá»±a":5286,"Ġvá»¥ng":5287,"Ġvá»ĥnh":5288,"Ġchá»ĵn":5289,"ĠLÃ´n":5290,"Ġlá»ģ":5291,"Ġlá»±u":5292,"ĠNhiÃªn":5293,"Ġcháº£i":5294,"ĠpháºŃt":5295,"ĠhÃ³ng":5296,"Ġmá»ĭch":5297,"Ġnháºµn":5298,"ĠÄĲá»Ļt":5299,"ĠÄĲiá»ĥm":5300,"ĠÄĲÃ¡nh":5301,"ĠÄĲáº£o":5302,"ĠÄĲáº©u":5303,"Ġsá»¥c":5304,"ĠMang":5305,"ĠMá»Ł":5306,"Ġgiá»¡n":5307,"ĠDá»¥c":5308,"Ġná»±c":5309,"Ġná»©c":5310,"Ġná»Ľt":5311,"ĠKáº»":5312,"Ġtuáº¿":5313,"Ġngá»£m":5314,"ĠBÃ£o":5315,"ÄĲiá»ĩp":5316,"ĠThung":5317,"Ġyáº¿m":5318,"Ġkhá»¥":5319,"Ġkháº©y":5320,"ĠTá»«ng":5321,"ĠKhÃ´i":5322,"ĠKhÃ¡ch":5323,"Ġrá»ķ":5324,"ChÆ°á»Łng":5325,"Ġkhoai":5326,"ĠHá»§":5327,"ĠkÃ©n":5328,"ThÃªm":5329,"Ġxoáº¯n":5330,"Ġxoáº¹t":5331,"Tá»ķng":5332,"ĠMá»¹":5333,"ãĢĳ:":5334,"Ġáº¦m":5335,"Ġuáº¥t":5336,"Ġáº¤n":5337,"ĠÄĲoÃ¡n":5338,"Ngá»įn":5339,"Thuáº§n":5340,"Ġngháº¹t":5341,"ĠmÃŃm":5342,"Ġcáº¡y":5343,"Ġnhuá»ĳm":5344,"Cáº¥p":5345,"Cáº¥m":5346,"Gáº·p":5347,"Háº¿t":5348,"Man":5349,"Náº¯m":5350,"Oanh":5351,"SÃ¡ch":5352,"Sáº¯p":5353,"Thá»§":5354,"VÅ©":5355,"th":5356,"Ìģ":5357,"ĠãĢ":5358,"Łm":5359,"łng":5360,"ngÆ°á»Ŀi":5361,"ĠtÃ´":5362,"Ġcáº¯p":5363,"ĠÄĳung":5364,"hÃłnh":5365,"Ġnáº¿p":5366,"Ġnáº·n":5367,"ĠnÃ¡u":5368,"Ġluá»ĳng":5369,"Ġlia":5370,"ĠláºŃn":5371,"Ġlen":5372,"ĠlÃ¡ng":5373,"Ġvo":5374,"ĠvÃ£i":5375,"ĠbÃ©t":5376,"ĠTáº§ng":5377,"Ġngáº§n":5378,"Ġngáº¯c":5379,"Ġngáº¥u":5380,"Ġngáº¥m":5381,"ĠtrÃ¡c":5382,"ĠtráºŃt":5383,"ĠrÃ£":5384,"ĠrÃªu":5385,"ĠrÃ¡t":5386,"ĠrÆ°á»Ľi":5387,"ĠrÃ¡ng":5388,"ĠrÃ¡p":5389,"Ġtá»Łm":5390,"Ġcá»£t":5391,"Ġquáº·c":5392,"Ġxáº¥p":5393,"ĠxÃ³c":5394,"Ġxáº¹t":5395,"Ġvá»Ľ":5396,"Ġhá»ħ":5397,"Ġhá»ķi":5398,"ĠCÃº":5399,"ĠCÃ¢u":5400,"Ġbá»Ŀi":5401,"Ġpháº«u":5402,"Ġmá»ħ":5403,"Ġnhá»Ļ":5404,"Ġná»ĩ":5405,"ĠKáº¿":5406,"ĠKá»µ":5407,"TrÃºc":5408,"TráºŃn":5409,"Ġkhiáº¿t":5410,"ÄĲinh":5411,"ÄĲau":5412,"ĠkhÆ¡i":5413,"ĠchÃŃt":5414,"ĠTháº±ng":5415,"NgÆ°á»£c":5416,"ĠnháºŃm":5417,"ĠTá»·":5418,"ĠTá»ĩ":5419,"ĠKhÃ¢m":5420,"Ġrá»¯a":5421,"Ġrá»£n":5422,"ĠGiÃ¡":5423,"ĠGiáº£n":5424,"Ġgá»£i":5425,"Ġá»·":5426,"ĠNhanh":5427,"Tháº¥t":5428,"ĠhÃ³t":5429,"âĢ¦âĢ¦":5430,"Ġkhuá»·":5431,"ĠÄĲá»ģu":5432,"Táº¡m":5433,"Ġsoáº¡t":5434,"ThÆ°":5435,"ĠDá»±a":5436,"ĠKhu":5437,"ĠKhang":5438,"Tá»Ľi":5439,"Há»ĩ":5440,"PhÃ¬":5441,"Ġ200":5442,"ĠTuáº§n":5443,"Bá»¯a":5444,"ĠCháº¥n":5445,"ĠPháº§n":5446,"ĠtÃºy":5447,"ĠRa":5448,"Ġnguá»Ļi":5449,"Phá»¥ng":5450,"Chá»Ľp":5451,"âĢĻ.":5452,"Ġdá»¥a":5453,"ĠGiá»ĳng":5454,"Ġvali":5455,"Dá»ĭch":5456,"ĠCá»±u":5457,"ĠÄĳÃłm":5458,"Ġchá»Ļp":5459,"Ġkhuá»·u":5460,"!!":5461,"'.âĢĿ":5462,"BÃ¹m":5463,"Cá»Ļng":5464,"DÆ°á»£c":5465,"Háº¡o":5466,"Háº¡ng":5467,"Hiá»ĥn":5468,"Káº¿":5469,"Kinh":5470,"KÃ½":5471,"Ká»¹":5472,"MÃ£":5473,"MÃŃ":5474,"MÆ°a":5475,"Má»¥c":5476,"TÃ¢y":5477,"TiÃªu":5478,"Viá»ĩn":5479,"XÃŃch":5480,"XÃ¡c":5481,"lÆ°u":5482,"tháº":5483,"táº§ng":5484,"Æł":5485,"ĠÆ¡":5486,"ĠÆ°Æ¡ng":5487,"ĠÃªm":5488,"Ġáº¥u":5489,"ĠâĢ¦":5490,"Ġtáº±m":5491,"Ġcáº±n":5492,"ĠÄĳáº£ng":5493,"ĠÄĳÃ¬a":5494,"Ġnáº»":5495,"ĠlÃªu":5496,"Ġmáº¿n":5497,"Ġmáº¡c":5498,"ĠkÃ¨n":5499,"Ġveo":5500,"Ġváº¡ng":5501,"ĠvÃ£ng":5502,"ĠbáºŃp":5503,"Ġbáº©y":5504,"ĠgáºŃp":5505,"âĢ¢":5506,"Ġdong":5507,"ĠdÅ©a":5508,"Ġcá»¥p":5509,"Ġcá»ĵn":5510,"ĠquÄĥng":5511,"ĠxÃ´n":5512,"ĠxiÃªu":5513,"ĠxÃ²e":5514,"Ġthe":5515,"Ġchau":5516,"ĠchÃ²m":5517,"Ġchá»«a":5518,"ĠLiá»ĩu":5519,"ĠnhÃŃ":5520,"ĠnhÃ²m":5521,"ĠphÃłn":5522,"Ġlá»ķng":5523,"Ġlá»ĭa":5524,"ĠCáº§m":5525,"ĠpháºŃp":5526,"Ġpháº¯t":5527,"iá»ģng":5528,"ĠhÃ¹":5529,"Ġmá»ģ":5530,"ĠÄĲiá»ĥn":5531,"ĠVáº«n":5532,"ĠVá»ĳn":5533,"ĠMi":5534,"ĠMÃ¬nh":5535,"ĠMÃ¹i":5536,"ĠDiá»ħm":5537,"Trung":5538,"áº½o":5539,"Ġngá»Ľt":5540,"ĠBÃ¡c":5541,"ĠBia":5542,"ĠBá»ĳn":5543,"Ġbá»ĭa":5544,"Ġkhao":5545,"ĠTháº¥u":5546,"ĠchiÃªng":5547,"ĠSÃ¹ng":5548,"ĠThÃŃnh":5549,"ĠhoÃ¡":5550,"iá»ħng":5551,"Ġtá»ĳp":5552,"ĠGiáº¥c":5553,"Tháº¡ch":5554,"ĠChÃ¡u":5555,"Ġthoáº¯t":5556,"ĠTrá»£":5557,"ĠÄĲá»Ĺ":5558,"Ġsoáº¡n":5559,"Thuyá»ģn":5560,"Ġkáº»o":5561,"ChÃŃn":5562,"Thá»Ł":5563,"ĠPhiÃªu":5564,"ĠNhá»Ľ":5565,"Má»Ŀi":5566,"Ġkháº£m":5567,"ĠMá»Ŀi":5568,"Ġlá»ĵi":5569,"ĠPhá»ķ":5570,"Ġoa":5571,"Ġoáº£i":5572,"uá»µt":5573,"Ġ36":5574,"Phá»¥t":5575,"ĠlÃ²e":5576,"ĠxÃ©o":5577,"Dá»©t":5578,"ĠvÃ²m":5579,"ĠKhá»ĳng":5580,"Ġuá»ĥ":5581,"Hoáº·c":5582,"Haizz":5583,"Ġyá»ĥu":5584,"Ġnhá»Ļn":5585,"!?":5586,"):":5587,"BiÃªn":5588,"BÃŃch":5589,"BÃ¡c":5590,"BÃ¡nh":5591,"DÄ©":5592,"LÃ¢u":5593,"Máº«u":5594,"MÅ©i":5595,"NÃ´":5596,"Ninh":5597,"NÆ°á»Ľc":5598,"Quy":5599,"Quyá»ĥn":5600,"Sáº½":5601,"Táº¿":5602,"VáºŃt":5603,"XÃ¨o":5604,"fa":5605,"ha":5606,"oo":5607,"oáº¡t":5608,"vi":5609,"µi":5610,"Ġáº¯ng":5611,"ħnh":5612,"áº¢":5613,"ĠÄĳÃª":5614,"ĠÄĳáº©u":5615,"Ġnáº¯n":5616,"Ġláº£":5617,"ĠlÅ©ng":5618,"ĠlÃ¡y":5619,"Ġmáº«n":5620,"Ġviá»ģn":5621,"ĠvÃ©o":5622,"Ġbáº¡":5623,"ĠTáº£":5624,"ĠTÆ°Æ¡ng":5625,"ĠTuyá»ĥn":5626,"ĠTiáº¿ng":5627,"ĠtrÃ¡o":5628,"Ġsáº¡n":5629,"ĠsÆ°á»Łi":5630,"ĠgÃ¡o":5631,"Ġrao":5632,"Ġdang":5633,"ĠdáºŃt":5634,"Ġdáº§m":5635,"Ġhuá»³nh":5636,"Æ°Æ¡m":5637,"Ġquáº¯p":5638,"ĠquÃ£ng":5639,"ĠxÃ¡t":5640,"Ġxá»ĳi":5641,"Ġthiá»ĥu":5642,"chÆ°a":5643,"Ġvá»ĵ":5644,"Ġgiáº¥m":5645,"âĢĿ!":5646,"Ġchá»±c":5647,"ĠHá»Ļ":5648,"ĠHiá»ģn":5649,"ĠcÃµi":5650,"Ġhá»ķng":5651,"Ãºn":5652,"ĠCáº£":5653,"ĠCáº§n":5654,"ĠCÃ¡ch":5655,"ĠCoi":5656,"Ġcháº½":5657,"Æ°á»Ľn":5658,"Ġbá»ģn":5659,"Ġmá»¥":5660,"Ġnháº©m":5661,"ĠÄĲang":5662,"ĠÄĲÆ°a":5663,"ĠÄĲÃ´i":5664,"ĠVÃło":5665,"Ġnhá»¡":5666,"ĠMÃły":5667,"ĠDanh":5668,"ĠDiÃªn":5669,"ĠDÃ¹ng":5670,"Truyá»ģn":5671,"TrÃ¡ng":5672,"Ġngá»¡":5673,"Ġngá»¥":5674,"ĠBu":5675,"ĠBÃŃ":5676,"ĠBÃ¡i":5677,"ĠNgáº¡c":5678,"ÄĲiá»ģn":5679,"ÄĲá»ķi":5680,"Ġthuá»Ł":5681,"Ġyáº¿n":5682,"Ġháº¡o":5683,"ĠTá»ıa":5684,"Ġtivi":5685,"Ġrá»§a":5686,"ĠHoáº±ng":5687,"Ġgá»įng":5688,"ĠNhiá»ĩm":5689,"ĠLá»Ŀi":5690,"ThÃ´n":5691,"ÄĲá»ĭa":5692,"Lá»ĩ":5693,"Thá»ĭt":5694,"Tá»·":5695,"Tá»©c":5696,"Tá»±a":5697,"Ġ21":5698,"Giá»Ľi":5699,"-----":5700,"Ġsá»Łn":5701,"NháºŃp":5702,"Ġum":5703,"Trá»±c":5704,"ĠvÃŃu":5705,"ĠthÃ²i":5706,"Thuá»Ļc":5707,"ĠKháº£i":5708,"nháº¥t":5709,"áº¤y":5710,"%,":5711,"BÃ¡n":5712,"Cáº§u":5713,"GÆ°Æ¡ng":5714,"HÃłng":5715,"Háº£i":5716,"KÃ©t":5717,"Láº¡":5718,"LÃªn":5719,"LÃ´ng":5720,"Láº½":5721,"Láº¡c":5722,"LiÃªu":5723,"Liáº¿c":5724,"Luá»ĵng":5725,"Máº¡ch":5726,"Náº±m":5727,"TÃŃch":5728,"Táº¥m":5729,"Tiáº¿c":5730,"ViÃªn":5731,"VáºŃn":5732,"bá»":5733,"cá»":5734,"chÃ":5735,"iu":5736,"má»Ļt":5737,"meo":5738,"oáº¡n":5739,"rm":5740,"~âĢĿ":5741,"ĠÃºng":5742,"ĠÃ¹ng":5743,"ĠÃºa":5744,"áºµng":5745,"Ġcai":5746,"Ġcáº·n":5747,"Ġcá»Ļp":5748,"ĠnÃª":5749,"ĠnÃ£":5750,"Ġnáº¡o":5751,"Ġná»ĳt":5752,"Ġle":5753,"Ġláº¡n":5754,"ĠmÃ³":5755,"Ġmáº¡":5756,"ĠmÆ°á»£t":5757,"ĠvÃ¡i":5758,"Ġvá»ĳc":5759,"ĠvÆ°á»£n":5760,"ĠTá»¥c":5761,"ĠTÃ¡m":5762,"Ġngháº¿":5763,"ĠtrÃ¡":5764,"ĠtrÃ³c":5765,"Ġsáº·c":5766,"Ġsam":5767,"Ġsáº©y":5768,"ĠsÃłnh":5769,"Ġgay":5770,"ĠgÃ³a":5771,"ĠkhÃ¢m":5772,"ĠrÄĥn":5773,"ĠrÃ¡o":5774,"ĠrÆ°á»Łi":5775,"Ġriu":5776,"ĠdÃ©p":5777,"ĠÄĳá»Ĺi":5778,"Ġtá»ĭnh":5779,"ĠthÃ¡ch":5780,"ĠthÃło":5781,"ĠnhÆ°á»£ng":5782,"Ġháº±n":5783,"Ġquáº¿":5784,"Ġthau":5785,"ĠgiáºŃm":5786,"Ġchao":5787,"ĠchÃ©o":5788,"ĠHung":5789,"ĠLÃ¡t":5790,"ĠLoan":5791,"ĠcÃ²":5792,"ĠcÃ´i":5793,"ĠphÃª":5794,"ĠphÃ´":5795,"ĠphÃ¨n":5796,"ĠvÃłn":5797,"Ġlá»«ng":5798,"ĠCÃ¢y":5799,"ĠCÃłng":5800,"ĠCáº©n":5801,"ĠCuá»ĵng":5802,"Ġcháº±ng":5803,"ĠÄĲá»Ļ":5804,"ĠÄĲáº±ng":5805,"ĠcÃ¡p":5806,"ĠMÃ£o":5807,"ĠMáº¡n":5808,"ĠMÃ£i":5809,"ĠDu":5810,"ĠDiá»ĩn":5811,"ĠDuyá»ĩt":5812,"ĠKeng":5813,"Tráº£":5814,"TrÃ´ng":5815,"Tráº¡ch":5816,"Ġdá»¡":5817,"Ġdá»ĩt":5818,"ĠBi":5819,"ĠNgÃ£":5820,"ÄĲá»Ļi":5821,"ÄĲáºŃu":5822,"ĠTháºŃn":5823,"Ġphai":5824,"Ġkhá»Ń":5825,"NgÃ¢n":5826,"NgÆ°u":5827,"ĠThÃ¢m":5828,"ĠTá»ķng":5829,"ĠThá»īnh":5830,"Ġloi":5831,"ĠloÃ¡t":5832,"ĠloÃ£ng":5833,"ĠQuyÃªn":5834,"Ġgá»įt":5835,"ĠQuÃ¡":5836,"ĠQuÃ¡i":5837,"Ġá»«":5838,"Ġá»§y":5839,"ĠChÃ¢m":5840,"ĠNháºŃn":5841,"ĠthÃŃm":5842,"Ġtop":5843,"Ġkhuáº¿ch":5844,"ĠÄĲá»©ng":5845,"ThÃ¡ng":5846,"ĠLongin":5847,"Nhá»Ŀ":5848,"Ġ28":5849,"ĠVá»įng":5850,"Cháº¡y":5851,"Bá»©c":5852,"ĠPhá»ıng":5853,"000":5854,"Ġ31":5855,"Ná»¥":5856,"ĠtÃºa":5857,"ĠghÃ¬":5858,"ĠhÃºp":5859,"ĠnhÃ©o":5860,"Nháº¯c":5861,"ĠSá»Ń":5862,"ChiÃªu":5863,"Ngá»§":5864,"ĠChá»Ŀ":5865,"Kháº¯c":5866,"Khá»ĳn":5867,"Mua":5868,"ĠãĢĬ":5869,"Ġngháº¿ch":5870,"ĠLongines":5871,"50":5872,"BÃłng":5873,"Báº¡n":5874,"BÃ¡o":5875,"BÃºp":5876,"CÆ¡n":5877,"Cá»Ļc":5878,"CáºŃn":5879,"CÃºt":5880,"Dáº«n":5881,"Dung":5882,"GÃł":5883,"Hy":5884,"Kiá»ĩn":5885,"Ká»ĥ":5886,"Káº½o":5887,"Mong":5888,"OÃłnh":5889,"Phá»§":5890,"Quyá»ģn":5891,"Sai":5892,"Tim":5893,"Váº¡n":5894,"ac":5895,"duy":5896,"phá»":5897,"¦a":5898,"ÌĢ":5899,"Ìī":5900,"ĠE":5901,"ĠÃ³ng":5902,"Ġáº¯p":5903,"Ġá»ĵm":5904,"ĠÆ°á»Ľp":5905,"Ľc":5906,"á»Ľc":5907,"ĠtÃ©":5908,"Ġcáº¥y":5909,"Ġcáº¡ch":5910,"ĠnÃ¡ch":5911,"ĠlÃŃ":5912,"ĠlÃ³i":5913,"ĠlÃŃu":5914,"ĠmÆ°Æ¡ng":5915,"ĠmÃ¨":5916,"ĠmÃºi":5917,"Ġmáº£i":5918,"ĠmÃ¡ch":5919,"Ġmá»ĳng":5920,"Ġmáº«m":5921,"ĠmÃ©o":5922,"ĠkiÃªm":5923,"Ġváº¡c":5924,"ĠvÆ°á»£ng":5925,"Ġváº©n":5926,"ĠvÃ¨o":5927,"ĠbÃ´":5928,"ĠbÃºng":5929,"Ġbiáº¿c":5930,"Ġbáº·m":5931,"ĠTáº£n":5932,"Ġngáº¡nh":5933,"Ġtruyá»ĩn":5934,"Ġtráº¡c":5935,"ĠsÃºt":5936,"Ġgao":5937,"Ġgang":5938,"Ġgáº±n":5939,"ĠkhÃ²":5940,"ĠkhÃ¢u":5941,"ĠrÃł":5942,"ĠráºŃp":5943,"ĠrÃ³n":5944,"ĠrÃ©o":5945,"Ġdiá»ģu":5946,"ĠdÄĥm":5947,"Ġdá»ĳt":5948,"ĠÄĳá»ĳc":5949,"ĠcÃ³p":5950,"ĠcÃ³ng":5951,"ĠthÃ£i":5952,"Ġquyá»ĩt":5953,"ĠháºŃm":5954,"Ġquáº¡nh":5955,"ĠxÃ©n":5956,"ĠgiÃ£":5957,"ĠgiÅ©":5958,"Ġchay":5959,"Ġchá»£p":5960,"ĠHÃ¢m":5961,"ĠHá»Ļi":5962,"ĠHuá»³nh":5963,"ĠcÃ²ng":5964,"Ġhá»Ŀi":5965,"Ġlá»¯":5966,"Ġlá»ıi":5967,"ĠNÃªn":5968,"ĠTráº¡ng":5969,"ĠCÆ°á»Ŀng":5970,"ĠCÃºt":5971,"Ġcháº¡c":5972,"Æ°á»Ľm":5973,"Ġbá»£":5974,"Ġbá»į":5975,"ĠhÃ¡ch":5976,"Ġmá»įn":5977,"ĠÄĲau":5978,"ĠVÃŃ":5979,"Ġsá»¥t":5980,"Ġsá»§ng":5981,"ĠKá»¹":5982,"TrÃŃ":5983,"Ġngá»Ĺ":5984,"Ġnghiá»ħm":5985,"ÄĲÃ¹ng":5986,"ÄĲÃ³ng":5987,"Ġkhiá»ħng":5988,"...'":5989,"Ġkhá»ĳ":5990,"NgÃµ":5991,"ĠSá»ĳ":5992,"ĠSÃ¡ch":5993,"ĠSá»ĳng":5994,"ĠkháºŃp":5995,"ĠTá»Ľi":5996,"ĠThá»£":5997,"ĠGÃ£":5998,"Ġrá»§i":5999,"Ġgá»Ľm":6000,"Ġxuá»ĥ":6001,"KhÃ´i":6002,"KhÃ¡ch":6003,"Ġbá»Ļp":6004,"Ġchuá»Ļng":6005,"ĠXáº£o":6006,"ĠCá»Ńa":6007,"ĠChuáº©n":6008,"ĠNháºŃt":6009,"ĠNháºŃp":6010,"ĠkÃ©t":6011,"ĠbuÃ½t":6012,"Ġ(*":6013,"Ġtoe":6014,"Ġtoang":6015,"ĠtoÃ©t":6016,"Ġngoáº¡n":6017,"Ġchá»ĭt":6018,"Ġsoáº¡ng":6019,"ThÆ°á»Ŀng":6020,"Thay":6021,"Tham":6022,"Thuá»ĳc":6023,"Ġnhiáº¿p":6024,"Ġxoáº£ng":6025,"ĠphÃ¹n":6026,"Thá»Ń":6027,"Ġtrá»ĭa":6028,"Tá»±":6029,"Tá»ĭch":6030,"Há»Ń":6031,"Há»Ńm":6032,"ĠPhiáº¿t":6033,"ĠÃįt":6034,"ĠChiáº¿u":6035,"Khiáº¿n":6036,"Ġ24":6037,"Giao":6038,"ĠVá»±c":6039,"ĠtÃ¹m":6040,"ChuÃ´ng":6041,"Ġ33":6042,"Ġ35":6043,"Ġ38":6044,"ĠRá»ĵi":6045,"ĠãĢĳ:":6046,"ĠHaiz":6047,"Ġ46":6048,"Ġ64":6049,"ĠvÃŃa":6050,"Ġbá»ĩn":6051,"ĠSá»©":6052,"ĠSá»Ńu":6053,"Â».":6054,"ĠNá»Ńa":6055,"Ġhiu":6056,"ĠthÃ³c":6057,"Äĳáº¡i":6058,"ĠchÃ¹i":6059,"Ãģch":6060,"ĠrÃºm":6061,"!?âĢĿ":6062,".'":6063,"20":6064,"BÃ¡i":6065,"Canh":6066,"DÃ¡m":6067,"DÆ°á»¡ng":6068,"Gá»įi":6069,"HÃ¡n":6070,"LÃ¡":6071,"Lá»Ļ":6072,"Liá»ĩu":6073,"MÃ¢y":6074,"MÃły":6075,"MÃ³n":6076,"QuÃ¢n":6077,"Rá»":6078,"SÆ°Æ¡ng":6079,"SÃ¢n":6080,"Suá»µt":6081,"TÆ°Æ¡ng":6082,"TÃº":6083,"Táº«n":6084,"TáºŃp":6085,"TÃ¹y":6086,"XÃº":6087,"Xuá»ĳng":6088,"XÃ©t":6089,"bá»ĳ":6090,"ná»Ļi":6091,"oáº¹t":6092,"st":6093,"us":6094,"·ng":6095,"Ì£":6096,"Ġá»ĳ":6097,"ĠÃº":6098,"ĠÃ¹n":6099,"Ġfa":6100,"ĭm":6101,"ĭu":6102,"ļy":6103,"ĠtÃ£":6104,"Ġtáº¡nh":6105,"ĠtÃ¡nh":6106,"ĠcÃ¢m":6107,"ĠcÆ°a":6108,"ĠÄĳong":6109,"ĠÄĳÃłng":6110,"ĠÄĳáºµng":6111,"Ġnáº§n":6112,"ĠnÅ©ng":6113,"Ġnáº¥m":6114,"ĠlÃ¬":6115,"ĠlÃ¢y":6116,"Ġláº·t":6117,"ĠlÃ¬m":6118,"ĠlÃ¡o":6119,"Ġláº£i":6120,"Ġláº§y":6121,"Ġláº©y":6122,"Ġliáº¿ng":6123,"ĠliÃªm":6124,"ĠlÃ¬a":6125,"ĠlÃµi":6126,"ĠlÃºn":6127,"Ġmáº¥p":6128,"ĠmÃŃt":6129,"ĠmÃ¡nh":6130,"ĠvÃª":6131,"ĠvÃ©":6132,"ĠvÃ²i":6133,"Ġvoi":6134,"Ġbung":6135,"ĠbÆ°á»Ľm":6136,"ĠTÃª":6137,"ĠTÄĥng":6138,"ĠTáºŃp":6139,"ĠTá»ĳc":6140,"Ġngao":6141,"ĠngÃ´ng":6142,"ĠngÃ²":6143,"Ġnguyá»ģn":6144,"Ġsi":6145,"ĠsÆ°u":6146,"Ġsáº¡t":6147,"ĠsáºŃm":6148,"Ġga":6149,"Ġghá»":6150,"Ġgáº£y":6151,"Ġgáº«u":6152,"ĠgÅ©i":6153,"Ġgiá»ģng":6154,"Ġrang":6155,"ĠrÃ¬nh":6156,"Ġráº§u":6157,"ĠrÃłnh":6158,"Ġráº«y":6159,"ĠrÃŃu":6160,"Ġdáº£":6161,"Ġdai":6162,"ĠdÃ¡i":6163,"Ġduá»ĩ":6164,"Ġtá»ıi":6165,"Ġtá»ħnh":6166,"áº¥ng":6167,"Ġthá»ĳ":6168,"Ġcá»Ĺi":6169,"Ġcá»©a":6170,"ĠthÃ©":6171,"ĠquÃ¢y":6172,"Ġquáº¹t":6173,"Ġxáº£":6174,"ĠxÃºi":6175,"ĠxÃŃu":6176,"ĠnÃłnh":6177,"ĠgiÃ²":6178,"Ġchang":6179,"ĠchÃ¹ng":6180,"ĠchÃ¨n":6181,"Ġchá»įi":6182,"Ġchá»ĵi":6183,"ĠHi":6184,"ĠHy":6185,"ĠHÃłng":6186,"ĠHÃ£y":6187,"ĠLai":6188,"ĠLÅ©":6189,"ĠLÃ£nh":6190,"ĠnhÃ£o":6191,"ĠnhÃ³n":6192,"ĠvÃłnh":6193,"Ġlá»ĭm":6194,"Ãºm":6195,"ĠNá»Ļ":6196,"ĠNÆ°á»Ľc":6197,"ĠNay":6198,"ĠNÃło":6199,"ĠNÃºi":6200,"ĠTrÃºy":6201,"Ġcháº¡ng":6202,"Ġcháº§m":6203,"Ġcháº¥u":6204,"Ġbá»ĩt":6205,"Ġnháº£i":6206,"Ġnháº±n":6207,"ĠÄĲiá»ģm":6208,"ĠVÃł":6209,"ĠVáº¿t":6210,"Ġsá»į":6211,"Ġná»ī":6212,"ĠKá»·":6213,"TrÆ°":6214,"TrÃ¡nh":6215,"áº«ng":6216,"Ġdá»Ĺi":6217,"ĠBiá»ĥu":6218,"ĠNguyá»ĩn":6219,"ĠNgÃ´n":6220,"Ġphá»Ľi":6221,"ÄĲiá»ĩn":6222,"ÄĲÆ¡n":6223,"ĠThiá»ĩn":6224,"ĠTháºŃm":6225,"Ġpho":6226,"ĠphÄĥng":6227,"Ġchinh":6228,"Ġkhá»©a":6229,"Nghá»ī":6230,"Ngáº©ng":6231,"ĠSÃ´ng":6232,"ĠSÃ¡u":6233,"ĠThÃªm":6234,"Ġkháº¥c":6235,"Ġháº¡m":6236,"Ġhoe":6237,"ĠGáº§n":6238,"ĠGá»įi":6239,"Ġlogi":6240,"Ġrá»ģn":6241,"Ġrá»ĭch":6242,"ĠQuáº¡":6243,"ĠQuá»³":6244,"ĠPhÃ¢n":6245,"ĠChÆ°":6246,"Ġá»Ľn":6247,"Ġá»«m":6248,"ĠXa":6249,"ĠXe":6250,"Ġluá»Ļc":6251,"Ġchá»§y":6252,"Ġthoi":6253,"ĠUáº©n":6254,"Ġmuá»Ĺi":6255,"Ġcua":6256,"Ġbuá»Ļt":6257,"ĠchÃ¡t":6258,"ĠÄĲá»©a":6259,"Vá»¥":6260,"Vá»±c":6261,"Vá»©t":6262,"ãĢĭ":6263,"ĠDá»ĭ":6264,"ÄĲá»§":6265,"Ġxá»ĭt":6266,"Lá»Ńa":6267,"Lá»Ľn":6268,"ChÃ¡t":6269,"ChÃłng":6270,"Thá»©c":6271,"Há»ıi":6272,"ĠNgá»¯":6273,"PhÃłm":6274,"ĠNhá»¥c":6275,"Ġ22":6276,"Ġ26":6277,"Má»¹":6278,"ĠrÆ°á»£i":6279,"ĠsuÃ´ng":6280,"ĠNghiá»ĩp":6281,"ĠTuáº¿":6282,"Choang":6283,"ĠKhoan":6284,"ĠKhoáº£ng":6285,"ĠOÃ¡n":6286,"ĠlÃ²a":6287,"Chá»©ng":6288,"Ġdá»¥m":6289,"ĠKhiáº¿u":6290,"PháºŃp":6291,"Ġnom":6292,"Ġ60":6293,"Dá»«ng":6294,"ĠÆ¯u":6295,"Ġ80":6296,"ĠthÃ³t":6297,"ÃĢo":6298,"Äĳá»":6299,"ĠnhoÃ¡ng":6300,"Xoáº¡t":6301,"ĠchÃ¹m":6302,"1000":6303,"Ġchá»Ļt":6304,"???":6305,"ĠxÃºm":6306,"ĠâĺħâĺħâĺĨâĺĨ":6307,"rmst":6308,"Ġfarmst":6309,"ĠngÃ²m":6310,"Ġlogic":6311,"Ġfarmstay":6312,"15":6313,"Báº§u":6314,"BÄĥng":6315,"BÃłnh":6316,"CÃ¡":6317,"CÃłn":6318,"Cáº¡ch":6319,"CÃºi":6320,"Dáº«u":6321,"Huyá»ĩn":6322,"KÃ¬nh":6323,"Kiá»ĥm":6324,"Lo":6325,"Láº¡nh":6326,"LáºŃt":6327,"Láº¯c":6328,"LÅ©":6329,"LÆ°á»¡i":6330,"MÆ¡":6331,"MÃłn":6332,"Máº£nh":6333,"MÆ°á»£n":6334,"Nay":6335,"SÆ°u":6336,"Suá»ĳt":6337,"TÃª":6338,"Tá»¥c":6339,"Tiá»ħn":6340,"Thá»ī":6341,"TuÃ¢n":6342,"VÃ¹ng":6343,"Xu":6344,"con":6345,"er":6346,"et":6347,"kh":6348,"ráº¯c":6349,"thá»":6350,"thi":6351,"thiÃªn":6352,"thÃłnh":6353,"Æ¯":6354,"ï¼":6355,"Ġ?":6356,"ĠEm":6357,"ĩch":6358,"ĭn":6359,"á»«ng":6360,"á»¦a":6361,"Ġtáº¡c":6362,"ĠtÃło":6363,"ĠtÃłnh":6364,"ĠÄĳÆ¡":6365,"Ġnáº¡i":6366,"Ġnao":6367,"Ġnang":6368,"ĠnÃŃch":6369,"ĠnÃªu":6370,"ĠnÃ²ng":6371,"ĠnÃŃu":6372,"Ġnáº¥ng":6373,"Ġláº¥t":6374,"Ġláº¯t":6375,"Ġláº¥n":6376,"ĠlÃ¨":6377,"ĠláºŃu":6378,"Ġláº¡p":6379,"ĠmÃ¡c":6380,"Ġmáº©n":6381,"Ġmá»ĵn":6382,"há»ĭ":6383,"ĠvÃ´i":6384,"Ġbe":6385,"ĠbÃ´n":6386,"Ġbáº«ng":6387,"ĠTV":6388,"ĠTáºŃn":6389,"ĠngÄĥm":6390,"ĠngÃłng":6391,"ĠngÃ³c":6392,"Ġnguá»ĩ":6393,"ĠtrÃŃch":6394,"Ġtráº¯m":6395,"ĠtrÃ¡p":6396,"ĠsiÃªng":6397,"Ġgáº·t":6398,"ĠkhÃ¹ng":6399,"Ġráº¿t":6400,"Ġrá»¥c":6401,"Ġráº¡c":6402,"Ġria":6403,"Ġrá»ĳn":6404,"Ġrá»ĳng":6405,"ĠrÃ©n":6406,"Ġdá»Ļt":6407,"ĠdiÃªu":6408,"Ġhiá»ģm":6409,"Ġtá»ĥ":6410,"Ġtá»Ľ":6411,"Ġtá»¥y":6412,"Ġthá»ĳn":6413,"Ġcá»«":6414,"ĠthÃµng":6415,"Ġnhuyá»ħn":6416,"ĠquyÃªn":6417,"Ġháº¥u":6418,"ĠquáºŃy":6419,"Ġquáº©y":6420,"ĠxÃ´":6421,"ĠxÆ°á»£c":6422,"ĠxÃ¡n":6423,"Ġxáº±ng":6424,"ĠxÃ¨o":6425,"ĠchÆ°á»£c":6426,"ĠchÆ°ng":6427,"Ġchuyá»ģn":6428,"Ġchuá»ĳi":6429,"Ġchuá»ĳc":6430,"Ġchá»¯ng":6431,"ĠHÃłi":6432,"ĠHáº±ng":6433,"ĠHáº³n":6434,"ĠnhÃ¬":6435,"ĠnhÃ£i":6436,"ĠnhÃ¡p":6437,"Ġhá»·":6438,"Ġhá»Ľp":6439,"Ġlá»¯ng":6440,"Ġlá»£p":6441,"Ġlá»§i":6442,"ĠNiá»ĩm":6443,"ĠTrai":6444,"ĠTráº£o":6445,"ĠTráº£m":6446,"ĠCÃ¢n":6447,"Ġcháº¹t":6448,"ĠhÃ£":6449,"ĠhÃ¢n":6450,"ĠhÃºc":6451,"ĠhÃ£o":6452,"Ġmá»Ĺ":6453,"Ġmá»Ľ":6454,"Ġnháº½":6455,"Ġnháº·ng":6456,"ĠÄĲÃ³a":6457,"ĠVÃłi":6458,"Ġnhá»«":6459,"Ġnhá»ĵi":6460,"Ġsá»ıi":6461,"ĠMu":6462,"ĠDáºŃu":6463,"Triá»ģu":6464,"Tráº»":6465,"Tráº§m":6466,"TrÃ¹ng":6467,"Ġngá»ķn":6468,"ĠBÃłi":6469,"ĠBáº¡n":6470,"ĠBiáº¿n":6471,"ĠNgá»ĵi":6472,"Ġphá»¥t":6473,"ÄĲÃ³i":6474,"ÄĲÃ¡p":6475,"ÄĲoáº¡n":6476,"Ã©m":6477,"Ġtrá»ģ":6478,"Ġtrá»ĭch":6479,"Ãµng":6480,"ĠPháº¿":6481,"ĠThao":6482,"...]":6483,"...?âĢĿ":6484,"Ġchiáº¿t":6485,"Ġkhá»ĭt":6486,"ĠsÃ¡p":6487,"ĠSÃ¡ng":6488,"ĠSáº¯p":6489,"ĠThá»į":6490,"ĠthiÃªng":6491,"Chuyáº¿n":6492,"ĠGiÃºp":6493,"Ġgá»ī":6494,"Ġgá»«ng":6495,"ĠPhÃ¡t":6496,"Ġbá»Ļn":6497,"ĠXong":6498,"ĠXoáº¡t":6499,"ĠNhiá»ħm":6500,"Tháº»":6501,"Tháº§y":6502,"ĠHá»Ń":6503,"ĠHá»ıi":6504,"Ġthoa":6505,"ĠthÃŃt":6506,"Ġtoi":6507,"Ġtoan":6508,"Ġngoáº¡c":6509,"ĠLá»¡":6510,"ĠkhuÃ¢n":6511,"ĠÄĲá»§":6512,"ĠÄĲá»Ŀi":6513,"ThÃŃch":6514,"ÄĲá»īnh":6515,"ĠTáº¡m":6516,"Ġxá»ı":6517,"Lá»ħ":6518,"ChÃªnh":6519,"Thá»ĥ":6520,"Há»±":6521,"Há»ķ":6522,"Quá»·":6523,"ĠhÃ¡o":6524,"ĠÃĤn":6525,"ĠÃļy":6526,"Giáº¥c":6527,"Cháº¥p":6528,"Ġkháº£nh":6529,"ĠdÃ²m":6530,"ĠTuáº¥t":6531,"Bá»ĩnh":6532,"ĠPháº©m":6533,"ĠnguÃ´i":6534,"Chá»£t":6535,"ĠBá»ı":6536,"Nháº·t":6537,"Pháº©m":6538,"Sá»Ŀ":6539,"Ġ40":6540,"Ġ45":6541,"Dá»įc":6542,"Ġnghá»ĭt":6543,"ĠSá»©c":6544,"ThuáºŃn":6545,"Ġláº»o":6546,"Ġká»ĩch":6547,"ĠKhá»¥":6548,"ĠKhá»ķ":6549,"ĠnhÃºt":6550,"ĠBá»ĳp":6551,"Kháº£o":6552,"Khá»¥":6553,"âĺĨâĺĨ":6554,"ĠâĢĶâĢĶâĢĿ":6555,"Ãģp":6556,"ĠKháº£o":6557,"Hoa":6558,"nháºŃp":6559,"ĠcÃ²i":6560,"ĠghÃ¬m":6561,"Thá»īnh":6562,"Ġnguá»ĩch":6563,").âĢĿ":6564,"14":6565,"18":6566,"70":6567,"82":6568,"?'":6569,"?]":6570,"An":6571,"Bu":6572,"BÃŃ":6573,"Biáº¿n":6574,"CÃº":6575,"CÆ°á»Ŀng":6576,"Cuá»ĳn":6577,"Coi":6578,"Danh":6579,"Diá»ĩp":6580,"Dáº·n":6581,"Gr":6582,"GÃµ":6583,"Hi":6584,"HoÃłi":6585,"HÃło":6586,"HÃ²a":6587,"KÃŃ":6588,"Kia":6589,"KÃŃnh":6590,"KÃ©o":6591,"LÃ¡t":6592,"LÆ°ng":6593,"Leng":6594,"Mai":6595,"MÃłi":6596,"Máº¥u":6597,"MÃ¹a":6598,"Nhi":6599,"RÃło":6600,"Si":6601,"SÃ¢u":6602,"SÃ³ng":6603,"TÃ´ng":6604,"TÃºc":6605,"Táº¿t":6606,"TÃłng":6607,"Táº¡ch":6608,"TÃłi":6609,"Tia":6610,"TÃºi":6611,"Tiá»ĩm":6612,"Uá»ĳng":6613,"Viáº¿t":6614,"VÃ£n":6615,"XuyÃªn":6616,"Xáº¿p":6617,"],":6618,"]]":6619,"biáº¿t":6620,"nhÃ¬n":6621,"ro":6622,"sá»":6623,"vá»":6624,"xi":6625,"¶c":6626,"¹o":6627,"½n":6628,"ĠÃª":6629,"á»«":6630,"ĠtÃły":6631,"ĠtÄĥn":6632,"ĠtÃ¢ng":6633,"Ġcá»Ļ":6634,"ĠchiÃªn":6635,"Ġcáº³ng":6636,"Ġcáº¡m":6637,"ĠÄĳáº§n":6638,"hÃ¨o":6639,"ĠnÃ¡n":6640,"Ġninja":6641,"Ġlá»ĳc":6642,"ĠlÃ©t":6643,"ĠlÃ¹a":6644,"Ġliá»ģm":6645,"ĠmÃ¢n":6646,"Ġmiá»ģn":6647,"ĠmÄĥng":6648,"Ġmá»ĳc":6649,"ĠmÆ°á»Ľp":6650,"há»Ń":6651,"ĠvÆ¡":6652,"Ġvan":6653,"Ġváº¯n":6654,"ĠvÃ©t":6655,"Ġváº³ng":6656,"Ġváº±n":6657,"Ġbá»Ł":6658,"ĠbÄĥm":6659,"ĠTai":6660,"ĠTÃ¡i":6661,"ĠTáº¥n":6662,"ĠTiá»ĩm":6663,"ĠTiá»ģm":6664,"Ġtrinh":6665,"Ġtrá»ĵi":6666,"Ġtriá»ģn":6667,"Ġtrá»Ļi":6668,"ĠtrÄĥn":6669,"ĠtruÃ¢n":6670,"Ġsá»Ļt":6671,"ĠsoÃłi":6672,"Ġgháº":6673,"Ġgá»Ļt":6674,"Ġgáº¯n":6675,"ĠgÃ¡n":6676,"ĠgÃ³t":6677,"ĠkhÃł":6678,"Ġráº¡":6679,"ĠrÃºc":6680,"ĠrÃ¡n":6681,"ĠrÃ³c":6682,"Ġráº±m":6683,"ĠdÃłn":6684,"Ġdáº¥p":6685,"ĠdÃºi":6686,"ĠdÃ£i":6687,"Ġdáº±n":6688,"Ġhe":6689,"Ġháº¯ng":6690,"Ġháºµng":6691,"Ġxáº¿":6692,"Ġxuyáº¿t":6693,"Ġxá»ĳc":6694,"Ġthiá»ĥn":6695,"âĢľ?âĢĿ":6696,"âĢĿãĢĳ":6697,"ĠchÄ©a":6698,"ĠHÃ´n":6699,"ĠHiá»ĩu":6700,"ĠHÃŃt":6701,"ĠHÃ²a":6702,"ĠLu":6703,"ĠLÃ´":6704,"ĠnhÃ²":6705,"ĠnhÃ¡c":6706,"Ġhá»¯ng":6707,"Ġlá»¥i":6708,"ĠNáº±m":6709,"ĠCanh":6710,"ĠCáº¥u":6711,"ĠCháº¿":6712,"ĠCÃ¡p":6713,"Ġbá»ģnh":6714,"Ġpháº¥p":6715,"Ġnháº·n":6716,"Ġnháº¥m":6717,"Ġnháº¡n":6718,"ĠÄĲá»Ļi":6719,"ĠÄĲáº·c":6720,"ĠÄĲiÃªu":6721,"ĠÄĲá»ĳc":6722,"ĠÄĲoÃłng":6723,"ĠÄĲá»ĳt":6724,"ĠVáº½":6725,"ĠcÃ¡m":6726,"ĠcÃ¡u":6727,"Ġsá»¡":6728,"ĠMÃ¡i":6729,"ĠMÃ³n":6730,"ĠMÃ¡u":6731,"ĠDÃ¬":6732,"ĠDÆ°á»Ŀng":6733,"ĠDÃ¡m":6734,"Ġná»ĭu":6735,"Tra":6736,"Tranh":6737,"Ġkhiáº¿m":6738,"Ġtuá»ĵng":6739,"ĠNgÃ¢m":6740,"Ġphá»Ĺng":6741,"ÄĲoÃłn":6742,"ÄĲÃłi":6743,"ÄĲÃło":6744,"ÄĲem":6745,"ÄĲÃ³a":6746,"Ġkha":6747,"ĠkhÄĥng":6748,"Ġkham":6749,"ĠThuyá»ģn":6750,"ĠsÃ¡i":6751,"Nghi":6752,"Ngon":6753,"ĠSi":6754,"Ġhoáº¡":6755,"Ġhoáº¯m":6756,"ĠTá»µ":6757,"Ġsá»ĳc":6758,"ĠGÃ¬":6759,"Ġloan":6760,"ĠloÃ©":6761,"Ġloáº£ng":6762,"Ġrá»¥i":6763,"Ġrá»ĭn":6764,"ĠGiÃ³":6765,"Ġkhoáº¯n":6766,"Ġgá»«":6767,"ĠQuáº§n":6768,"ĠPhÃ¡c":6769,"ĠChiá»ģu":6770,"ĠChuyÃªn":6771,"Ġá»£":6772,"Ġá»ī":6773,"Ġxuáº©n":6774,"ĠHá»ĩ":6775,"ĠChuÃ´ng":6776,"ĠmuÃ´i":6777,"ĠYáº¿u":6778,"Ġquá»ĩ":6779,"Ġbuá»ĵng":6780,"ĠNhiÃªu":6781,"Ġkhua":6782,"ĠÄĲá»ĭnh":6783,"Ġnhá»Ľp":6784,"Vá»£":6785,"Tho":6786,"Thiá»ĩu":6787,"ÄĲá»įc":6788,"Ġxoe":6789,"Ġxá»©":6790,"Ġxá»Ľi":6791,"Lá»£i":6792,"ĠThuá»Ļc":6793,"ChÃł":6794,"ĠbÃŃm":6795,"Tá»ģ":6796,"Tá»ķ":6797,"Há»«m":6798,"ĠNgá»±a":6799,"Nhá»¥c":6800,"Quáº§n":6801,"QuÃ½":6802,"PhÃ¢n":6803,"ĠNhá»Ŀ":6804,"GiÃ¡m":6805,"GiÃºp":6806,"GiÃ¡p":6807,"Cháº¿":6808,"CháºŃc":6809,"Chuáº©n":6810,"MÃłu":6811,"Ġmá»īa":6812,"Ġghim":6813,"ĠPháº¡m":6814,"ĠPháº¥n":6815,"Ġ32":6816,"Ġ39":6817,"Ġ300":6818,"Ġbá»ĳp":6819,"Tuáº§n":6820,"Cá»±c":6821,"Cá»«u":6822,"ĠnguáºŃy":6823,"Phá»ĳi":6824,"Chá»¯":6825,"ĠBá»ķn":6826,"Ġ52":6827,"Nháº¹":6828,"Ġcá»±u":6829,"Trá»įng":6830,"Phanh":6831,"Pháº£n":6832,"ĠGiá»¯a":6833,"Ġvá»Ŀn":6834,"Sá»Ń":6835,"Sá»Ľm":6836,"Ġ43":6837,"ĠÆł":6838,"ĠÄĲoáº¡t":6839,"ĠSá»£":6840,"Chá»§ng":6841,"ThuáºŃt":6842,"ĠhuÃ½t":6843,"ĠNá»Ĺ":6844,"ĠkÃªnh":6845,"Ġ150":6846,"Ġ05":6847,"Ġngháº½n":6848,"Soáº¡t":6849,"ĠChÃºt":6850,"Kháº£":6851,"Khá»Łi":6852,"--------":6853,"Hoan":6854,"ĠlÃµng":6855,"ĠÆ¯á»Ľc":6856,"phÃ¬":6857,"phÃ¡p":6858,"ĠÄĳáº½o":6859,"Ġyá»ĥm":6860,"Ġ256":6861,"LuáºŃn":6862,"thu":6863,"ĠKhangac":6864,"!!!âĢĿ":6865,"ĠBuÃ´ng":6866,"bá»ĳp":6867,"Ġghá»ģnh":6868,"Xuáº¥t":6869,"ĠKhangaca":6870,"%.":6871,"'?":6872,")!":6873,")?":6874,",...":6875,".Â»":6876,"90":6877,"BÃ©":6878,"BáºŃn":6879,"Cáº©n":6880,"Cá»ĳt":6881,"Da":6882,"Gá»":6883,"Ghi":6884,"GáºŃt":6885,"Gáº¡t":6886,"HÃŃ":6887,"Háº»":6888,"Háº¥p":6889,"HÃ£y":6890,"KÃŃch":6891,"Lang":6892,"Láº§u":6893,"Lá»Ļp":6894,"Meo":6895,"MÃ¡i":6896,"MÃ¹ng":6897,"NÄĥng":6898,"Nuá»ĳt":6899,"Oa":6900,"Ong":6901,"Quá»ĳc":6902,"RÆ¡i":6903,"Su":6904,"Sáº¥m":6905,"TÃł":6906,"TÃŃ":6907,"Tai":6908,"Tung":6909,"TÃłn":6910,"Tá»ĳn":6911,"Táº¡p":6912,"TÃ²a":6913,"Uy":6914,"VÃ²ng":6915,"XÃ¬":6916,"XÆ°Æ¡ng":6917,"ba":6918,"báº¯t":6919,"báº¡ch":6920,"báº£o":6921,"cháº":6922,"cao":6923,"cáº¡ch":6924,"chá»ī":6925,"nhÃ":6926,"oong":6927,"oÃ¡n":6928,"qu":6929,"ri":6930,"rus":6931,"tá»":6932,"tiÃªn":6933,"tim":6934,"un":6935,"uÃ´i":6936,"uá»Ļng":6937,"xoáº¹t":6938,"yÃªu":6939,"¦M":6940,"°c":6941,"Äĳi":6942,"âĨ":6943,"Ġinh":6944,"Ġáº¡t":6945,"Ġáº©u":6946,"ĠÃ©n":6947,"Ġáº¿ch":6948,"Ļng":6949,"á»Į":6950,"Ġtiá»ģu":6951,"Ġtáº¡ch":6952,"ĠtÃ¨":6953,"ĠtÃŃt":6954,"Ġcen":6955,"Ġcáº§y":6956,"Ġcáº©u":6957,"ĠÄĳiáº¿c":6958,"Ġna":6959,"Ġnáº¡nh":6960,"Ġnia":6961,"ĠnÆ¡m":6962,"ĠnÃºm":6963,"ĠlÃ£":6964,"Ġláº¡ch":6965,"ĠlÃ¡n":6966,"Ġlim":6967,"Ġláº¹":6968,"Ġláº£ng":6969,"ĠlÃ³ng":6970,"Ġláº£m":6971,"Ġlá»ĳm":6972,"Ġláº¿ch":6973,"Ġme":6974,"Ġmo":6975,"ĠmÆ¡n":6976,"ĠmÃµ":6977,"Ġmá»ĵng":6978,"ĠmÃ¡ng":6979,"Ġmáº©u":6980,"Ġkiáº¿t":6981,"ĠvÃº":6982,"ĠvÆ¡i":6983,"Ġváº§y":6984,"Ġbiáº¿m":6985,"Ġbáº¹p":6986,"Ġbiáº¿u":6987,"ĠTáº¡o":6988,"ĠTáº¡ng":6989,"ĠTiáº¿c":6990,"ĠTÃ²a":6991,"ĠngÃł":6992,"Ġngai":6993,"ĠngÃ¡t":6994,"ĠngÆ°u":6995,"Ġtrá»ĵ":6996,"Ġtrá»ĳi":6997,"ĠtrÃ©t":6998,"Ġtráº«m":6999,"Ġse":7000,"Ġsanh":7001,"Ġsáº¥y":7002,"ĠsÃ¹i":7003,"ĠgÃ¢u":7004,"Ġgáº¡c":7005,"Ġgá»Ļp":7006,"ĠkhÃ¨":7007,"ĠdÃł":7008,"Ġdáº¿":7009,"Ġdiáº¿m":7010,"Ġdáº¡n":7011,"ĠdÃ¬m":7012,"Ġdáº¹o":7013,"ĠÄĳá»Ľp":7014,"ĠhÆ¡":7015,"Ġhong":7016,"ĠhÆ°u":7017,"Ġhuá»ĩ":7018,"Ġtá»µ":7019,"Ġthá»Ńa":7020,"ĠlÃłu":7021,"Ġcá»Ńi":7022,"ĠthÃŃa":7023,"ĠthÃ¢u":7024,"Ġnhung":7025,"ĠnhoÃłi":7026,"ĠnhÆ°á»Ľn":7027,"Ġtháº«n":7028,"ĠquÆ¡":7029,"Ġquá»Ł":7030,"Ġquáº«n":7031,"Ġquáº¯c":7032,"Ġxi":7033,"Ġxá»Ł":7034,"ĠxoÃłng":7035,"Ġxiá»ģng":7036,"ĠthÆ°á»£t":7037,"ĠthÆ°á»Ľt":7038,"Ġvá»©c":7039,"Ġvá»ĵng":7040,"Ġgiáº»":7041,"ĠgiÃłn":7042,"ĠgiÃ²i":7043,"âĢĿ?":7044,"ĠchÆ°á»Ŀng":7045,"Ġchuá»ĳt":7046,"ĠHáº¡p":7047,"ĠHÃ¨n":7048,"ĠLi":7049,"ĠLÃ¡":7050,"ĠLÃ²ng":7051,"ĠLÃºa":7052,"ĠLuá»ĵng":7053,"ĠnhÃ¨":7054,"ĠnhÃ¡o":7055,"Ġhá»ĳng":7056,"Ġhá»Ńng":7057,"Ġlá»įn":7058,"ĠNÃª":7059,"ĠTrÃ´ng":7060,"ĠTriá»ĩt":7061,"ĠTráº£i":7062,"ĠCá»Ļc":7063,"ĠCá»Ļng":7064,"ĠCÃ¡nh":7065,"Ġcháº£":7066,"Ġcháº£o":7067,"Ġcháº¯t":7068,"Ġran":7069,"Ġmá»įng":7070,"Ġmá»¥n":7071,"ĠÄĲÃ¢u":7072,"ĠÄĲáº¡n":7073,"ĠÄĲÃ³i":7074,"ĠÄĲáº£n":7075,"ĠVáº£":7076,"ĠVÄ©":7077,"Ġsá»§i":7078,"ĠMong":7079,"ĠMáº£nh":7080,"ĠMá»ĳi":7081,"ĠMÃ¨o":7082,"ĠMÃ¹a":7083,"Ġgiá»Ĺ":7084,"ĠâĢľâĢ¦":7085,"ĠDáº¡o":7086,"ĠDÃ²ng":7087,"ĠDiá»ĩt":7088,"Ġná»Ľi":7089,"Ġná»Ľp":7090,"Tráº¡ng":7091,"Ġtuá»Ļt":7092,"Ġngá»į":7093,"Ġngá»§n":7094,"ĠBÃ¬":7095,"ĠBáº§n":7096,"ĠBáº§u":7097,"ĠBáº¡o":7098,"ĠBuá»ķi":7099,"ĠNgÆ°á»£c":7100,"ĠNgÃ¢n":7101,"Ġhaiz":7102,"Ġbá»ĭch":7103,"Ġphá»Ļng":7104,"ÄĲáº¥t":7105,"ÄĲÄĥng":7106,"ÄĲoÃłng":7107,"ÄĲá»ĳng":7108,"Ġhá»įp":7109,"ĠgÃ¬n":7110,"ĠthÃ¬a":7111,"ĠkhÆ°á»Ľt":7112,"ĠkhÃ¡n":7113,"ĠThay":7114,"ĠThuá»ĳc":7115,"ĠTháº»":7116,"Ġtháº¿ch":7117,"ĠphÆ¡":7118,"Ġkhá»ģu":7119,"ĠnhÃłu":7120,"NgÆ°":7121,"NgÆ°ng":7122,"NgÃ³n":7123,"Ngoan":7124,"ĠSÄ©":7125,"ĠSáº½":7126,"ĠSÃºng":7127,"ĠThÃºc":7128,"ĠThÃ¡m":7129,"ĠThÃ¡p":7130,"Ġhoi":7131,"Ġhoay":7132,"ĠTá»ĭ":7133,"Ġthinh":7134,"Ġloay":7135,"ĠloÃ©t":7136,"ChÆ°":7137,"Chuyá»ĥn":7138,"ĠGian":7139,"ĠquÃ¡nh":7140,"ĠHoáº¡t":7141,"Ġmá»Łn":7142,"Ġá»į":7143,"Ġá»ĭch":7144,"ĠxuÃ½t":7145,"KhÃºc":7146,"ĠXÃ¬":7147,"ĠXÃ¡c":7148,"Tháº£":7149,"ĠHá»£i":7150,"ĠHá»Ńm":7151,"ĠCá»¯u":7152,"ĠChÃªnh":7153,"ĠPhÆ°á»£c":7154,"ĠPhiá»ĩt":7155,"ĠUá»ĳng":7156,"Ġquá»ĩt":7157,"Ġngoáº¯c":7158,"Ġvirus":7159,"ĠTrá»ĭ":7160,"ĠTin":7161,"ThÆ°a":7162,"Thiá»ĥn":7163,"Ġvua":7164,"ĠphÃºng":7165,"Ġxoan":7166,"Ġxoáº¡t":7167,"ĠKhuyáº¿t":7168,"Ġxá»ĭ":7169,"Ġxá»ĩch":7170,"ĠThuáº¿":7171,"NghÄ©a":7172,"ChÃ³":7173,"Thá»«a":7174,"Tá»¥":7175,"Tá»ıa":7176,"Tá»ĭnh":7177,"ĠchÃ³p":7178,"Há»©":7179,"Há»Ĺn":7180,"Nhá»ı":7181,"ĠPhiáº¿n":7182,"Quen":7183,"ĠtÃŃa":7184,"ĠÃĻ":7185,"PhÃŃ":7186,"PhÃ¡o":7187,"ĠNhá»¯":7188,"ĠChiáº¿c":7189,"Ġ29":7190,"ĠhÃ²e":7191,"ĠhÃ²i":7192,"ĠÃĶi":7193,"Gian":7194,"Giáº¥y":7195,"Giáº¥u":7196,"Cháº£":7197,"Cháº¡ng":7198,"ĠMá»Ĺ":7199,"ĠnuÃ´ng":7200,"Ġoi":7201,"Ġoáº¯t":7202,"Ġcá»¥m":7203,"ĠPháºŃp":7204,"ĠnghÃŃa":7205,"Ġ34":7206,"Ná»Ĺi":7207,"Nhiá»ĩt":7208,"Nhiá»ħm":7209,"ĠRáº§m":7210,"Thiáº¿p":7211,"Phá»ĳ":7212,"ĠlÃ²i":7213,"Chá»įn":7214,"Ġbá»Ŀm":7215,"ĠBá»Ĺng":7216,"ĠBá»Ľt":7217,"Ġ51":7218,"Ġ54":7219,"Ġ56":7220,"Ġ57":7221,"Ġ550":7222,"ĠKhiáº¿t":7223,"Nháº¯m":7224,"Ġuáº¿":7225,"Ġvá»ın":7226,"Phiá»ģn":7227,"NhÃ¡y":7228,"Ġnhuáº§n":7229,"Ġ41":7230,"Ġ42":7231,"Ġ48":7232,"Ġ49":7233,"Ġtá»§i":7234,"Ngá»±c":7235,"Ngá»¥y":7236,"Ngá»Ńi":7237,"Â»,":7238,"Ġxáº»ng":7239,"ĠthÃ³p":7240,"Haha":7241,"Bá»Ļp":7242,"Xoay":7243,"Ġkáº½o":7244,"ĠChÃºa":7245,"Khá»ĳng":7246,"Ãģo":7247,"ĠlÃªnh":7248,"ĠKháº©u":7249,"ĠXuáº¥t":7250,"khÃŃ":7251,"Ġchá»Ļi":7252,"???âĢĿ":7253,"Ġnáº»o":7254,"ĠhÃ¹m":7255,"oooo":7256,"áº¢o":7257,"bá»ĭch":7258,"chÃŃnh":7259,"Rá»Ńa":7260,"ï¼Ł":7261,"ĠhÃ£nh":7262,"sá»±":7263,"xit":7264,"Ġgháº¹o":7265,"Háº»m":7266,"SuÃ½t":7267,"timet":7268,"âĨĳ":7269,"Ġcentimet":7270,"!]":7271,"!ãĢĳ":7272,"!âĢĻ":7273,"%.âĢĿ":7274,")âĢĿ":7275,"-,":7276,"13":7277,"25":7278,"80":7279,"86":7280,"BÃ¡":7281,"Biá»ĩn":7282,"BÃ£o":7283,"BÃłi":7284,"BÆ°u":7285,"Báº§y":7286,"BÃ¹a":7287,"Cá»Ļt":7288,"CÆ°á»Ŀi":7289,"CÃ¢m":7290,"Cáº¯n":7291,"Cá»¥c":7292,"Cáº¯m":7293,"Cáº©u":7294,"Dao":7295,"Diá»ĩu":7296,"Diá»ħn":7297,"DáºŃy":7298,"DÃ¡ng":7299,"GÃ¢u":7300,"GÃ¡c":7301,"HÆ°":7302,"HÃª":7303,"HÃ¬":7304,"HÆ°Æ¡ng":7305,"Hung":7306,"HÃłi":7307,"Há»ĵn":7308,"Im":7309,"Ká»µ":7310,"La":7311,"Ly":7312,"Lan":7313,"LÃ¢n":7314,"Liá»ģn":7315,"LÄ©nh":7316,"Láº·ng":7317,"LÆ°á»£t":7318,"Láº©m":7319,"LÃ¹i":7320,"Má»ĵ":7321,"MÃ´ng":7322,"Men":7323,"MÃ³ng":7324,"Miá»ĩng":7325,"NhiÃªn":7326,"NÃºi":7327,"Niá»ģm":7328,"Náº¿m":7329,"Oan":7330,"RÄĥng":7331,"RÃºt":7332,"Rá»ĳng":7333,"Sá»Ļt":7334,"SiÃªu":7335,"SÃºng":7336,"Tiá»ĩn":7337,"TÃ¡t":7338,"TÄĥng":7339,"TÃ¡c":7340,"TáºŃn":7341,"Táº·ng":7342,"TÃ³c":7343,"TÃ³m":7344,"Ve":7345,"Vi":7346,"Váº£":7347,"Váº½":7348,"Vung":7349,"Ven":7350,"VÃ¨o":7351,"XÃło":7352,"XÃ¡ch":7353,"Xáº£y":7354,"bÃł":7355,"bÃłn":7356,"ck":7357,"chi":7358,"cÃ´ng":7359,"cÃ¢u":7360,"cá»ĳt":7361,"el":7362,"giá»":7363,"huyáº¿t":7364,"heng":7365,"kg":7366,"kÃ©t":7367,"lo":7368,"lÃªn":7369,"mÆ°á»Ŀi":7370,"má»Ł":7371,"máº¥t":7372,"mÃłi":7373,"má»Ŀi":7374,"ná»":7375,"nhá»ĭ":7376,"oa":7377,"ol":7378,"pháº":7379,"ra":7380,"ram":7381,"sÆ°":7382,"tan":7383,"tiáº¿p":7384,"ter":7385,"vÃ´":7386,"xu":7387,"£ng":7388,"¨ng":7389,"»m":7390,"ÃĻ":7391,"Ġ!":7392,"Ġf":7393,"ĠÃ³":7394,"Ġ.âĢĿ":7395,"ĠÃ´i":7396,"ĠÃ³t":7397,"Ġ???":7398,"īm":7399,"ĵm":7400,"Ķn":7401,"Ŀn":7402,"á»Ń":7403,"á»Ĺng":7404,"á»°c":7405,"áº¨n":7406,"áº¶c":7407,"áº¦M":7408,"ngÃły":7409,"Ġtong":7410,"ĠtÃ¡p":7411,"ĠtÆ°Æ¡m":7412,"Ġcm":7413,"Ġcá»Ļm":7414,"ĠÄĳÅ©ng":7415,"ĠÄĳoÃłng":7416,"ĠÄĳáº£n":7417,"ĠÄĳáº«y":7418,"Ġni":7419,"Ġnai":7420,"ĠnÃ¡i":7421,"ĠnÃªm":7422,"ĠnÃºng":7423,"Ġlá»ĳ":7424,"ĠlÃ¬nh":7425,"ĠlÆ¡i":7426,"Ġláº£nh":7427,"Ġmuá»ĳt":7428,"há»ģ":7429,"há»ĩ":7430,"há»įc":7431,"há»ıa":7432,"Ġken":7433,"ĠkÃ¨":7434,"Ġkiá»ħng":7435,"nhiÃªn":7436,"Ġváº¡":7437,"ĠvÃ¡o":7438,"Ġváº¥p":7439,"Ġváº£ng":7440,"Ġviáº¿ng":7441,"ĠvÃ£nh":7442,"Ġvoan":7443,"ĠbÃŃch":7444,"ĠbÄĥn":7445,"ĠbÄ©nh":7446,"ĠbÆ°á»Ľng":7447,"ĠbÆ¡m":7448,"ĠbÆ°Æ¡m":7449,"ĠbÃºn":7450,"ĠTáº¯m":7451,"ĠTáº¥m":7452,"ĠTÃ³m":7453,"Ġngáº¡ch":7454,"ĠngÃ¡n":7455,"ĠtrÆ°":7456,"Ġtrá»ĳ":7457,"ĠtrÅ©ng":7458,"ĠtrÃ¹":7459,"ĠtrÆ¡i":7460,"Ġtráº±n":7461,"Ġsá»Ļ":7462,"ĠsÃ¬":7463,"ĠsÃ´":7464,"ĠsÃłi":7465,"ĠsÆ°á»£t":7466,"ĠsÃµng":7467,"Ġsheng":7468,"ĠgÃ´ng":7469,"ĠgÃłi":7470,"ĠgÃ²n":7471,"Ġguá»Ļc":7472,"Ġgram":7473,"ĠkhÃłng":7474,"Ġpro":7475,"Ġráº§n":7476,"Ġrá»ĵ":7477,"Ġruá»ĳc":7478,"ĠrÃ¡y":7479,"ĠdÃŃ":7480,"Ġdáº·t":7481,"ĠdÆ°á»£ng":7482,"Ġdiáº¿c":7483,"ĠdáºŃm":7484,"Ġdáº¹t":7485,"ĠÄĳá»ħnh":7486,"Ġhanh":7487,"ĠhoÃł":7488,"ĠhÄ©nh":7489,"Ġthá»¯ng":7490,"Ġcá»±a":7491,"Ġcá»įt":7492,"ĠthÃ²ng":7493,"Ġnhem":7494,"Ġháº«ng":7495,"Ġháº¥n":7496,"ĠquÃ¨":7497,"ĠxÃ³":7498,"ĠxÃłi":7499,"Ġxá»ĵm":7500,"ĠthÆ°á»Ŀn":7501,"ĠnÃłi":7502,"ĠgiÅ©a":7503,"Ġchong":7504,"ĠchÃłm":7505,"ĠHu":7506,"ĠHÃª":7507,"ĠHáº¡i":7508,"ĠHÃ¬":7509,"ĠHáº¿t":7510,"ĠHáº¡nh":7511,"ĠHá»Ļc":7512,"ĠHiá»ĩp":7513,"ĠHÃ£n":7514,"ĠLÃªn":7515,"ĠLoÃłi":7516,"ĠnhÃ¡":7517,"ĠnhÃ¡i":7518,"Ġhá»©c":7519,"Ġlá»¥t":7520,"Ġlá»§ng":7521,"ĠNáº¡n":7522,"ĠNÃ¢ng":7523,"ĠTráº£":7524,"ĠTrÃŃ":7525,"ĠTruyá»ĩn":7526,"ĠTráº»":7527,"ĠTrÃ¡ng":7528,"ĠTrÃ¡nh":7529,"ĠCáº¥t":7530,"ĠCan":7531,"ĠCÆ°á»Ľc":7532,"ĠCÆ¡n":7533,"ĠCá»¥c":7534,"ĠCáº©m":7535,"Ġbá»¥c":7536,"Ġbá»§n":7537,"Ġbá»ıi":7538,"Ġbá»£m":7539,"Ġpháº¿t":7540,"ĠhÃ¡ng":7541,"ĠhÃ¢u":7542,"anel":7543,"Ġmá»§":7544,"Ġnháº¡i":7545,"Ġnháº»m":7546,"ĠÄĲáº·t":7547,"ĠÄĲÃ¡n":7548,"ĠÄĲá»ķi":7549,"ĠÄĲÃ¹ng":7550,"ĠÄĲáº¡t":7551,"ĠÄĲÃ³ng":7552,"ĠÄĲÃ¨n":7553,"ĠViáº¿t":7554,"ĠVÃ²ng":7555,"ĠViÃªm":7556,"Ġnhá»ħ":7557,"Ġnhá»į":7558,"Ġnhá»¥t":7559,"Ġnhá»±a":7560,"Ġnhá»īnh":7561,"Ġnhá»¥i":7562,"Ġsá»±c":7563,"Ġsá»©t":7564,"Ġsá»ĩt":7565,"ĠMáº¯t":7566,"ĠâĢľ?âĢĿ":7567,"ĠâĢľ???âĢĿ":7568,"ĠDÃ¢n":7569,"ĠKÃŃch":7570,"TrÄĥm":7571,"TrÄĥng":7572,"Trá»ĳn":7573,"Ġdá»ģ":7574,"Ġngá»Ľ":7575,"Ġnghiá»ĩn":7576,"ĠBao":7577,"ĠBÆ°á»Ľc":7578,"ĠBá»ĵng":7579,"ĠBÃłnh":7580,"ĠBáº£y":7581,"ĠNguy":7582,"ĠNgao":7583,"ĠNgáºŃm":7584,"ĠNgÃ²i":7585,"Ġphá»Ľt":7586,"ĠÄĳÃ¡c":7587,"ÄĲÃ¬nh":7588,"ÄĲÃ¢u":7589,"ÄĲÃłn":7590,"ÄĲáº¯c":7591,"ÄĲÃ¨":7592,"ÄĲÃ©t":7593,"ÄĲáº£o":7594,"ÄĲÃ¨n":7595,"ÄĲá»ĳt":7596,"ÄĲáº¹p":7597,"ÄĲÃ¹a":7598,"ÄĲÃ¡y":7599,"ÄĲáº³ng":7600,"Ġtrá»įi":7601,"Ġtrá»Ĺi":7602,"ĠTha":7603,"ĠThuyáº¿t":7604,"ĠThiá»ĩt":7605,"ĠÃ¡ng":7606,"ĠchÃŃch":7607,"Ġthui":7608,"Ġthuá»ĵng":7609,"Ġká»īnh":7610,"Ġphiá»ĩt":7611,"ĠphÆ°á»Ľn":7612,"...,":7613,"ĠchiÃªm":7614,"Ġkhá»ıa":7615,"Ġkhá»©u":7616,"NgÃ³":7617,"Ngá»Ļ":7618,"Nguy":7619,"Ngáº¯n":7620,"NgÃ´i":7621,"ĠSÃŃ":7622,"ĠSÆ°u":7623,"ĠSam":7624,"ĠSuá»µt":7625,"ĠThÃ¡c":7626,"ĠThÃŃch":7627,"Ġhoáº£":7628,"ĠTá»ĥ":7629,"Ġgiáº£o":7630,"ĠThá»ĩ":7631,"Ġthin":7632,"ĠKhÃł":7633,"Ġlom":7634,"Ġloanh":7635,"Ġrá»į":7636,"Chiá»ģu":7637,"ĠQuyá»ĥn":7638,"Ġkhoáº»":7639,"ĠkhoÄĥn":7640,"ĠQuÃªn":7641,"ĠQuay":7642,"ĠQuáº»":7643,"ĠQuÃ¡ng":7644,"ĠQuÃ¡ch":7645,"ĠPhÃ³ng":7646,"ĠChuyáº¿n":7647,"ĠChanel":7648,"Ġá»±c":7649,"Ġá»įt":7650,"Ġá»¨ng":7651,"KhÃ¡m":7652,"Ġváº»n":7653,"ĠXÃ©t":7654,"ĠXuyáº¿n":7655,"ĠNhÄ©":7656,"Tháº³ng":7657,"ĠHá»Ĺ":7658,"ĠCá»Ń":7659,"ĠCá»§ng":7660,"ĠCá»§a":7661,"ĠChÃło":7662,"ĠthoÄĥn":7663,"ĠUÃ½":7664,"Ġmun":7665,"Ġmuá»Ĺng":7666,"ĠHÃłm":7667,"Ġquá»µ":7668,"Ġtoáº£":7669,"Ġlá»Ļp":7670,"ĠchÃ¡c":7671,"Ġngoi":7672,"Ġngoáº·t":7673,"Ġngoáº¡m":7674,"ĠLá»±a":7675,"ĠLá»Ľp":7676,"ĠLá»Ľn":7677,"ĠTrá»±c":7678,"ĠkhuÃ¢y":7679,"Ġkhuáº©n":7680,"ĠthÃºt":7681,"ĠsoÃ³c":7682,"Ġsofa":7683,"ThÄĥm":7684,"Ġnhiáº¿c":7685,"ThÃ¹ng":7686,"ĠDá»©t":7687,"ĠDá»±ng":7688,"ÄĲá»ģ":7689,"ÄĲá»Ĺ":7690,"Ġnghá»ħ":7691,"ĠcÃºp":7692,"Ġmáº¹o":7693,"ĠÄĳua":7694,"ĠThuáº«n":7695,"ona":7696,"one":7697,"ChÃ¡o":7698,"Tá»§":7699,"Há»ıng":7700,"ĠNgá»§":7701,"ĠNgá»¥y":7702,"QuÃ¡n":7703,"ĠÃĤ":7704,"PhÃ¨n":7705,"Má»ĩnh":7706,"Má»ĩt":7707,"Má»īm":7708,"Cháº¥t":7709,"CháºŃm":7710,"ĠphÃŃch":7711,"Giá»¯":7712,"Giá»ıi":7713,"ĠMá»ĭ":7714,"ĠsuÃ´n":7715,"Ġsuona":7716,"ĠNghiá»ħn":7717,"ĠthÃ¹y":7718,"Bá»¥ng":7719,"ĠKhoÃ¡ng":7720,"ĠKhoáº£n":7721,"ĠPhá»ĳi":7722,"ĠPhá»ĳc":7723,"Ġhack":7724,"ĠlÃ³a":7725,"ĠCháº£":7726,"ĠCháº¡y":7727,"ĠCháºŃm":7728,"ĠCháº¡p":7729,"uá»·":7730,"ĠPháº£n":7731,"ĠnghÃ©":7732,"ĠnghÃ©n":7733,"Ġ37":7734,"Cá»±":7735,"Cá»©u":7736,"Cá»§a":7737,"Nhuyá»ħn":7738,"ĠRá»Ŀi":7739,"ĠRá»«ng":7740,"Phá»ıng":7741,"Chá»ĳc":7742,"Chá»ĵng":7743,"ĠghÃ©m":7744,"ĠxÃ©m":7745,"ĠBá»ģ":7746,"ĠBá»©c":7747,"ĠBá»¯a":7748,"ĠBá»ĭch":7749,"ĠBá»¥ng":7750,"Ġ53":7751,"Ġ55":7752,"Ġ58":7753,"ĠKhinh":7754,"Nháº£":7755,"NháºŃm":7756,"Ġuáº©n":7757,"PhÆ°á»Ŀng":7758,"Ġ71":7759,"Ġ75":7760,"Khoanh":7761,"KhoÃ¡ng":7762,"Ġ44":7763,"Ġ47":7764,"Ġ67":7765,"?!'":7766,"âĢĿ.ãĢĳ":7767,"Ġnghá»ĭu":7768,"Chim":7769,"Ngá»±a":7770,"Ġ99":7771,"Ġhá»«m":7772,"Ġ160":7773,"ÄĳÆ°á»£c":7774,"ĠKhá»ķng":7775,"ĠKhá»ĳn":7776,"Ġ196":7777,"ChÃºt":7778,"ĠnhÃºm":7779,"KhÃ³i":7780,"Kháº¯p":7781,"Kháº©u":7782,"Ãģi":7783,"ĠKháº¯c":7784,"ĠÃĢi":7785,"Ġaxit":7786,"phÃłm":7787,"Ġcá»įp":7788,"Ġhá»Ŀn":7789,"Vui":7790,"Muá»Ļi":7791,"ĠphÃ¬nh":7792,"......":7793,"Lui":7794,"LuÃ´n":7795,"ĠãĢĭ":7796,"ĠKhuÃ´n":7797,"áº¢i":7798,"ĠBuá»ĵn":7799,"phá»¥":7800,"phá»ĭch":7801,"ĠvÃªnh":7802,"ãĢĭ,":7803,"Äĳá»ĭa":7804,"Loáº£ng":7805,"thiáº¿t":7806,"Æ¯á»Ľc":7807,"ĠMua":7808,"ĠMuá»Ļi":7809,"Buá»ĵn":7810,"Grá»«":7811,"Nhiáº¿p":7812,"ĠLuáºŃn":7813,"ThoÃ¡ng":7814,"thuáºŃt":7815,"ĠlÃ£m":7816,"%)]":7817,"'âĢĿ":7818,"'!âĢĿ":7819,"*,":7820,"+'":7821,"+âĢĿ":7822,"+)]":7823,"-.":7824,".)":7825,"/+)]":7826,"12":7827,"17":7828,"110":7829,"32":7830,"35":7831,"40":7832,"46":7833,"500":7834,"83":7835,"84":7836,":]":7837,"Báº¿":7838,"Báº¿n":7839,"Bang":7840,"Bá»ĵi":7841,"Báº»":7842,"BÃły":7843,"Báº¯c":7844,"Báº¡c":7845,"BÃ¨":7846,"Bá»ĳi":7847,"BÃ¬a":7848,"Boong":7849,"CÆ°Æ¡ng":7850,"CÆ°á»£c":7851,"Cáº¥t":7852,"Cáº¯t":7853,"CÃ¢n":7854,"CÃ¡o":7855,"Cáº·p":7856,"Cá»Łi":7857,"CÆ°á»Ľp":7858,"Cá»Ļp":7859,"Cuá»ĵng":7860,"Coong":7861,"Dáº¥u":7862,"GÃło":7863,"He":7864,"HÃ¡t":7865,"HÆ°ng":7866,"HáºŃn":7867,"Háº¡t":7868,"Háº§y":7869,"Háº£o":7870,"Há»ĳng":7871,"Huyá»ħn":7872,"IP":7873,"KÃ©m":7874,"LÆ°":7875,"Lai":7876,"Lau":7877,"Liá»ģu":7878,"LÃ¡i":7879,"LÆ°á»£ng":7880,"LoÃłi":7881,"LÃŃnh":7882,"Lá»ĵng":7883,"LÃ¡o":7884,"Lá»ĳi":7885,"LÃ¡ch":7886,"LÃ£ng":7887,"LÃ£nh":7888,"MÃ¡":7889,"Manh":7890,"MÃ¹":7891,"MÃ¢u":7892,"Máº»":7893,"MÃ´i":7894,"Máº§m":7895,"Miá»ħn":7896,"MÃ¡ch":7897,"Miáº¿u":7898,"NÆ°Æ¡ng":7899,"NÃ´n":7900,"Náº·ng":7901,"NÃ³ng":7902,"Náº¡p":7903,"NÃ¢ng":7904,"NuÃ´i":7905,"PhiÃªn":7906,"Quyáº¿t":7907,"RÆ°á»£":7908,"RÃ¢u":7909,"Rá»ĵng":7910,"Ráº£nh":7911,"RÃ¬u":7912,"Ruá»Ļng":7913,"SÃłn":7914,"SÃ²ng":7915,"Sáº£ng":7916,"Sáº£n":7917,"To":7918,"Tao":7919,"Táº¯t":7920,"Táº¡o":7921,"TÃ¡n":7922,"TÃ²ng":7923,"Tá»Ļi":7924,"Táº·c":7925,"TÆ°á»£ng":7926,"Tiá»ĩc":7927,"Tá»ĵn":7928,"TÃŃn":7929,"Váº¥t":7930,"Vay":7931,"Vá»Ļi":7932,"VÄ©nh":7933,"Váº£i":7934,"VÆ°á»£t":7935,"XÃ´ng":7936,"Xiá»ĥn":7937,"Xá»Ń":7938,"Yáº¿u":7939,"al":7940,"at":7941,"báº¥t":7942,"bÃ¬nh":7943,"bá»ĵi":7944,"bÃ¡i":7945,"cÃ¡":7946,"cÆ°Æ¡ng":7947,"cÃ¡i":7948,"cá»Ļc":7949,"de":7950,"dÃ¬":7951,"dÆ°á»£c":7952,"ein":7953,"giáº¿t":7954,"gá»įi":7955,"il":7956,"iÃª":7957,"khá»":7958,"káº¿":7959,"khi":7960,"káº»":7961,"kiáº¿m":7962,"kiá»ĥm":7963,"kÃŃnh":7964,"ká»¹":7965,"káº½o":7966,"lu":7967,"lá»":7968,"lÃł":7969,"linh":7970,"lÃ£o":7971,"mu":7972,"mÃ£n":7973,"nÄĥm":7974,"nÃłng":7975,"náº¥m":7976,"or":7977,"oáº£nh":7978,"oáº£ng":7979,"oáº£n":7980,"phi":7981,"ráº¥t":7982,"ray":7983,"se":7984,"sÃ¡u":7985,"ta":7986,"tÃł":7987,"tinh":7988,"tÃ¢m":7989,"tiá»ĥu":7990,"tiá»ģn":7991,"tÃłi":7992,"tam":7993,"tÃ¬m":7994,"tiá»ħn":7995,"tÃ¡ch":7996,"tein":7997,"uÃ´ng":7998,"uá»ĵn":7999,"viÃªn":8000,"vÃµ":8001,"váºŃt":8002,"viá»ĩc":8003,"váº¡n":8004,"xem":8005,"³c":8006,"·c":8007,"¹p":8008,"ºn":8009,"º·":8010,"¾ch":8011,"Â¹":8012,"Ãģm":8013,"Ìĥ":8014,"ç»":8015,"çº·":8016,"éĽ":8017,"Ġ,":8018,"ĠÃ¢":8019,"ĠÃŃ":8020,"Ġá»Ļc":8021,"ĠáºŃm":8022,"ĠâĢ¦âĢĿ":8023,"ĠÃ©o":8024,"ĠÆ°Æ¡m":8025,"īa":8026,"įch":8027,"Ĳi":8028,"á»¤":8029,"á»Ĺ":8030,"á»ľ":8031,"á»«m":8032,"á»Ķn":8033,"á»Ĳi":8034,"ngá»":8035,"Ġtá»Ļ":8036,"Ġtuyá»ģn":8037,"Ġtáº¡t":8038,"ĠtÃºp":8039,"Ġtuá»ĳt":8040,"ĠtÃ³p":8041,"Ġcá»Ļi":8042,"Ġcáº¡c":8043,"Ġcáº¡p":8044,"ĠÄĳÄ©":8045,"ĠÄĳam":8046,"ĠÄĳÃ©t":8047,"ĠÄĳiáº¿ng":8048,"ĠÄĳÃ´m":8049,"ĠnÃ¡":8050,"ĠnÃºc":8051,"ĠnÃ´i":8052,"ĠniÃªu":8053,"Ġnáº¡ng":8054,"Ġnáº¥c":8055,"Ġnoi":8056,"Ġnáº¡m":8057,"ĠlÃº":8058,"Ġláº©n":8059,"Ġliá»ĩm":8060,"Ġláº¡t":8061,"Ġlem":8062,"ĠlÃ©p":8063,"Ġmao":8064,"Ġmiáº¿t":8065,"Ġmiá»ĥu":8066,"ĠmÃ£o":8067,"Ġmáº¯m":8068,"ĠmÃºp":8069,"Ġmáº©m":8070,"háº¹n":8071,"há»«":8072,"há»ķ":8073,"há»Ļ":8074,"há»ĭch":8075,"há»¯u":8076,"Ġky":8077,"ĠkÃŃt":8078,"ĠkÃ¨o":8079,"nhÆ°":8080,"Ġváº¿":8081,"Ġváº§n":8082,"ĠvÆ°á»£c":8083,"ĠvÆ°á»Łng":8084,"ĠvÃ³t":8085,"ĠbÆ¡":8086,"Ġbai":8087,"Ġbanh":8088,"Ġbáº¥u":8089,"ĠbÃ¨o":8090,"Ġbon":8091,"Ġblo":8092,"ĠTÆ°Æ¡":8093,"ĠTao":8094,"ĠTÃ¹":8095,"ĠTÃ¡o":8096,"ĠTáº·ng":8097,"ĠTÃ¡ch":8098,"ĠTáº£o":8099,"ĠTáº©u":8100,"ĠToÃ¡n":8101,"Ġngáº¥y":8102,"Ġngáº¥n":8103,"Ġngá»ĳn":8104,"Ġngáº¡n":8105,"Ġngáº¥p":8106,"ĠngÃ¡ch":8107,"ĠngÃ¹n":8108,"ĠngÃºm":8109,"ĠtrÄ©":8110,"ĠtrÃ¡t":8111,"ĠtráºŃp":8112,"ĠtriÃªu":8113,"Ġtruá»ĵng":8114,"ĠsÃ¹":8115,"Ġsá»ĵi":8116,"Ġsáº¡c":8117,"ĠsÃŃnh":8118,"Ġsáº£o":8119,"Ġsáº¡m":8120,"Ġgá»ĵ":8121,"Ġgá»Ļi":8122,"ĠgÆ°Æ¡m":8123,"ĠkhÃŃa":8124,"ĠkhÃ²m":8125,"ĠrÃ¬":8126,"Ġrinh":8127,"Ġráº¯t":8128,"ĠrÄ©":8129,"ĠrÄĥm":8130,"ĠrÆ°ng":8131,"ĠráºŃn":8132,"Ġráº¡n":8133,"Ġráº¯p":8134,"Ġráº£o":8135,"ĠrÆ°á»£t":8136,"ĠrÆ°á»Ŀm":8137,"ĠrÆ°á»Ľn":8138,"Ġday":8139,"ĠdÃ´ng":8140,"ĠdÃ¡t":8141,"Ġdáº¡c":8142,"Ġdiá»ĩp":8143,"Ġdáº¥m":8144,"Ġdiá»ħu":8145,"ĠdÃµng":8146,"ĠÄĳá»į":8147,"ĠhÆ°á»Ľc":8148,"ĠhuÃ¢n":8149,"Ġhuá»":8150,"ĠcÃ³t":8151,"Ġcá»¥ng":8152,"Ġcá»ĵm":8153,"ĠnhÄ©":8154,"Ġnhen":8155,"ĠnhÆ°á»¡ng":8156,"Ġquyá»ĩn":8157,"Ġtháº¡c":8158,"Ġtháº¯m":8159,"Ġháº±m":8160,"Ġquáº¯t":8161,"Ġquáº¡c":8162,"Ġquáº«y":8163,"Ġquáº³ng":8164,"Ġquáº¹o":8165,"ĠxÆ°á»Ľc":8166,"ĠxoÃł":8167,"ĠxÃ¡p":8168,"Ġxuyáº¿n":8169,"ĠxiÃªm":8170,"Ġxáº¿ch":8171,"ĠthÆ¡i":8172,"chÆ¡i":8173,"chuÃ´ng":8174,"âĢľ'":8175,"âĢľâĢ¦":8176,"âĢľâĢ¦âĢĿ":8177,"Ġgiun":8178,"âĢĿ:":8179,"Ġchan":8180,"ĠchÃ¢y":8181,"Ġchá»ĩch":8182,"ĠHÃ´":8183,"ĠHang":8184,"ĠHÃ¢y":8185,"ĠHÆ¡i":8186,"ĠHÃ¡i":8187,"ĠHÅ©":8188,"ĠHiáº¿n":8189,"ĠHáº¥p":8190,"ĠHá»ĳi":8191,"ĠHáº£o":8192,"ĠHá»ĳng":8193,"ĠLÆ°ng":8194,"ĠLá»Ļi":8195,"ĠLam":8196,"ĠLiá»ĩp":8197,"ĠLÆ°á»Ľi":8198,"ĠLá»Ļng":8199,"ĠLáº¡p":8200,"ĠLeng":8201,"ĠcÃ²m":8202,"ĠnhÃ¡m":8203,"ĠnhÃ¢m":8204,"Ġhá»£t":8205,"Ġhá»Ľt":8206,"ĠphÃ²":8207,"ĠphÃ¹ng":8208,"ĠphÃŃm":8209,"Ġlá»ģnh":8210,"ĠNÃ£":8211,"ĠNáº¯m":8212,"ĠNáº·ng":8213,"ĠNÃ£i":8214,"ĠTru":8215,"ĠTriá»ĩn":8216,"ĠTrÄ©":8217,"ĠTrÃ¢n":8218,"ĠTrÃ²":8219,"ĠTráº§m":8220,"ĠTrá»ĳn":8221,"ĠTrÆ°á»Ľng":8222,"ĠTruÃ¢n":8223,"ĠTrá»Ļm":8224,"ĠCÆ°":8225,"ĠCÆ°á»Ŀi":8226,"ĠCáº¯t":8227,"ĠCáº£ng":8228,"ĠCÃłnh":8229,"Ġthá»ĥu":8230,"Ġbá»±":8231,"Ġbá»¥a":8232,"Ġbá»§a":8233,"Ġpháº¯c":8234,"ĠhÃ¡m":8235,"Ã½ch":8236,"Ġmá»įt":8237,"Ġnháº¡nh":8238,"ĠÄĲÃŃch":8239,"ĠÄĲoÃłn":8240,"ĠÄĲá»Ļn":8241,"ĠVo":8242,"ĠVÃ¹":8243,"ĠVÆ°u":8244,"ĠVIP":8245,"Ġnhá»Ń":8246,"Ġnhá»¥y":8247,"Ġnhá»ĳn":8248,"ĠÄĳiÃª":8249,"Ġsá»¥a":8250,"Ġsá»ĭt":8251,"ĠMÃ¡":8252,"ĠMÆ¡":8253,"ĠManh":8254,"ĠMÃ²":8255,"ĠMiá»ĥu":8256,"ĠMÆ°a":8257,"ĠMÃłn":8258,"ĠMÃŃnh":8259,"ĠMáº¥u":8260,"ĠMiá»ĩng":8261,"ĠMÃ£n":8262,"ĠMor":8263,"ĠâĢľ'":8264,"ĠâĢľâĢ¦âĢĿ":8265,"ĠâĢľ+âĢĿ":8266,"ĠDa":8267,"ĠDáº¯t":8268,"ĠDÃ¢m":8269,"ĠDÆ°a":8270,"ĠDáºŃy":8271,"ĠDÃ¡ng":8272,"Ġná»ĭch":8273,"Ġná»įc":8274,"ĠKiá»ĥm":8275,"ĠKiÃªu":8276,"ĠKá»ĩ":8277,"ĠKá»ĥ":8278,"ĠKiÃª":8279,"ĠÄĳÃ³m":8280,"Tri":8281,"TrÆ°a":8282,"Treo":8283,"Trá»¥c":8284,"Trá»ĵng":8285,"TrÃ³i":8286,"Tráº£m":8287,"Trá»Ļm":8288,"Ġchoai":8289,"Ġdá»Ŀn":8290,"Ġngá»ı":8291,"Ġngá»¥t":8292,"Ġngá»įng":8293,"ĠBáº¿n":8294,"ĠBiá»ĩn":8295,"ĠBáº¡c":8296,"ĠBÃ³ng":8297,"ĠBÃ¹a":8298,"ĠBÃ¹n":8299,"ĠNgÃłn":8300,"ĠNgÃ´i":8301,"ĠNghá»ī":8302,"ĠNgá»ĳc":8303,"ĠNgáº©ng":8304,"ĠNghá»ĭ":8305,"ĠNghÃ¨o":8306,"ĠNghá»ģ":8307,"Ġbá»ĭu":8308,"Ġphá»Ľ":8309,"Ġphá»Ŀ":8310,"Ġphá»«ng":8311,"Ġphá»īnh":8312,"Ġphá»ħu":8313,"ĠÄĳÃ¡i":8314,"ÄĲÃ¡":8315,"ÄĲáº¿":8316,"ÄĲáº£":8317,"ÄĲeo":8318,"ÄĲáºŃp":8319,"ÄĲáº§m":8320,"ÄĲáº¡t":8321,"ÄĲá»ĳc":8322,"ÄĲÃ³n":8323,"ÄĲuá»ķi":8324,"ÄĲoÃ¡n":8325,"Ġtrá»Ľ":8326,"ĠÄĳá»ģm":8327,"Ġkhuyá»ĥn":8328,"Ġkhuyáº¿n":8329,"ĠkhÃ¡nh":8330,"ĠThÆ¡":8331,"ĠThÄĥm":8332,"ĠThÆ°a":8333,"ĠThÄĥng":8334,"ĠThÆ¡m":8335,"Ġká»ģm":8336,"áº»n":8337,"áº»o":8338,"ĠkhÃŃt":8339,"ĠyÃªm":8340,"Ġphau":8341,"...!":8342,"...ãĢĳ":8343,"Ġkhá»Ŀ":8344,"Ngao":8345,"NgÆ°á»Ľc":8346,"NgÃłn":8347,"NghÃ¨o":8348,"Ngháº¹n":8349,"ĠSang":8350,"ĠSai":8351,"ĠSay":8352,"ĠSÃºc":8353,"ĠSÃ¢u":8354,"ĠSáº§m":8355,"ĠSÃ¡o":8356,"ĠSÃ³ng":8357,"ĠSÆ°á»Ľng":8358,"ĠSÃ³c":8359,"ĠThÃ¢":8360,"Ġkháº¥t":8361,"Ġkháº¥p":8362,"Ġkháº¥n":8363,"Ġkháº¯t":8364,"Ġhot":8365,"Ġhoáº±ng":8366,"ĠhoÃ¨":8367,"Ġhorm":8368,"ĠTá»¥ng":8369,"ĠTá»ķn":8370,"Ġbari":8371,"ĠThá»ı":8372,"ĠThá»©u":8373,"ĠGáº¡t":8374,"ĠGÃ£i":8375,"ĠKhÃ´":8376,"ĠKhÃ¡ng":8377,"ĠKhÃ¡c":8378,"ĠKhÃ©o":8379,"Ġloáº¹t":8380,"Ġrá»£":8381,"Ġrá»§n":8382,"Ġrá»£p":8383,"Ġrá»Ńng":8384,"ChÄĥm":8385,"Ġquáº£i":8386,"ĠGiÃł":8387,"ĠkhÃ³m":8388,"ĠquÃ¡ch":8389,"Ġkhoáº¯t":8390,"ĠkhoÃ©t":8391,"Ġgá»ıng":8392,"ĠQuáº·ng":8393,"ĠPhÃ¡o":8394,"ĠChÆ°Æ¡":8395,"ĠChÆ¡i":8396,"ĠChÄĥn":8397,"Ġá»©":8398,"Ġá»Į":8399,"Ġá»Ľ":8400,"Ġá»«ng":8401,"Ġá»įc":8402,"Ġá»©a":8403,"Ġá»¦a":8404,"ĠAm":8405,"KhÃ¡":8406,"KhÃ¡n":8407,"Ġthá»§i":8408,"ĠXÃº":8409,"ĠXÆ°a":8410,"ĠXÃ¡n":8411,"ĠXÆ°á»Łng":8412,"ĠXoáº¹t":8413,"ĠNhÆ°Æ¡":8414,"ĠNhiá»ĩt":8415,"Tháº¥p":8416,"Ġdoáº¡":8417,"ĠHá»§y":8418,"ĠHá»įa":8419,"ĠHá»«m":8420,"ĠChÃł":8421,"ĠChÃ©m":8422,"ĠChÃŃn":8423,"ĠChÃłng":8424,"ĠÄĳom":8425,"ĠÄĳoÃ¡i":8426,"Ġmuá»ĵi":8427,"ĠmuÃ´ng":8428,"ĠNháº¹":8429,"ĠNháº¯c":8430,"ĠÄĳá»§i":8431,"ĠkÃ©p":8432,"ĠYá»ĥn":8433,"ĠYá»ĥ":8434,"ĠhÃ³i":8435,"ĠhÃ³p":8436,"Ġquá»µt":8437,"Ġcuá»Ļi":8438,"Ġtoa":8439,"Ġtoáº¡":8440,"ĠtoÃ¡c":8441,"Ġnháº¹p":8442,"Ġngoa":8443,"ĠngoÃ¡c":8444,"Ġngoáº±ng":8445,"ĠngoÃ¨o":8446,"Ġngoáº¹o":8447,"Ġngoáº±n":8448,"ĠLá»Ĺ":8449,"ĠLá»©c":8450,"ĠLá»«a":8451,"ĠLá»Ĺi":8452,"Ġcháº¿ch":8453,"ĠTrá»¥y":8454,"ĠTrá»§ng":8455,"ĠmÃ¹n":8456,"Ġkhuá»µ":8457,"ĠÄĲá»ķ":8458,"ĠÄĲá»ĩt":8459,"ĠbÃłu":8460,"ĠbÃłnh":8461,"Vá»ĩ":8462,"Vá»Ĺ":8463,"Thai":8464,"Thuyáº¿t":8465,"ThÃ¹":8466,"ThÃŃnh":8467,"ThÃ¡n":8468,"Ġvun":8469,"ĠDá»«ng":8470,"ĠDá»įc":8471,"Ġruá»ĵng":8472,"ĠnÃ©p":8473,"ÄĲá»©c":8474,"ÄĲá»ĭnh":8475,"ĠxoÃ¡":8476,"Ġxoong":8477,"ĠKhen":8478,"ĠKhuyá»ĥn":8479,"Ġxá»īnh":8480,"Lá»¡":8481,"Lá»Ľp":8482,"Lá»ģu":8483,"ĠThua":8484,"ĠThuÃª":8485,"ChÃŃp":8486,"ChÃ¡n":8487,"Thá»£":8488,"Thá»ı":8489,"Thá»ķ":8490,"Thá»ķi":8491,"Tá»³":8492,"Tá»¥ng":8493,"Tá»īnh":8494,"Ġhá»ģu":8495,"Há»§y":8496,"ĠNgá»«ng":8497,"ĠNgá»įn":8498,"Que":8499,"QuÃªn":8500,"Quang":8501,"Quáº»":8502,"ĠCÆ¡m":8503,"ĠÃĴ":8504,"ĠÃįch":8505,"PhÃ³ng":8506,"ĠChim":8507,"ĠChiÃªu":8508,"ĠChiáº¿t":8509,"ĠChiÃªm":8510,"ĠChiáº¿p":8511,"Khinh":8512,"GiÃł":8513,"GiÆ¡":8514,"Giáº£ng":8515,"GiÃ£y":8516,"ĠVá»£":8517,"Má»ĭ":8518,"Má»«ng":8519,"Cháº©m":8520,"Cháº¥n":8521,"Ġtháº£nh":8522,"ĠMá»ħ":8523,"ĠMá»ĩt":8524,"Ġsum":8525,"ĠsuÃª":8526,"Ġlá»ĵm":8527,"ĠNghiá»ĩm":8528,"Ġáº¶c":8529,"Bá»ģ":8530,"Bá»ķ":8531,"Bá»Ŀ":8532,"Bá»¥p":8533,"Bá»įt":8534,"Ġxá»Ńng":8535,"ĠKhoáº£nh":8536,"Ġtá»¥m":8537,"Ġ'+'":8538,"ĠcÅ©i":8539,"ĠThiáº¿p":8540,"ĠCháº·n":8541,"ĠCháºŃc":8542,"Ġkáº¿ch":8543,"ĠPháºŃn":8544,"Ná»ģn":8545,"Cá»Ń":8546,"Cá»ķng":8547,"Nham":8548,"ĠRÄĥng":8549,"Thiáº¿n":8550,"Ġnguáº©y":8551,"Khai":8552,"Khung":8553,"Khuyáº¿t":8554,"âĢĶ!":8555,"Chá»£":8556,"Chá»©":8557,"Chá»©c":8558,"Chá»¯a":8559,"Chá»«ng":8560,"âĢĻ?":8561,"âĢĻ.âĢĿ":8562,"ĠbÃ¹m":8563,"ĠBá»ĭa":8564,"Ġ59":8565,"ĠKhiÃªu":8566,"Nháº£y":8567,"Nháº«n":8568,"ĠHuyÃª":8569,"á»ªa":8570,"âĢľ.ãĢĳ":8571,"Trá»įn":8572,"Ġ105":8573,"Ġáº¢o":8574,"Pháº¡m":8575,"Pháº£ng":8576,"ĠSantan":8577,"NhÃ³m":8578,"NhÃ³c":8579,"Ġ72":8580,"Ġ73":8581,"Ġ74":8582,"Ġ76":8583,"Ġ77":8584,"Ġ78":8585,"Khoang":8586,"KhoÃ©":8587,"Giam":8588,"Ġ61":8589,"Ġ62":8590,"Ġ63":8591,"Ġ65":8592,"Ġ66":8593,"Ġ68":8594,"Ġ69":8595,"ĠNgÃµa":8596,"Ġáº¤y":8597,"Dá»±":8598,"Dá»ħ":8599,"Dá»ĭ":8600,"Dá»įa":8601,"ĠÆ¯m":8602,"âĢĶâĢĶâĢĿ":8603,"Ġ120":8604,"Ġ127":8605,"Ġ1270":8606,"ĠSá»Ľm":8607,"Ġ84":8608,"Ġ850":8609,"Chia":8610,"Chiáº¿m":8611,"Ngá»¯":8612,"Ngá»±":8613,"Â»!":8614,"Ġtá»īa":8615,"Thuáº¿":8616,"ĠhuÆ¡":8617,"ĠhuÃ½ch":8618,"Ġ90":8619,"Ġ98":8620,"ĠÃģc":8621,"ĠÃģo":8622,"Ġchá»Łm":8623,"ĠNá»ĥ":8624,"Ġ180":8625,"ĠchÃłi":8626,"ÃĢi":8627,"Äĳáº¡o":8628,"Äĳáº¯c":8629,"Äĳáº·c":8630,"Äĳá»ĵng":8631,"Ġnhoáº»n":8632,"ĠChá»©":8633,"ĠChá»įn":8634,"ĠChá»ĭu":8635,"ĠchÃ¹y":8636,"Ġxá»īa":8637,"Ġxá»īn":8638,"Kháº£i":8639,"Kháº³ng":8640,"Khá»ķ":8641,"Khá»ĳi":8642,"Khá»©u":8643,"Ġvá»Łn":8644,"ĠKháº©n":8645,"------":8646,"ĠÂ».":8647,"ĠÃĢo":8648,"Khuáº¥t":8649,"ĠÄĳá»ĳp":8650,"phÃ³ng":8651,"phÃ¡i":8652,"phÃºc":8653,"ĠâĺħâĺĨâĺĨ":8654,"giÃ¡":8655,"giÃ³":8656,"giáº¥u":8657,"Ġlá»Łm":8658,"Ġlá»Łn":8659,"truyá»ģn":8660,"Ġdáº»o":8661,"Muá»Ļn":8662,"ĠcÃłu":8663,"ĠKhÃ³c":8664,"áº¤n":8665,"áº¤t":8666,"Ġnháº£u":8667,"LuáºŃt":8668,"thanh":8669,"Ġná»ĩm":8670,"ĠKhuÃ´ng":8671,"ĠKhuáº©n":8672,"tháº¥t":8673,"tháº§y":8674,"ĠhÃ¹a":8675,"áº¢nh":8676,"Ġ217":8677,"bá»ĭ":8678,"cá»ķ":8679,"cá»Ńu":8680,"chÃ¢n":8681,"ĠEo":8682,"Ġ460":8683,"Ġ4600":8684,"201":8685,"use":8686,"Ġgas":8687,"Ġghá»ģ":8688,"ĠQuá»³nh":8689,"khoáº£ng":8690,"ĠhÃ£ng":8691,"Ġnháº½o":8692,"140":8693,"180":8694,"BuÃ´ng":8695,"GrÃło":8696,"ĠnhÃ²a":8697,"ĠnhÃ²e":8698,"NghiÃªm":8699,"Ġ434":8700,"Gá»£n":8701,"TÃłu":8702,"cháº¿t":8703,"nhÃł":8704,"nhÃ¢n":8705,"quáº§n":8706,"ric":8707,"á»Įc":8708,"ĠmÃµm":8709,"Ġá»įe":8710,"Ġá»įp":8711,"Hahaha":8712,"chim":8713,"ná»¯":8714,"pháº§n":8715,"Ġfil":8716,"Ġprotein":8717,"ĠÃĤu":8718,"uá»·u":8719,"352":8720,"RÆ°á»£u":8721,"khiáº¿u":8722,"lÃłm":8723,"mua":8724,"Ġblouse":8725,"Ġhuá»ģ":8726,"ĠxoÃłm":8727,"ĠMorse":8728,"Ġhormone":8729,"ĠYá»ĥm":8730,"Ġkhuá»µu":8731,"ĠSantana":8732}